{"\u010a\u0109\u0120": 17982, "\u0120reject": 12009, "\u0120ribbon": 28865, "new": 1826, "\u0120\u00c3\u00b6ver": 39966, "\u0120vague": 21248, "doc": 7152, "south": 34542, ">$": 24576, "dt": 7064, "\u010a\u0120\u010a\u0120\u010a\u0120\u010a\u0120": 25395, "LN": 44614, "\u0120region": 2919, "Ali": 25131, "\u0120thank": 5717, "SD": 3871, "iture": 10233, "\u0120visa": 25105, "Alloc": 33715, "\u0120245": 22752, "\u0120NSW": 40035, "\u0120brackets": 26609, "\u0120fragmentation": 27159, "\u0120kont": 36109, "\u0120rend": 21233, "\u00d0\u00be\u00d0\u00bb\u00d1\u012e\u00d0\u00ba\u00d0\u00be": 41601, "paces": 32328, "\u0120summing": 49947, "enging": 40901, "\u00d0\u00be\u00d0\u00b6": 14706, "\u0120Integr": 17712, "\u0120solver": 47037, "jas": 33583, "goal": 41881, "\u0120acquaint": 28262, "\u0120inconven": 24890, "jective": 25667, "\u0120Reform": 27828, "\u0120realism": 40135, "etype": 40427, "\u0120magnific": 24183, "\u0120provisions": 10067, "\u0120Republican": 8786, "\u0120636": 49921, "\u0120Tum": 35814, "pharm": 24616, "\u0120bony": 45861, "\u0120headlines": 27815, "\u0120investigative": 35070, "\u0120Panc": 49561, "\u0120incorporation": 24319, "\u0120migrated": 40891, "clock": 13273, "\u0120Left": 15584, "\u00e7\u013b\u00ba": 34160, "\u0120Roberto": 46773, "\u0120ids": 44077, "Dev": 11148, "Ann": 20339, "\u0120PM": 5365, "\u0120amel": 33033, "\u0120behold": 38189, "\u0120elic": 24021, "prepared": 35711, "foods": 36632, "so": 601, "\u0120majority": 5020, "\u00e2\u0122\u013f)": 15440, "\u0120Present": 23952, "/>": 4357, "\u0120Organic": 44278, "\u0120intensely": 42189, "\u0120contem": 8203, "ancel": 18721, "\u0120dementia": 21763, "\u0120Hammer": 44591, "performance": 24159, "\u0120round": 3790, "ero": 2771, "\u00c3\u00bb": 24690, "\u0120Nicolas": 46312, "\u00e5\u013b": 32053, "\u0120amaz": 7001, "practice": 29105, "\u00d7\u013d": 35154, "->_": 24815, "\u0120bout": 23928, "\u0120motorcycle": 30649, "\u0120kar": 46247, "\u0120aug": 14688, "agon": 5154, "\u0120Tanz": 39924, "\u0120FIR": 48288, "\u0120Iraqi": 24923, "\u0120Refuge": 44438, "\u0120taxa": 29821, "\u0120Marshal": 36923, "scan": 22798, "Ash": 35769, "trial": 21845, "\u0120bif": 25171, "\\*](#": 18022, "\u0120Golf": 32154, "\u0120illust": 15612, "\u0120math": 14168, "\u0120prostitution": 43881, "gio": 40635, "520": 34963, "sten": 16750, "\u0120suspend": 32407, "Vector": 15219, "\u0131": 226, "Entry": 14085, "phot": 22468, "\u0120daunting": 47216, "plates": 13436, "\u0120Quest": 21224, ";_": 29234, "\u0120remains": 4558, "ouse": 1312, "Enjoy": 45772, "zz": 4396, "\u00d0\u013f": 25518, "Gal": 19393, "Once": 10758, "\u0120Austrian": 29535, "\u0120Esq": 49286, "\u0120Hence": 7757, "\u00c2\u0122": 9589, "Did": 8917, "baseline": 44650, "layers": 33990, "\u0120Phill": 16019, "pad": 11022, "\u0120Sector": 48899, "61": 3832, "mount": 16285, "rote": 3326, "usi": 28954, "\u0120Ra": 11605, "\":": 1381, "\u0120VT": 36989, "\u0120acceptance": 14924, ")}/\\": 46201, "MODULE": 27660, "ito": 7067, "\u0120Hawaii": 22085, "cons": 5040, "\u0120actu": 22664, "\u0120colleg": 18841, "\u0120ding": 50097, "aim": 1468, "\u0120\"<": 16375, "''": 6267, "\u0120dispersion": 15641, "}_{-": 19289, "Coord": 32876, "\u00e3\u0125\u00bc": 6996, "\u0120Ana": 28642, "Suppose": 4140, "ets": 1507, "iji": 27520, "\u0120domin": 7630, "\u0120errors": 6332, "\u0120hipp": 15241, "\u0120($(": 38341, "\u0120melt": 14534, "\u0120recalling": 43800, "Kh": 35994, "\u0120Gate": 20952, "\u0120possesses": 25099, "Dad": 34234, "proc": 21299, "\u0120Queen": 11628, "\u0120Vol": 6845, "\u0120warm": 5890, "\u0120\u00c3\u0142": 4057, "\u0120\u00c5\u00a1": 23933, "CK": 7519, "\u0120lia": 45652, "\u0120sooner": 19473, "JECT": 19290, "\u0120545": 42974, "\u0120OR": 4145, "\u0120suc": 8227, "arts": 12863, "Dick": 47691, "\u0120delivers": 26361, "cig": 42537, "\u0120infertility": 44371, "}}}": 6092, "\u0120dramatic": 14138, "\u0120correspondingly": 47512, "h\u00c3\u00a4": 46276, "\u0120bullshit": 35281, "\u0120neoplastic": 44686, "\u0120adequ": 7825, "\u0120Uh": 41932, "quartile": 42899, "\u0120understood": 7192, "\u0120heated": 16934, "specified": 30878, "Defendant": 25187, "\u0120diminish": 37856, "Ryan": 38200, "\u0120IC": 9276, "\u0120duplicate": 21036, "||": 9473, "\u0120518": 43111, "\u0120429": 35597, "ex": 911, "ilot": 33236, "ialog": 6690, "\u0120conv": 2410, "\u0120deposition": 12503, "ora": 6464, "\u0120lawsuits": 33563, "inal": 989, "Family": 21276, "\u0120Formula": 26658, "\u0120press": 2315, "\u0120torus": 32621, "lsen": 49990, "\u0120254": 29501, "\u0120graduation": 31313, "alsa": 37809, "\u0120'<": 21083, "\u00e8\u012b": 32417, "etti": 21037, "\u01202001": 6585, "jdbc": 43313, "ycl": 9920, "\u0120square": 6278, "dotted": 46774, "oscopic": 15297, "anyl": 38593, "Os": 17174, "\u0120loving": 18248, "\u0120jumped": 16780, "\u0120hippocampal": 30348, "\u0120shone": 43256, "SEQ": 41107, "Ric": 45668, "\u0120Protection": 17504, "mak": 45879, "\u0120piano": 18542, "DOWN": 35248, "Bits": 31736, "425": 32218, "ques": 10999, "neq": 9540, "\u0120propriety": 47273, "\u0120Qaeda": 41136, "})(": 34227, "apore": 15375, "\u0120diseased": 45644, "\u0120downward": 21169, "\u0120irre": 21388, "terminus": 40691, "qp": 39541, "\u0120Republicans": 11885, "terror": 32511, "\u0120brow": 6479, "\u0120convenience": 16397, "\u0120PLAY": 45516, "acillus": 27755, "BY": 15012, "Graphics": 37430, ")/\\": 32615, "\u0120JNK": 44454, "\u0120Wrong": 47693, "\u0120rodent": 40815, "aea": 47542, "\u0110": 193, "]_": 33376, "repeat": 24712, "usual": 45580, "\u0120Colleg": 43613, "\u0120radios": 40908, "\u0120hip": 13290, "\u0120elast": 30595, "Expression": 16960, "612": 39649, "DW": 14279, "Emer": 43535, "\u0120nonzero": 28078, "\u0120Cannot": 43336, "amed": 3163, "\u00eb": 167, "\u0120peppers": 39916, "unciation": 38108, "\u0120rainbow": 37422, "\u0120rename": 41838, "\u0120two": 767, "\u0120synerg": 26455, "Device": 15982, "\u0120permitted": 11460, "Dir": 13694, "dev": 3620, "\u0120crystalline": 28138, "\u0120Fin": 7198, "($_": 32966, "\u0120symmetrical": 42736, "\u0120vision": 8113, "\u0120mechanics": 17823, "uffle": 23831, "\u0120Gold": 7284, "618": 47017, "\u0120appl": 2999, "\u0120ART": 23681, "\u0120falling": 10805, "**~": 45332, "116": 13210, "\u0120sights": 29962, "\u0120worrying": 29124, "!\"": 1476, "atories": 15829, "ionate": 43693, "\u0120ES": 15459, "\u0120Lakes": 32396, "odegrad": 42059, "ums": 7640, "\u0120constituting": 38015, "atase": 42694, "ILITY": 11913, "ducer": 21639, "si": 9245, "wig": 28015, "\u0120scholar": 26902, "\u0120estimates": 8197, "\u0120Among": 9658, "\u0120async": 20605, "\u0120sclerosis": 33565, "PUT": 16143, "\u0120midfield": 40860, "\u0120my": 619, "\u0120plays": 7120, "\u0120tasks": 8892, "\u0120security": 3988, "992": 34363, "\u00e4\u00b8\u0122": 9850, "'ll": 1833, "Volume": 28968, "visible": 22772, "rep": 4762, "rolet": 46712, "appropriate": 15976, "\u0120Assert": 22265, "\u0120National": 3313, "aminergic": 41123, "\u0120Publ": 15739, "\u0120Libert": 37779, "()</": 46410, "\u0120Copy": 27671, "\u0120CVD": 30243, "ungle": 24895, "\u0120[*": 3921, "\u0120graft": 13684, "Leave": 30359, "phe": 21289, "\u0120imprisoned": 32749, "\u0120leverage": 25057, "\u0120flush": 26363, "icki": 40176, "\u0120Maz": 30173, "\u0120depleted": 33661, "Student": 36303, "\u0120centrally": 44411, "\u0120inflict": 25504, "\u0120stack": 8031, "\u0120toim": 45641, "&#": 11167, "\u0120ten": 3578, "\u0120writers": 11597, "Parse": 21962, "\u0120Log": 8192, "ocent": 40420, "\u00ea": 166, "\u0120Cunningham": 45691, "imos": 29058, "\u0120Nate": 42973, "INVAL": 22189, "\u0120Sent": 20580, "\u0120analyses": 6260, "iba": 33068, "\u0120liked": 10490, "1953": 40533, "conditioning": 42743, "\"],": 21391, "placing": 47972, "\u0120burner": 50078, "\u0120quit": 15856, "\u0120understanding": 4685, "\u0120capacitors": 45036, "oved": 3149, "\u0120curly": 49721, "Fat": 30597, "Delegate": 23757, "\u0120Mixed": 45126, "\u0120biased": 23539, "\u0120habeas": 23870, "\u0120smiling": 18727, "\u0120submit": 11929, "\u0120theolog": 48342, "\u0120remod": 21150, "metry": 15043, "usta": 38334, "aps": 1825, "touch": 30713, "\u0120189": 24665, "\u0120They": 1583, "\u0120petitions": 33432, "Mouse": 24431, "esta": 17062, "urg": 3922, "Director": 29150, "shore": 21658, "transition": 25974, "\u0120Hoff": 27502, "\u0120linking": 20057, "\u0120title": 4060, "Closed": 49791, "\u0120137": 14509, "\u0120encryption": 24589, "\u0120PLA": 36770, "\u0120outer": 8346, "World": 14947, "Notice": 30943, "\u0120footsteps": 33535, "\u0120forwarding": 45279, "\u0120laboratory": 9965, "\u0120Grav": 29130, "\u0120relinqu": 42289, "\u0120superposition": 45616, "rible": 8448, "WARN": 24798, "asured": 47845, "ochemistry": 18334, "\u0120Satan": 28364, "\u0120artist": 9558, "nals": 16474, "\u0120province": 14254, "\u0120homeless": 20783, "\u0120perfor": 27024, "description": 10008, "\u0120characterization": 14846, "\u0120Hunt": 25199, "\u0120month": 1770, "]=": 18772, "$,": 1366, "ITED": 12663, "Critical": 42993, "cycl": 12642, "formations": 44837, "==============": 26446, "\u00c2\u00a3": 14775, "\u00e9\u013e\u0122\u00e8\u00a6\u0123": 47905, "\u0120Hof": 43016, "\u0120face": 2454, "\u0120famil": 31786, "\u0120nutrition": 12461, "644": 25959, "\u0120paths": 11865, "\u0120lingering": 42578, "\u0120Display": 27604, "\u0120273": 31282, "essed": 16187, "%%%%%%%%%%%%%%%%": 41511, "ANOVA": 44908, "\\])]{}": 46468, "deed": 3999, "\u0120Xen": 40108, "\u0120achieves": 33526, "\u0120however": 2299, "\u0120j\u00c3\u00a1": 36252, "board": 4697, "\u0120sell": 5580, "\u0120stimulated": 18606, "orea": 46080, "\u0120develops": 24357, "\u00e2\u0122\u0136.": 34624, "\u0120Brewing": 47922, "\u0120destination": 12095, "habilitation": 16626, "Gre": 37680, "hline": 39891, "\u0120voter": 23800, "\u0120concedes": 44184, "\u0120Flynn": 33149, "\u0120Initial": 23280, "played": 35293, "inally": 3341, "\u0120convex": 17133, "Dam": 21727, "ear": 613, "derived": 13472, "sche": 9163, "\u0120Advisory": 34136, "\u0120delle": 26027, "\u0120Dakota": 23528, "\u0120QUE": 43086, "ARRANT": 11486, "\u0120Scar": 26709, "\u0120enjoy": 4264, "\u0120Fel": 17918, "Ger": 41032, "Shape": 26403, "\u0120disguise": 40646, "\u0120experiences": 8450, "\u0120half": 2716, "\u0120modo": 29505, "\u0120formatting": 33907, "\u0120open": 1527, "\u0120zal": 47148, "fet": 39792, "219": 24558, "\u0120diese": 36054, "\u0120\u00ce\u00ba\u00ce\u00b1": 18383, "\u00d8\u00ac": 23072, "Fish": 48290, "nership": 10026, "Changed": 17196, "\u0120containment": 46054, "\u0120Frank": 6893, "205": 16763, "614": 47161, "wc": 38212, "\u0120spelled": 43997, "\u0120manslaughter": 44182, "Mart": 15510, "\u0120convergent": 41886, "1980": 16134, "\u0120initialized": 31260, "Kelly": 49062, "opf": 36470, "\u0120%%": 38689, "kwargs": 36830, "\u0120gentle": 9950, "\u00da\u00a9": 18775, "\u0120reduce": 4796, "\u0120errno": 20211, "\u0120qualify": 19478, "\u0120viscosity": 21819, "vert": 1748, "\u0120brass": 27188, "\u0120(/": 46633, "olecule": 44014, "\u0120A": 329, "\u0120Horizontal": 46724, "\u0120locus": 18519, "Main": 13030, "csv": 25265, "Supporting": 33327, "\u0120judgments": 23014, "\u0120photographs": 15928, "inai": 45194, "era": 3525, "iPhone": 40887, "uan": 9041, "\u0120revenge": 25442, "minimum": 35674, "\u0120litter": 30653, "\u0120education": 4730, "\u0120prev": 1404, "George": 23108, "\u0120stroll": 42121, "\u0120porous": 26665, "icker": 13749, "\u0120Turn": 11748, "\u0120Mormon": 34275, "gue": 25070, "want": 28206, "\u0120Horn": 23972, "\u0120However": 1723, "\u0120Guarant": 43646, "\u0120erroneous": 21210, "\u0120hous": 4987, "\u0120prz": 38790, "\u0120residence": 12913, "\u0120five": 2620, "\u0120intu": 16875, "Fatal": 47837, "\u0120sister": 7586, "\u0120Mem": 6700, "\u0120ook": 28562, "\u0120waking": 31582, "ocyan": 26632, "duino": 43728, "font": 4909, "\u0120ornament": 34367, "\u0120Based": 10635, "\u0120Cellular": 49272, "el": 293, "\u0120Tri": 11835, "Tasks": 44131, "\u0120desc": 1398, "\u0120II": 3719, "\u0120Bern": 10246, "\u0120Kore": 6588, "het": 6168, "\u0120PBS": 13626, "203": 17490, "uple": 13932, "\u0120Spearman": 48837, "\u0120Dag": 49508, "}</": 28379, "Documents": 43080, "151": 18795, "PES": 42143, "ELD": 21901, "chers": 13580, "merge": 27814, "umina": 25029, "\u0120appell": 11582, "\u0120expansion": 7466, "\u0120wishes": 16995, "\u0120\u00c3\u00a7": 20078, "ayout": 5038, "\u0120Nag": 21987, "\u0120borrowed": 29563, "nger": 9105, "AtIndex": 44936, "\u00e3\u0123\u012e": 6957, "\u0120bury": 33163, "\u0120fprintf": 43164, "\u0120friends": 3858, "Receiver": 44582, "\u0120Zip": 48695, "\u0120fulfilled": 25146, "nonumber": 6274, "\u0120ganglia": 49237, "\u0120calculus": 34171, "\u00c3\u00a6": 5507, "\u0120Casino": 41333, "\u0120Island": 8451, "\u0120fl": 892, "\u0120fortified": 50251, "Sent": 29710, "\u0120portrayed": 30804, "RPC": 48095, "copy": 12557, "\u012075": 6879, "avo": 41231, "\u0120relating": 12600, "\u0120temperatures": 9208, "\u0120disappear": 15529, "\u0120\u00eb\u00a7": 46927, "hon": 25224, "clos": 45872, "\u01201966": 19213, "\u0120Mont": 7812, "\u0120embodiments": 24898, "\u0120Transaction": 43529, "\u0120elegant": 20654, "coated": 27097, "uncture": 27206, "ographer": 25895, "\u0120bankruptcy": 13165, "vel": 652, "\u0120feature": 4735, "ome": 485, "\u0120Num": 21046, "ogram": 12935, "manual": 39842, "icul": 10152, "\u0120residential": 16252, "ATP": 25606, "enty": 4108, "rik": 16409, "rit": 902, "\u0120housed": 24981, "\u0120timber": 30578, "\u00e3\u0124\u0131": 23872, "sequ": 2346, "\u0120Lindsay": 44056, "\u0120counterpart": 14317, "USE": 17423, "ortality": 48317, "fer": 1592, "\u0120abdominal": 17322, "\u0120bad": 3076, "\u0120sink": 16338, "KS": 14007, "ioned": 10998, "\u0120potential": 2442, "\u0120albicans": 46761, "=====": 43024, "\u0120Heat": 22512, "\u0120will": 588, "\u0120246": 30439, "\u00b9": 119, "enches": 44404, "\u0120Corner": 44393, "\u0120safely": 15792, "chol": 34786, "DIV": 37151, "\u0120observational": 21899, "031": 26045, "\u0120salad": 22462, "anned": 5442, "arm": 1513, "hentication": 23058, "icarbon": 49899, "ship": 5363, "\u0120bat": 10464, "\u0120Inn": 14515, "\u0120TLS": 36249, "\u0120Socialist": 36781, "\u0120candy": 26996, "\u0120hid": 29334, "\u0120previous": 2045, "\u0120sweat": 17052, "\u0120touched": 14435, "\u0120billion": 6494, "rast": 42836, "\u0120stripe": 39832, "\u0120Mayer": 47674, "biom": 29812, "consum": 20612, "\u0120refers": 10770, "NFTA": 44988, "CHAR": 15843, "\u0120Tax": 13662, "\u0120din": 13223, "'''": 35033, "\u0120SOL": 43148, "TAG": 22227, "vr": 24987, "charge": 7778, "\u0120On": 1623, "\u0120hypothetical": 27710, "\u0120parallel": 7529, "\u0120suppressed": 16013, "au": 1952, "stanbul": 36563, "\u00e9\u00ab\u013a": 30903, "\u0120density": 4038, "\u0120rallies": 49727, "\u0120Was": 12349, "rest": 1120, "\u0120plating": 40774, "\u0120Dun": 12221, "\u0120adds": 11323, "\u0120detail": 2508, "uation": 2368, "\u0120herd": 33361, "avern": 38545, "\u0120Reve": 33084, "\u00e6\u00b0\u0131": 49650, "\u0120\u0120\u0120\u0120\u0120\u0120\u0120\u0120\u0120\u0120\u0120\u0120\u0120\u0120\u0120\u0120\u0120\u0120\u0120\u0120\u0120\u0120\u0120\u0120\u0120\u0120\u0120\u0120\u0120\u0120\u0120\u0120\u0120\u0120\u0120\u0120\u0120\u0120\u0120\u0120\u0120\u0120\u0120\u0120\u0120\u0120\u0120": 16727, "\u0120defended": 25860, "ploy": 1667, "193": 19631, "venue": 7290, ";\"": 16352, "Tom": 15883, "\u0120strongest": 19508, "declare": 42754, "hn": 13107, "ogn": 2331, "ities": 1005, "\u0120Reference": 19039, "utum": 44080, "application": 13259, "ection": 2441, "elo": 29595, "(!": 20273, "\u0120Tiger": 31822, "\u0120[\"": 15640, "\u0120Eco": 48804, "\u0120bankrupt": 35728, "\u0120created": 3562, "\u0120joke": 16391, "\u0120ice": 6749, "shown": 40831, "Beck": 46248, "\u0120didn": 1904, "\u0120Interstate": 40874, "peror": 14652, "\u0120Sandra": 43785, "\u0120doubly": 44881, "\u0120ones": 4394, "ails": 5351, "ada": 2960, "\u0120Pf": 29176, "\u0120prosecuted": 39459, "\u0120concluding": 26215, "chrom": 26539, "ctl": 19207, "react": 22312, "\u0120fathers": 24593, "\u0120masking": 44790, "\u0120proved": 8058, "\u0120r\u00c3\u00a9g": 35234, "\u0120subsystem": 42146, "(),": 5715, "}|^": 37207, "\u0120costing": 45964, "}}_": 5000, "\u0120unaware": 25229, "Martin": 28448, "\u0120western": 10439, "\u0120spotlight": 34543, "cosh": 39813, "quired": 17050, "\u0120UE": 21581, "\u0120Nancy": 23397, "\u0120speculation": 22898, "page": 6377, "\u0120stimulus": 15199, "\u0120ikke": 19574, "\u0120promin": 28760, "oubt": 17290, "\u0120celebrated": 19651, ">&": 12399, "atham": 46621, "\u0120Gram": 22197, "\u0120minds": 13846, "indicated": 47084, "\u0120wrap": 16384, "\u0120shortages": 46163, "\"\\": 35343, "CoA": 40117, "extend": 31930, "fielder": 33299, "reditation": 48001, "...": 1051, "code": 3211, "xB": 39747, "Women": 22737, "\u0120Parl": 30576, "instr": 32548, "Classes": 27290, "\u0120Sol": 8144, "\u0120Vietnam": 15732, "\u0120bacter": 5565, "\u0120biggest": 5962, "\u0120complete": 3426, "\u0120instrument": 7935, "\u0120lateral": 11884, "\u0120minorities": 31691, "NOT": 10311, "ependence": 23907, "LG": 37673, "ionization": 46844, "\u010a\u010a\u0109\u0109": 11866, "\u0120Tud": 50005, "Road": 45615, "\u00e2\u0123": 25086, "\u0120\\#": 13181, "\u0120anion": 40765, "PropertyGroup": 41410, "\u0120anniversary": 19054, "\u0120hips": 29434, "AY": 8506, "\u0120colorectal": 23878, "\u0120sensit": 21750, "\u0120Maur": 21664, "timeout": 23896, "\u0120hesitation": 39500, "\u0120maps": 8115, "\u0120rating": 13716, "\u0120tert": 24566, "\u00c3\u0143v": 49099, "formance": 12301, "\u0120pun": 5419, "fraction": 46991, "\u010a\u0109\u0109\u0109\u0120\u0120\u0120": 42820, "\u0120uncor": 41656, "\u0120uneven": 30914, "American": 7878, "ARY": 11164, "\u0120hypot": 37251, "\u0120Cork": 44261, "\u0120partitioning": 41463, "\u0120hospitalization": 28344, "\u0120unrest": 27572, "Tip": 32224, "\u0120macrophages": 15431, "\u0120polls": 22207, "appropri": 13759, "essee": 15031, "\u00e4\u00b8\u00aa": 16401, "/(-": 5584, "Geometry": 37130, "puted": 19280, "\u0120pr": 819, "ORM": 25201, "\u0120154": 21603, "whose": 39374, "\u0120Electro": 38566, "\u0120Hond": 44509, "\u0120flow": 2685, "\u0120nets": 37507, "},$": 41302, "\u0120relapse": 28524, "!}": 43422, "aj": 1432, "\u0120collections": 18406, "oids": 9448, "gc": 23654, "\u0120Ricky": 49557, "oietic": 30850, "test": 2566, "\u0120EPA": 19809, "screen": 14396, "\u0120Electronic": 31029, "Land": 24731, "Rat": 48623, "\u0120PEG": 32780, "\u0120Ler": 41664, "\u0120Soc": 14162, "\u0120annotations": 31825, "\u0120barr": 38700, "\u00c3\u00a9ration": 49957, "\u0120constructed": 8818, "\u00d8\u00b7": 29937, "pass": 5858, "\u0120dignity": 24027, "\u0120dispensing": 38951, "\u0120dose": 6178, "\u0120dropdown": 39458, "ancers": 13342, "\u0120datasets": 15302, "hemat": 10479, "\u0120call": 1067, "generative": 36749, "\u0120foliage": 46441, "\u0120hatred": 24307, "\u0120landing": 15165, "\u0120falsely": 39380, "\u0120link": 3048, "\u0120neoplasms": 48967, ")[": 6904, "Lookup": 48061, "\u0120Housing": 28706, "\u00e3\u0124\u012a\u00e3\u0123\u0128": 28254, "\u0120con": 345, "\u010a\u010c": 8675, "\u0120Arist": 23500, "\u0120palliative": 44871, "\\]).": 8001, "\u0120prayer": 15851, "\u0120Det": 4597, "chains": 47513, "ovsky": 42891, "\u0120Dean": 19172, "IGN": 13003, "\u0120categ": 6509, "841": 39506, "\u0120electrophoresis": 27273, "\u0120leases": 47194, "\u00ce\u00bf\u00cf\u0127\u00cf\u0124": 37833, "CRYPT": 43184, "Socket": 22274, "aign": 4126, "\u0120prior": 2720, "\u00e5\u00a5": 17474, "\u0120una": 5940, ".,": 904, "\u0120Anyway": 28814, "\u0120PKC": 43423, "\u0120cultures": 11048, "\u0120excitement": 18349, "\u0120gravit": 15885, "\u0120chest": 9081, "\u0120fertil": 30465, "Minn": 39235, "\u00c3\u00a2nd": 37890, "\u0120interaction": 5016, "\u0120presume": 35533, "\u00e2\u0122\u0135\u00e2\u0122\u0135\u00e2\u0122\u0135\u00e2\u0122\u0135\u00e2\u0122\u0135\u00e2\u0122\u0135\u00e2\u0122\u0135\u00e2\u0122\u0135": 32821, "\u0120GCC": 42777, "\u0120libert": 20107, "\u00e0\u00a4\u00a8": 23068, "Jos": 49733, "\u0120\u00d0\u00be": 6099, "\u0120links": 4859, "Pacific": 34114, "\u0120NF": 14100, "mass": 14611, "\u0120Me": 3189, "\u0120Thereafter": 33041, "erry": 9587, "\u0120wenn": 35569, "Fortunately": 48851, "cores": 38337, "\u0120logarithmic": 32643, "\u0120environments": 12620, "bourne": 17722, "\u0120eaten": 22186, "\u0120separating": 23694, "Swed": 42589, "\u00e2\u0139": 27739, "\u0120GG": 44010, "\u0120Veteran": 44117, "\u0120animation": 16904, "\u0120ninth": 28023, "\u0120DLL": 40343, "Product": 13443, "\u0120Model": 10031, "gressive": 11020, "\u0120sheaf": 45658, "\u0120violates": 28096, "\u0120deleted": 16737, "\u0120Leader": 23387, "\u00cf\u0123\u00ce\u0143": 41620, "BF": 16380, "\u00e3\u0124\u00b3": 26003, "\u00e7\u0130": 20241, "\u0120verge": 39931, "GIN": 19842, "\u0120Ing": 37095, "IME": 10650, "\u0120Sheriff": 22565, "\u0120elaborated": 50221, "\u0120Mayo": 42870, "yyyy": 41246, "\u010d\u010a\u010d\u010a\u0120\u0120\u0120\u0120\u0120\u0120\u0120\u0120\u0120\u0120\u0120": 38827, "\u0120Rochester": 39528, "\u0120Strat": 37904, "inished": 40313, "\u0120advert": 7314, "\u0120restricts": 45798, "OPER": 43724, "\u0120rode": 22461, "293": 19630, "GLE": 24450, "\u0120reboot": 29393, "\u0120tightening": 48594, "\u0120370": 32002, "\u0120encapsulated": 42221, "\u0120compare": 7277, "neapolis": 29922, "athering": 44627, "FILE": 13690, "cursors": 30414, "\u00e5\u0143": 10674, "\u0120Drum": 39582, "\u0120hosted": 17386, "\\,": 4615, "\u00e6\u013d": 20286, "shared": 18867, "\u00d1\u0122\u00d0\u00b5\u00d0\u00bc": 40412, "\u0120GDP": 24820, "rell": 11436, "\u0120Gill": 24465, "\u0120fac": 2344, "\u0120rou": 30497, "\u0120thermoplastic": 48766, "mittee": 6614, "\u0120\u00c2\u00b5g": 22762, "\u00c3\u00a1": 1757, "\u01201925": 31610, "\u0120loud": 11216, "\u0120hypert": 10781, "\u0120WO": 25069, "\u0120assaulted": 37576, "pletion": 16637, "\u0120Ja": 21572, "InstanceState": 36802, "nested": 47628, "lish": 3742, "aI": 45884, "\u0120seller": 24451, "\u0120Bay": 6912, "\u0120lat": 4329, "\u0120nasal": 23761, "\u0120Nottingham": 48586, ")}_{\\": 38225, "Relations": 39466, "\u0120Lac": 27910, "insic": 12003, "\u0120Iz": 37418, "\u0120Rptr": 35998, "\u0120Brom": 45778, "\u0120harmless": 25365, "\u0120origins": 20801, "\u0120ordinal": 50144, "\u0120cert": 5306, "jax": 20262, "\u0120TX": 19685, "\u0120opaque": 34350, "ons": 790, "(\"\\": 30094, "\u0120Ethiopia": 35363, "\u0120trustee": 23052, "\u0120coffin": 44596, "ran": 4011, "\u0120digestive": 36013, "\u0120Ke": 6018, "\u0120recol": 28433, "\u0120thou": 16914, "\u0120SPD": 35588, "\u0120casts": 43603, "\u0120dl": 45439, "amais": 44450, "\u0120van": 3889, "\u0120scar": 12689, "\u0120Lewis": 13054, "\u0120bass": 16819, "\u0120inflammatory": 10142, "\u010a\u0120\u010a": 19668, "odo": 19095, "\u0120zur": 24499, "anden": 37925, "ayson": 45487, "\u0120HAVE": 19730, "\u0120expansive": 44380, "vering": 49332, "\u0120Regular": 35116, "IVER": 35043, "anc": 1377, "cerning": 29340, "\u0120[]{": 27501, "\u0120alterations": 16663, "nM": 36483, "nak": 40079, "\u0120href": 3860, "\u0120inert": 20788, "etric": 6853, "))/(": 12193, "NU": 9744, "\u0120ett\u00c3\u00a4": 20463, "\u0120complexities": 48663, "\u0120Hy": 8305, "\u0120Warm": 47127, "\u0120feud": 40157, "\u0120stainless": 31361, "\u0120sail": 15901, "\u00a4": 99, "\u0120homeland": 40640, "skb": 33598, "\u0120roots": 11465, "089": 38823, "\u0120excessively": 45891, "\u0120sum": 2020, "yi": 28212, "\u0120wand": 18021, "\u0120Nile": 43093, "Links": 44225, "rosse": 47427, "\u0120Trophy": 42900, "iked": 33457, "ulu": 21362, "\u0120quint": 31919, "\u0120ma": 6429, "\u0120science": 5859, "\u0120Analyses": 45706, "rawl": 50027, "\u0120Chu": 48012, "\u0120Moses": 25084, "\u0120creative": 10995, "037": 20826, "\u00d9\u012c\u00d8\u00b1": 44353, "\u00c3\u00b8r": 21796, "\u0120anisotropy": 30393, "\u0120THIS": 10113, "\u0120staggered": 41778, "include": 3709, "\u0120dissected": 45560, "attribute": 15810, "\u0120\u00d0\u00a2": 32757, "social": 21637, "\u0120reduct": 27556, "interrupt": 30933, "Install": 27383, "\u0120RN": 27840, "WA": 13363, "exist": 31477, "\u0120anthem": 49689, "\u0120349": 36130, "\u0120enhance": 7278, "\u0120fueled": 45511, "\u0120--------------------------------------------------------------------------------------------------------------------------------": 26260, "Standard": 20842, "\u0120enterprises": 32447, "\u0120unused": 30732, "\u0120verbs": 43369, "\u0120Ferr": 24770, "\u0120Tal": 12636, "weg": 41768, "\u0120serum": 6658, "\u0120124": 17294, "198": 16903, "enos": 32564, "fair": 25525, "hetic": 11176, "\u0120Status": 20364, "\u0120merg": 14041, "\u0120Abd": 21954, "Inflater": 45951, "kids": 36358, "\u0120GH": 22419, "\u0120jurisdiction": 7571, "orbit": 30339, "pathy": 26300, "\u0120Tort": 35472, "male": 30165, "\u0120Waters": 34184, "\u0120\\|": 11045, "ogenicity": 39873, "**]{},": 6257, "\u0120Phil": 6778, "IB": 5472, "xa": 14346, "\u0120congest": 25801, "\u0120adenocarcinoma": 30248, "\u0120ging": 35424, "\u0120235": 23540, "\u0120lik": 2078, "\u0120allerg": 25096, "\u0120married": 7028, "\u0120mph": 36772, "\u0120myosin": 48114, "\u0120rebel": 29703, "\u0120seeds": 12922, "\u0120sensory": 17872, "\u0120Hernandez": 36835, "\u0120License": 4637, "\u0120discharge": 10143, "\u0120Orig": 42321, "\u0120Ole": 42088, "\u0120fs": 25290, "sat": 22354, "\u0120speaking": 8288, "\u0120colitis": 40854, "psi": 4144, "rbrack": 29179, "\u0120consumed": 17017, "news": 13608, "Address": 12236, "aus": 666, "\u0120chiral": 22926, "Dynamic": 31535, "Staff": 44440, "GP": 12295, "\u0120Canad": 30401, "\u0120Esther": 41120, "\u0120DOI": 50129, "\u0120Hollywood": 14759, "\u0120partnered": 47199, "\u0120scans": 20947, "Gui": 45089, "\u0120chord": 32894, "\u0120Equation": 20860, "\u0120wines": 33707, "\u0120117": 12387, "\u0120quar": 25721, "\u0120[": 544, "\u00e6\u012c": 18751, "thens": 49966, "\u0120replicates": 24945, "\u0120hacked": 41765, "\u0120Vision": 29770, "\u0120Indian": 5396, "\u0120Java": 8595, "\u0120Judy": 38048, "XX": 6873, "itching": 31054, "\u0120RSV": 34392, "\u0120elliptical": 44613, "\u0120readily": 12450, "MTP": 47887, "\u0120\u00d0\u00bf\u00d0\u00be\u00d1\u0123": 38940, "CTYPE": 30915, "isl": 12937, "byte": 8833, "()\"": 46221, "saved": 36421, "\u0120bye": 44319, "\u0120interfere": 19323, "125": 9312, "\u0120andra": 50226, "\u0120printf": 20275, "\u0120FBI": 12578, "\u0120Practice": 23208, "\u0120tally": 47966, "1939": 42093, "Us": 8484, "rectomy": 32758, "\u00c2\u013b": 20236, "\u0120cages": 41459, "ilon": 2524, "\u0120ka": 16288, "\u0120neurom": 39650, "\u0120swiftly": 34304, "employee": 38885, "\u0120Ling": 47999, "acht": 13261, "egin": 1956, "\u0120gym": 17409, "\u0120metropolitan": 37814, "\u0120Than": 34646, "prom": 13382, "usamm": 48440, "\u0120Cheng": 44116, "\u0120Korea": 9733, "Append": 33253, "\u00e4\u00bd\u0135": 29645, "BH": 29749, "\u0120We": 844, "\u0120absence": 5928, "\u0120grade": 9646, "\u0120330": 24792, "\u0120offending": 48615, "\u01201953": 24113, "\u0120tragedy": 22820, "ensitivity": 22247, "manship": 43931, "ific": 692, "\u0120\"\";": 29707, "\u0120Aqu": 23231, "Secondary": 47789, "\u0120MHz": 21865, "\u0120complementary": 19767, "\u0120exploded": 31032, "++": 3424, "\u0120factor": 2803, "\u0120Ship": 30196, "\u0120slower": 17357, "\u0120\u00d0\u00b2": 4407, "\u0120Util": 28218, "acies": 19103, "'(": 14249, "yster": 43441, "\u0120Daw": 27080, "\u0120Gr": 1997, "\u0120children": 2151, "\u00e6\u00af": 22985, "\u0120DAY": 39045, "\u0120guts": 43370, "\u0120monoclonal": 22592, "orems": 28657, "\u0120sodium": 11914, "agh": 29416, "\u0120full": 2120, "\u0120supervisor": 26141, "\u0120follicles": 44535, "\u0120guarantee": 12215, "\u0120disagree": 14936, "\u0120\u0120\u0120\u010a\u0120": 20426, "isk": 1886, "\u00e8\u0125": 38822, "\u0120central": 4275, "otor": 17894, "\u0120priest": 14959, "Game": 18237, "331": 27385, "Derived": 48300, "cket": 45337, "cosystem": 16654, "\u01201917": 27062, "\u0120Species": 36983, "\u0120chap": 13885, "\u0120dend": 20228, "\u010d\u010a\u0120\u0120\u0120\u0120\u0120\u0120\u0120\u0120": 33235, "\u00e0\u00b8\u00b0": 38063, "\u0120Brett": 36604, "\u0120screened": 22546, "\u0120SAME": 48378, "St": 998, "\u0120pointers": 29476, "krit": 41134, "\u0130": 225, "Dav": 12403, "\u0120CITY": 45893, "\u0120Mit": 12799, "\u0120Revel": 43294, "HT": 5324, "\u00ce\u00b8\u00ce\u00b5": 38377, "\u0120chair": 6951, "\u0120collision": 15708, "\u0120jot": 42845, "aking": 1170, "\u0120maybe": 5046, "\u0120Some": 3808, "\u0120mode": 4438, "\u0120ni": 13065, "\u0120subscriber": 30710, "popup": 47661, "\u0116": 199, "\u0120prescriptions": 37971, "\u0120ethical": 16289, "\u0120mismo": 35650, ";,": 36739, "\u0120inequalities": 25930, "state": 3409, "\u0120costumes": 37635, "TOF": 46873, "\u0120Hz": 14878, "osi": 21221, "scious": 14529, "\u0120Oakland": 27373, "ECT": 9649, "\u0120conformational": 34241, "\u0120consists": 8414, "\u0120surprising": 10084, "\u00ec\u013f\u00b4": 20959, "\u0120stretches": 33902, "existence": 29419, "\u0120Assuming": 27234, "\u0120Irish": 11596, "\u0120dude": 29723, "package": 10708, "inski": 26630, "\u0120Cause": 32872, "mysql": 24827, "hin": 23187, "ribe": 29798, "\u0120enumerate": 49860, "\u0120gangs": 44090, "ology": 1497, "stdlib": 49533, "\u0120had": 574, "\u0120plasmids": 29530, "aaaaaaaa": 49642, "347": 23568, "Awards": 42452, "Supplemental": 38338, "tingham": 43317, "ANGE": 25876, "\u0120Barn": 15359, "loo": 42064, "ers": 398, "HAL": 33615, "orr": 39667, "\u00e5\u012c\u00a8": 37062, "\u00e7\u00ab": 22701, "\u0120Correlation": 44541, "\u0120Lenn": 36239, "Invoke": 44048, "\u0120Lug": 48910, "\u0120Pas": 17231, "bias": 39043, ")}$": 10392, "Alpha": 29858, "uj": 10441, "\u0120Portug": 15360, "\u0120Tucker": 34070, "\u0120elbow": 24784, "\u0120proteasome": 49702, "\u00c3\u00a4\u00c3\u00a4n": 21964, "\u0120Fourth": 16650, "\u0120shelter": 17824, "\u0120slowing": 32103, "\u0120substit": 10829, "cedent": 27053, "medi": 2514, "\u0120evening": 7237, "human": 13961, "\u0120immunore": 32242, "temporal": 46258, "reduced": 43408, "\u0120cauc": 42775, "\u0120j": 480, "ikawa": 49948, "Wood": 30098, "catal": 20749, "\u00e0\u00a5\u0129": 15472, "\u0120BS": 23446, "\u0120retaining": 26179, "\u0120wt": 22923, "\u0120\u00c5\u00bce": 33604, "agues": 9681, "ami": 7588, "\u0120posit": 10538, "\u0120cessation": 32822, "\u0120Step": 18952, "Runtime": 17577, "------------------": 22928, "Api": 22444, "\u0120Only": 7214, "\u0120partner": 7832, "BIN": 36402, "\u0120Liverpool": 22808, "\u0120goes": 4566, "aging": 2977, "structured": 34218, "Smith": 21484, "\u0120Building": 16790, "\\<": 4713, "ife": 1074, "\u0120administrative": 10656, "\u0120broadening": 44448, "\u0120culmin": 27798, "\u0120asynchron": 29307, "]{}\\_[": 41305, "\u0120underestimate": 45166, "\u0120255": 15215, "\u0120ICU": 25311, "\u0120\u00e1\u00bc\u0122": 40171, "times": 3181, "finished": 36077, "\u0120prosthesis": 42043, "\u0120immunod": 35448, "\u0120TO": 5935, "CEPT": 27843, "\u0120aud": 3820, "Didn": 40795, "--------------": 10521, "INIT": 25844, "children": 13863, "slow": 31200, "\u0120590": 47064, "\u0120Numer": 28161, "terday": 9721, "Muslim": 38682, "inguishable": 37148, "\u0120clustered": 29102, "\u0120I": 309, "\u0120Instrument": 40653, "\u0120bac": 45003, "\u0120convince": 18578, "\u0120chickens": 29466, "retval": 37940, "\u0120delivering": 18723, "\u0120epic": 19876, "\u0120extras": 42359, "\u0120gp": 31025, "\u0120tard": 43596, "\u0120thyroid": 17298, "\u0120Laid": 29250, "\u0120performance": 3045, "))?": 17851, "847": 49830, "automatic": 50154, "\u0120shaped": 16745, "ility": 874, "\u0120silencing": 29611, "idis": 30861, "\u0120Supplementary": 18292, "\u0120fibroblasts": 23273, "\u0120\u00cf\u0128": 31750, "\u0120equ": 1298, "\u0120roof": 10699, "\u0120612": 47882, "\u0120bulbs": 44312, "\u0120dell": 20889, "\u00e3\u0123\u012c": 21322, "\u0120Conduct": 36052, "Fore": 18635, "cie": 29408, "hdr": 26241, "\u0120differentiable": 46350, "\u0120ese": 38044, "\u0120ie": 26332, "Bin": 38601, "\u0120red": 2502, "\u0120crate": 47143, "ilic": 24479, "\u0120audition": 47373, "spots": 46781, "\u0120\u00c3\u012b": 17317, "\u0120operation": 4254, "uitary": 32419, "ey": 2653, "Cell": 10772, "RM": 26889, "osome": 10217, "\u00e5\u0127\u0125": 44114, "\u0120careg": 23063, "670": 44647, "\u0120conjugated": 33502, "\u0120demands": 11684, "\u0120early": 2393, "he": 248, "\u0120points": 2792, "\u0120tactic": 36633, "635": 46480, "%%%%": 14747, "usp": 14147, "\u00c4\u0127": 9230, "\u0120irreducible": 22816, "\u0120Franklin": 17179, "ichael": 44023, "\u0120USC": 41268, "ause": 766, "\u0120Administrative": 33241, "\u0120Growth": 27219, "\u0120Saints": 29122, "\u0120e": 299, "days": 11015, "\u0120interchange": 28961, "usage": 24483, "\u00c3\u00b4t": 25890, "\u0120Confederate": 38540, "\"/>": 5647, "\u0120\u00d0\u00bb\u00d1\u0130": 48098, "')->": 47007, "\u0120refractory": 34708, "ERS": 6117, "\u00e5\u00ae\u013c": 17576, "\u00c4\u0123r": 45685, "ecal": 45808, "nonatomic": 42264, "\u0120TYPE": 39024, "patch": 20559, "\u0120agree": 5194, "\u0120belt": 13779, "\u0120endured": 37093, "\u0120intrac": 11251, "\u0120Quart": 41228, "\u0120endeavor": 38937, "\u0120opposite": 7285, "inte": 8297, "\u0120rolled": 14436, "stantial": 22430, "\u0120Or": 2207, "fur": 37323, "\u0120Haven": 28093, "\u0120considerably": 15455, "\u0120archaeological": 39327, "jamin": 16935, "\u0120senescence": 41146, "0032": 40363, "VIS": 24375, "going": 5681, "\u0120Maine": 22366, "\u0120contradictory": 34126, "\u0120leukemia": 23299, "\u0120athletes": 17812, "\u0120supern": 13708, "\u0120Split": 43531, "\u0120Thursday": 8216, "\u0120affects": 11852, "\u0120Development": 9753, "\u0120testament": 43864, "\u0120referendum": 26479, "asper": 25449, "\u0120autologous": 46048, "otic": 3875, "                      ": 50256, "rimination": 30879, "ubicin": 38632, "\u010a\u010a\u010a\u0120\u0120\u0120\u0120\u0120": 45936, "Tue": 50110, "**.": 12530, "\u0120vex": 49322, "\u0120Sc": 1810, "\u0120ideology": 25680, "\u0120Carson": 33313, "\u0120Madison": 21661, "\u0120[[": 8605, "\u00e6\u0136\u00af": 45314, "workers": 26719, "corpor": 46723, "}^*": 19135, "877": 47220, "guide": 22433, "Direction": 36925, "Isn": 33989, "\u0120533": 44504, "\u0120ATP": 14809, "\u0120FOR": 6651, "\u0120Recently": 17746, "\u0120Rein": 35013, "atisfaction": 38120, "othe": 4977, "\u0120Edwards": 24006, "\u0120Researchers": 43133, "\u0120Sec": 5466, "\u0120carcinomas": 35563, "\u0120licensing": 26920, "\u0120perceive": 24947, "\u0120transmit": 13185, "\u0120vic": 15951, "\u0120extensively": 18171, "\u0120posters": 32482, "\u0120Reader": 33123, "\u0120regulates": 23123, "\u0120sex": 2825, "\u00e6": 162, "yellow": 28659, "\u0120implicit": 15424, "\u0120pop": 1684, "\u0120(\"": 5550, "\u0120Bir": 28098, "\u0120shores": 40661, "\u0120vista": 40464, "\u0120explaining": 15571, "\u0120fiduciary": 33006, "tif": 40165, "\u0120grams": 23891, "\u0120LAN": 37439, "\u00e3\u0123\u013a": 31355, "Random": 24391, "\u0120ARE": 17003, "MARK": 42525, "RUN": 29537, "\u0120Guidelines": 24620, "\u0120Cells": 15993, "is": 261, "\u0120Hitch": 50189, "\u0120++": 12996, "plex": 12813, "\u0120charity": 19489, "H": 41, "\u0120claimants": 49639, "installed": 40539, "\u0120center": 4055, "\u0120harassment": 21199, "\u0120Battle": 15764, "\u0120ounce": 38831, "\u0120picks": 21460, "\u0120revel": 17347, "astically": 20595, "OPLE": 34603, "\u0120configured": 15378, "\u00e6\u012b\u012d": 29554, "fault": 40478, "ored": 2149, "urers": 45011, "\u0120akt": 46966, "grams": 5059, "ncia": 19003, "\u0120Princess": 23091, "\u0120cancel": 14002, "\u0120leader": 6657, "world": 10186, "\u0120Antar": 31913, "resis": 40958, "\u0120trunc": 17701, "Assume": 39418, "\u0120muscles": 13370, "\u0120Former": 28351, "\u0120Sel": 16120, "\u0120conductors": 39713, "\u0120preschool": 45390, "\u0120implant": 13132, "\u0120woke": 23686, "\u0120glycerol": 34071, "\u0120pud": 35587, "\u0120sake": 13232, "\u0120surveyed": 28671, "\u0120physi": 25258, "106": 12971, "cki": 50076, "\u0120Specifically": 13658, "732": 48549, "\u0120maternal": 14834, "\u0120assembling": 44015, ";\\;": 28511, "write": 6343, "756": 28703, "}.\\": 23516, "\u00e3\u0123\u00a1": 23826, "\u0120---------": 16810, "\u0120dec": 1086, "\u0120remotely": 27938, "\u0120native": 7925, "\u0120La": 3905, "\u0120toll": 17935, "\u0120tried": 3597, "Proxy": 23074, "......": 33021, "onia": 9409, "\u0114": 197, "\u0120angi": 14547, "\u0120artific": 37842, "offset": 10946, "\u0120Rug": 30322, "\u0120\u00e0\u00a4\u00b9": 28817, "initely": 16107, "\u0120\u00d8\u00b4": 37715, "\u00e5\u00bc\u0131": 30077, "getElement": 21415, "\u0120entreprene": 16793, "soluble": 42450, "inkles": 43572, "\u0120turnover": 25759, "\u0120\u00e2\u012a\u0134": 4150, "\u01202011": 4332, "\u0120thankful": 31115, "ffe": 44539, "\u0120McD": 30946, "bid": 7299, "\u0120roller": 20173, "rails": 40451, "Ec": 48152, "\u0120Layout": 38870, "\u0120Mes": 19926, "\u0120unconventional": 49799, "\u0120pon": 31284, "\u0120frightened": 27185, "\u0120motivate": 41509, "\\*\\*\\*": 35593, "\u0120bur": 3600, "\u0120commercials": 47864, "\u0120extraordinary": 15423, "\u0120Heter": 49125, "\u0120Amy": 22138, "\u0120heads": 9851, "\u00e2\u0136\u0122\u00e2\u0136\u0122\u00e2\u0136\u0122\u00e2\u0136\u0122": 26069, "\u0120alloc": 9771, "\u0120True": 11793, "\u0120Vacc": 36969, "\u0120FBS": 34518, "+-+-": 37046, "\u0120deemed": 14320, "======================": 17863, "########": 6675, "Di": 12558, "generic": 27256, "resses": 16443, "\u0120Patri": 21740, "\u0120257": 30092, "\u0120restricting": 34617, "US": 3016, "rett": 12436, "\u0120centres": 23221, "olver": 14930, "\u0120Russell": 17410, "\u00c3\u0143n": 18463, "/{\\": 37860, "\u0120Coc": 40825, "\u0120Seed": 44850, "\u0120[\u00e2\u0122\u00a6]": 21938, "Der": 19932, "\u0120Cyp": 43968, "orrh": 17536, "\u0120Village": 20186, "upp": 1135, "\u0120anything": 2712, "\u0120HOLDERS": 43227, "steine": 24929, "Scalar": 29094, "\u0120hilar": 31157, "\u0120host": 3167, "Char": 8662, "\u0120contributors": 24781, "\u0120libertarian": 48845, "\u0120listeners": 30418, "ardless": 21350, "\u0120tonight": 11608, "\u0120usage": 10393, "DOM": 27395, "atos": 29392, "inc": 1763, "\u0120Bing": 48600, "\u0120appe": 1393, "\u0120comor": 24075, "\u0120Tyr": 31635, "054": 29695, "\u0120Abs": 16508, "\u0120connections": 10291, "\u0120divisor": 11812, "\u0120667": 46753, "\u0120emerging": 14149, "ugen": 47306, "\u0120sections": 7118, "restrial": 28646, "\u0120uncommon": 24666, "\u0120\u00c4": 11437, "\u0120Why": 6049, "\u0120BP": 17641, "\u0120Vikings": 40269, "linear": 8172, "\u0120525": 38888, "\u0120completed": 6312, "lv": 38884, "SID": 49491, "\u0120MNRAS": 38012, "\u0120deportation": 36759, "\u0120Sql": 39542, "\u0120emitting": 25946, "\u0120privately": 27904, ")\\].": 37077, "\u0120VALUES": 20436, "ys": 656, "\u0120Baxter": 46867, "\u0120drawbacks": 30453, "cern": 20631, "\u0120Loan": 36907, "\u0120Washington": 5041, "\u0120employed": 7091, "\u0120Severe": 47770, "\u0120misdemeanor": 39889, "\u0120Wong": 40225, "\u0120imposing": 23254, "\u0120scientific": 8249, "strap": 13871, "necess": 11353, "\u0120Barack": 22306, "\u0120MSCs": 32220, "ensable": 28638, "\u0120despair": 25813, "\u0120epigen": 26516, "clean": 16437, "590": 44729, "All": 3074, "=\"\"": 20679, "try": 14626, "heating": 47451, "\u0120Ban": 16456, "Up": 5683, "\u00c2\u00b7\u00c2\u00b7": 22677, "\u0120Division": 9333, "\u0120Geo": 44826, "\u0120Nevada": 23050, "iners": 32930, "\u0120188": 25305, "\u0120haste": 48326, "det": 5992, "\u0120v\u00c3\u00a6": 30422, "\u0120repeated": 6015, "\u0120Miranda": 30140, "pole": 36479, "cation": 24435, "dn": 17915, "Vertical": 44594, "\u0120jamais": 46109, "\u0120Para": 39084, "\u0120Update": 17251, "\u0120sto": 4806, "\u0120Support": 15185, "\u0120economical": 37265, "\u0120Master": 10718, "\u0120Pod": 20361, "\u0120]$": 24254, "\u0120rod": 12591, "style": 4826, "\u0120Adobe": 33143, "\u0120Liberals": 41172, "TTPS": 44168, "aryn": 20338, "\u0120hybrid": 9769, "\u0120\u0120\u0120\u0120\u0120\u0120\u0120\u0120\u0120\u0120\u0120\u0120\u0120\u0120\u0120\u0120\u0120\u0120\u0120\u0120\u0120\u0120\u0120\u0120\u0120\u0120\u0120\u0120\u0120\u0120\u0120\u0120\u0120\u0120\u0120\u0120\u0120\u0120\u0120\u0120\u0120\u0120\u0120\u0120\u0120\u0120\u0120\u0120\u0120\u0120\u0120\u0120\u0120\u0120\u0120\u0120\u0120\u0120\u0120\u0120\u0120\u0120\u0120\u0120\u0120\u0120\u0120\u0120\u0120\u0120\u0120\u0120\u0120\u0120\u0120\u0120": 47666, "\u0120\u010a\u0120\u0120\u0120\u0120\u0120": 22937, "\u0120congreg": 44615, "box": 3364, "\u0120surroundings": 27762, "\u0120descriptive": 27389, "er": 254, "\u0120suppress": 10476, "kn": 3696, "\u0120S": 322, "\u0120\u00e2\u0128\u0134": 19167, "ocratic": 23606, "\u0120Plain": 38602, "cards": 35817, "facebook": 24557, "comm": 2823, "getInstance": 43616, "\u0120Innovation": 32727, "\u0120Raiders": 41994, "\u0120Beng": 21524, "\u0120So": 1893, "\u0120displaying": 19703, "\u0120doct": 10707, "\u0120intron": 40131, "\u0120judge": 5963, "Days": 41430, "\u0120camps": 19509, "\u0120ic": 17857, "\u0120loci": 20024, "\u0120surprise": 9326, "\u0120\u0120\u0120\u0120\u0120\u0120\u0120\u0120\u0120\u0120\u0120\u0120\u0120\u0120\u0120\u0120\u0120\u0120\u0120\u0120\u0120\u0120\u0120\u0120\u0120\u0120\u0120\u0120\u0120\u0120\u0120\u0120\u0120\u0120\u0120\u0120\u0120\u0120\u0120\u0120\u0120\u0120\u0120\u0120\u0120\u0120\u0120\u0120\u0120\u0120\u0120\u0120\u0120\u0120": 24356, "following": 34814, "\u0120literature": 6239, "780": 43698, "\u0120Poor": 28897, "\u0120disappearance": 31852, "abe": 12424, "\u0120mars": 40584, "ogenesis": 8258, "wor": 42108, "Sym": 23875, "\u0120outdoors": 32321, "arch": 1116, "\u0120acrylic": 40485, "\u0120traditional": 5899, "\u0120deviations": 21492, "\u0120compos": 21515, "BK": 46235, "\u0120secretory": 42323, "erl": 45043, "\u0120Four": 7874, "29": 1717, "\u0120inherit": 30686, "\u0120IgE": 39539, "\u0120Boat": 44522, "\u0120Und": 42812, "otox": 10505, "\u0120denying": 14624, "\u0120nation": 5674, "\u0120nemat": 44087, "thel": 34633, "\u0104": 181, "\u0120prof": 1801, "\u0120tweet": 15975, "\u0120clinicians": 26690, "\u0120directed": 6828, "\u0120despu\u00c3\u00a9s": 46380, "\u0120Judge": 6798, "\u0120caching": 42324, "\u0120164": 17601, "\u0120cu": 8514, "\u0120gamb": 38415, "slider": 39446, "392": 29827, "ASH": 14194, "itto": 35570, "otive": 20082, "\u0120residues": 12359, "\u0120pal": 5796, "ra": 376, "\u0120defender": 26762, "\u0120athlet": 11916, "\u0120inflation": 15631, "\u0120regulate": 14368, "\u0120satur": 19004, "Guard": 35854, "\u0120gems": 42776, "}}.$$": 32964, "\u0120\u00c5\u00bc": 28252, "\u0120circle": 9096, "\u0120hor": 3499, "}}$$": 30848, "kar": 18970, "\u0120contaminants": 36306, "\u0120ischemic": 23523, "agulation": 26468, "\u0120236": 28131, "][@": 9318, "table": 2420, "Acknowled": 22505, "\u0120postp": 34807, "\u0120scientists": 10950, "\u0120fit": 4944, "execute": 21599, "iazza": 39684, "\u0120infants": 15330, "\u0120notions": 27367, "surface": 26555, "\u0120hob": 48287, "arus": 33858, "\u0120thoracic": 33288, "component": 15658, "etes": 6214, "\u0120plot": 7484, "keyword": 23295, "\u0120debugging": 33146, "andem": 25439, "documentclass": 8604, "\u0120Pennsylvania": 11637, "\u0120reflex": 22375, "\u0120Ten": 13728, "\u0120engage": 11377, "\u0120differentiation": 9827, "\u0120fo": 7954, "Req": 47501, "oulder": 35233, "Federal": 35535, "Fly": 43104, "00000000000000000000000000000000": 19828, "\u00e0\u00b5": 21367, "\u0120situ": 5999, "\u0120smokers": 26934, "\u00e7\u00bb\u0126": 41251, "%--": 38396, "oblastic": 49769, "\u0120operates": 17209, "\u0120survivor": 37579, "oni": 12355, "xt": 633, "bud": 27094, "\u0120297": 32047, "owell": 49710, "rugu": 44300, "\u0120exponential": 17619, "told": 42618, "\u0120Bou": 21446, "ometh": 37793, "\u0120Pars": 32018, "\u0120forum": 12209, "\u0120Barcelona": 24639, "\u0120become": 2489, "\u0120basil": 40683, "pathetic": 46348, "ometers": 19045, "SE": 2354, "\u0120mounting": 17808, "\u0120424": 36988, "\u0120[****,": 23734, "jections": 11817, "\u0120tale": 17005, "\u010a\u0120\u0120\u0120\u0120\u0120\u0120\u0120\u0120\u0120\u0120\u0120\u0120\u0120\u0120\u0120\u0120\u0120\u0120\u0120\u0120\u0120\u0120\u0120\u0120\u0120\u0120\u0120\u0120\u0120\u0120\u0120\u0120\u0120\u0120\u0120\u0120\u0120\u0120\u0120\u0120\u0120\u0120\u0120\u0120\u0120\u0120": 41642, "XML": 17733, "154": 17161, "ennas": 35148, "phalt": 45302, "ulty": 11788, "\u0120Di": 6129, "\u0120Murphy": 21741, "\u0120depuis": 44583, "\u0120gently": 15492, "\u0120Test": 6004, "ents": 592, "latest": 35261, "\u0120Karl": 21138, "\u0120halfway": 25854, "Work": 10282, "\u0120aluminium": 47645, "\u0120positivity": 34324, "097": 39289, "atre": 11203, "funded": 34492, "\u0120nous": 13953, "\u0120BD": 21102, "dd": 1678, "\u0120IBM": 21314, "INST": 23486, "\u0120Circ": 5819, "oms": 3056, "\u0120BIA": 33370, "\u0120het": 8649, "overview": 39930, "\u0120Proced": 37611, "\u0120125": 11140, "\u0120Looks": 44357, "\u0120huge": 5699, "\u0120postulated": 46483, "\u0120veh": 3793, "\u0120Virt": 43605, "ulum": 15508, "Rightarrow": 30536, "versed": 43910, "\u0120LONG": 43078, "\u0120designation": 25344, "osarcoma": 41941, "\u00ce\u00ba\u00ce\u00b5": 45133, "\u0120responsiveness": 36281, "Lyn": 48959, "load": 2799, "\u0120onwards": 39210, "\u0120speeding": 43088, "\u0120underm": 35162, "'}\\": 32131, "\u0120dehydr": 44317, "category": 14267, "\u0120----------------------------------------------------------------------------------------------------------------------------------------------------------------------------------------------------------------------------------------------------------------": 32399, "Interface": 14418, "\u0120Filip": 36935, "degenerate": 42822, "\u0120cette": 18208, "\u0120ici": 50121, "\u0120unm": 23355, "\u0120unsatisf": 43288, "\u0120notice": 4366, "sz": 20932, "INF": 42101, "ders": 12632, "\u0120Khan": 21128, "\u0120Resource": 22106, "\u0120helpful": 9371, "ALTH": 38112, "\u0120concomit": 26459, "\u0120instanceof": 31979, "\u0120persist": 24266, "\u0120Cumm": 44950, "\u0120532": 40062, "\u0120evaluate": 7472, "\u0120phenomenological": 46286, "\u0120Kill": 26464, "\u0120grate": 12525, "\u0120cui": 36707, "NI": 13652, "sensors": 8751, "\u0120reflects": 13806, "\u0120separator": 35823, "\u0120Exped": 45626, "\u0120tidal": 32238, "\u0120uncovered": 27819, "\u0120alleg": 3654, "CX": 36517, "\u0120preparation": 9008, "electronic": 47333, "\u0120Cardinals": 37911, "\u0120Discovery": 29600, "\u0120Xia": 40326, "\u0120compulsory": 42571, "ordinate": 18293, "unched": 43157, "\u0120damaged": 13572, "\u0120flex": 6520, "verages": 33645, "\u0120horiz": 7627, "\u00d9\u012c": 6463, "\u0120size": 1979, "\u0120spreadsheet": 43032, "\u0120unt": 18093, "\u0120antisense": 45632, "\u0120Brother": 14533, "rape": 6182, "util": 8906, "raisal": 33434, "amid": 46726, "\u0120hrs": 39112, "\u0120bounding": 41113, "\u0120lob": 11037, "Political": 41526, "\u0120punches": 50109, "\u0120pedal": 36653, "\u0120Ride": 44860, "gester": 33935, ")|$(": 48963, "eters": 2521, "issions": 11483, "\u0120inadequ": 16273, "\u0120Tre": 9847, "frequency": 18163, "-\u00e2\u0124\u00ac": 49793, "\u0120course": 2282, "freq": 41122, "\u0120affidav": 14798, "ressive": 8122, "ti": 6811, "\u0120MIT": 20695, "owler": 40885, "reach": 21943, "\u0120Shift": 42247, "\u0120Behavior": 29475, "\u0120Reporting": 40283, "Publisher": 33983, "\u0120obviously": 9090, "\u0120*)": 9657, "\u0120Xml": 43209, "\u0120bil": 10370, "\u0120sandwic": 30239, "\u0120Feed": 34600, "mobile": 27806, "\u0120supr": 32909, "north": 37436, "\u0120automobile": 19744, "\u0120bush": 28909, "\u0120gender": 8645, "irds": 14950, "\u0120Advanced": 21798, "\u0120substituting": 40944, "chu": 46260, "\u0120Both": 6295, "\u0120widened": 42248, "History": 12697, "\u0120Controller": 31555, "bek": 33909, "\u0120em": 802, "\u0120substitute": 16502, "\u0120instituted": 38417, "\u0120irreversible": 38378, "odic": 23329, "047": 27706, "CONTROL": 37423, "gil": 44626, "tube": 34995, "\u0120escape": 8773, "\u0120p\u00c3\u0125": 45122, "\u0120lifestyle": 14898, "\u0120any": 667, "urdy": 36849, "\u0120DF": 35425, "\u0120details": 4278, "\u0120grep": 34096, "\u0120MX": 42311, "ening": 2980, "\u0120Bul": 13289, "\u0120Steelers": 47732, "\u0120Caf": 42107, "\u0120army": 8544, "\u0120Signature": 49803, "\u0120arrow": 14150, "ava": 2623, "emas": 48380, "rix": 2633, "ulsive": 22480, "\u0120Others": 19810, "\u0120chast": 49882, "quare": 8974, "\u0120Show": 10684, "SING": 47307, "\u0120ft": 23899, "\u0120generic": 12314, "CN": 14546, "\u0120Lou": 6100, "\u0120hade": 38442, "\u0120names": 4454, "pone": 2041, "\u0120BF": 40542, "\u0120Blind": 44892, "avor": 15100, "...\\...\\": 35088, "\u00e3\u0123\u013d": 24617, "odont": 32430, "\u0120Calder": 47660, "\u0120equiv": 32270, "\u0120miracle": 28065, "\u0120needing": 25312, "\u0120retrieval": 25064, "\u0120scroll": 14084, "\u0120searching": 12203, "177": 15907, "\u0120shell": 8135, "\u0120stands": 9572, "\u0120taking": 3192, "\u0120undergoing": 17362, "Hen": 22930, "\u0120upwards": 32372, "\u0120surgeon": 20997, "\u0120approxim": 4020, "\u0120trouble": 7596, "olit": 47192, "Mesh": 33914, "urbs": 28312, "integration": 32375, "\u0120Pero": 42811, "\u0120thinks": 11121, "Radius": 39547, "\u0120Funk": 47280, "\u0120biopsies": 33537, "OWS": 33069, "allocate": 42472, "tow": 32289, "\u0120556": 44443, "\u0120chart": 8326, "\u0120filmed": 32325, "ET": 2025, "\u0120Fl": 2884, "\u0120immunohistochemical": 39022, "\u0120DMSO": 29864, "\u0120urinary": 19006, "inks": 3106, "oyer": 37674, "\u0120ourselves": 9361, "727": 47014, "\u0120constant": 3638, "\u0120Significant": 29986, "\u0120sniff": 31505, "\u0120narc": 23328, "(#": 45818, "\u0120Cornell": 38303, "\u0120LETTER": 22280, "\u0120Bulgar": 31519, "club": 34583, "inned": 13172, "\u0120registration": 12960, "494": 32942, "\u0120Finnish": 36090, "\u0120roads": 13939, "ponse": 7696, "\u0120Dir": 17748, "[{\\": 34758, "\u0120North": 3729, "\u0120analytic": 20059, "\u0120prow": 39488, "\u0120wolves": 36162, "Script": 9026, "a": 66, "\u0120ips": 41998, "\u0120Northeast": 40996, "\u00d0\u00b0\u00d0\u00bd": 6754, "\u0120Currently": 19728, "\u0120score": 4868, "\u0120squir": 37233, "crypt": 22243, "\u0120hormone": 14689, "advanced": 46813, "\u0120Tub": 39942, "\u0120nond": 27370, "\u0120twice": 7019, "ammers": 42560, "\u0120NO": 7651, "624": 44566, "orial": 10317, "yg": 11550, "\u0120Chand": 28443, "\u0120distraction": 34169, "\u0120gear": 12317, "\u0120resource": 7741, "Tests": 26943, "LA": 5696, "\u010a\u0120\u0120\u0120\u0120\u0120\u0120\u0120\u0120\u0120\u0120\u0120\u0120\u0120\u0120\u0120\u0120\u0120\u0120\u0120\u0120\u0120\u0120\u0120\u0120\u0120\u0120\u0120\u0120\u0120\u0120": 22597, "\u0120Bur": 7634, "\u0120subtle": 16105, "\u0120touching": 19883, "edy": 6368, "\u0120Sob": 34804, "\u0120Linda": 28083, "\u0120reb": 6142, "\u0120candidates": 9183, "\u0120interstellar": 47751, "*)": 5627, "\u0120ETH": 47057, "\u0120Participants": 21666, "BUG": 14223, "\u0120Poisson": 24513, "\u0120Sing": 7712, "\u0120slightly": 5777, "\u0120processors": 26967, "486": 27538, "ZH": 49403, "\u0120555": 36918, "grid": 15476, "\u0120sv": 18504, "Acc": 11728, "ashington": 4664, "\u0120emission": 8295, "Frames": 45952, "\u0120watershed": 49074, "Ver": 10754, "ambling": 17461, "velt": 19194, "\u00e6\u00b0\u0133": 46356, "\u0120billing": 33484, "572": 42763, "IA": 5236, "mediately": 26639, "\u0120Icon": 42517, "\u0120Insurance": 16541, "\u0120Birmingham": 26846, "\u0120fix": 4993, "\u0120\u00d0\u00be\u00d0\u00b1": 18651, "\u0120Grande": 35896, "WR": 10690, "UNC": 34893, "BUILD": 33625, "\u0120Romans": 30396, "VERTIS": 35326, "\u00e7\u00b5": 21700, "\u0120figur": 43888, "\u0120uncert": 20248, "\u00e5\u0137": 30676, "\u0120dc": 36196, "\u0120handheld": 45848, "O": 48, "\u0120sb": 34505, "YES": 24239, "~=": 41955, "\u0120attending": 16362, "Email": 17835, "\u0120442": 42222, "167": 18146, "\u0120Joh": 18063, "\u0120drift": 16924, "\u0120medicines": 26114, "centric": 37382, "\u0120Experience": 26962, "\u0120Sax": 32008, "\u0120Third": 12245, "onds": 39320, "\u0120where": 835, "\u0120JO": 20152, "]:": 5218, "multiple": 34263, "ousel": 36086, "\u0120gatherings": 50084, "\u0120Bone": 34257, "\u0120adviser": 28051, "\u0120shopping": 12701, "\u0120Athletics": 49402, "okinetic": 37004, "\u0120$({\\": 30780, "\u0120Survey": 17136, "\u0120algae": 39341, "\u0120architectures": 35615, "\u0120legitimate": 14905, "ATOR": 26573, "\u0120sector": 8776, "\u0120clue": 22796, "Sch": 10859, "\u0120Hilbert": 23326, "DLL": 45468, "\u0120Bloomberg": 32952, "ocy": 6711, "\u0120During": 6408, "\u0120counselor": 42687, "\u0120disadvantages": 23797, "\u0120extend": 9017, "\u0120Anto": 47255, "\u0120help": 1361, "\u0120proceeded": 20311, "\u0120Degree": 46997, "Arch": 18551, "\u0120Statistics": 23363, "\u0120TE": 12248, "cibly": 43187, "enezuel": 20656, "ypse": 42769, "\u0120investigator": 25881, "\u0120Belgium": 22785, "**--**": 35496, "\u0120confident": 13224, "\u0120mold": 13100, "\u0120nam": 9557, "\u0120temple": 16511, "\u0120thing": 2181, "\u0120Surve": 38056, ")).": 5029, ")}+": 49633, "\u0120CR": 6246, "\u0120Israel": 5143, "\u0120Lips": 37089, "\"));": 17378, "\u0120$('": 16166, "\u0120determinant": 27152, "\u0120Darwin": 27104, "articles": 13137, "\u0120hotels": 21440, "\u0120bones": 14910, "\u0120jun": 12468, "ligt": 29545, ",\\\\": 24303, "\u0120jewels": 49436, "\u0120reminds": 25264, "rent": 624, "\u0120NE": 8973, "\u0120reun": 27135, "References": 4941, "sts": 7752, "~\\": 18078, "noting": 43507, "\u0120constituent": 31239, "\u0120weaker": 21076, "\u0120degeneracy": 44877, "Boot": 36173, "rz": 38852, "0038": 42861, "ocrats": 41965, "Prev": 47277, "Left": 11875, "th": 394, "Adding": 41350, "grounds": 18646, "\u0120\"-": 19479, "\u0120131": 19593, "\u01201904": 40253, "\u0120enumer": 30482, "\u0120inad": 23436, "\u0120ozone": 41276, "umen": 30090, "\u0120unbelie": 31570, "Query": 8053, "\u0120IHC": 44538, "\u0120Collabor": 24965, "Walker": 46949, "ulp": 31709, "\u0120Cape": 20904, "ija": 26092, "\u0120Virus": 46269, "\u0120Anthony": 16358, "\u0120externally": 37372, "ipped": 6390, "\u0120EW": 45118, "\u0120710": 47889, "oL": 29848, "\u0120Win": 12932, "ths": 20556, "\u0120HQ": 41053, "\u0120humans": 7497, "ip": 532, "ostream": 33203, "\u0120kann": 27772, "\u0120psychiat": 24414, "\u0120tourists": 24359, "origin": 27422, "ROW": 39326, "ates": 684, "ave": 1123, "\u0120Authority": 17907, "\u0120Ply": 41659, "\u0120RBC": 33948, "ophagy": 20728, "\u0120tart": 33381, "\u0120mappings": 42794, "culture": 29831, "\u0120dropped": 8231, "\u0120influx": 32682, "\u0120CODE": 40447, "Ratio": 44700, "Spr": 39023, "\u00d0\u00b5\u00d0\u00bd\u00d0\u00b8\u00d1\u0131": 22625, "\u0120CMB": 46228, "\u0120Continue": 27144, "\u0120Cy": 12552, "\u0120Rhe": 40334, "\u0120String": 4605, "ading": 6748, "lake": 48212, "otransferase": 47640, "urgical": 19785, "\u0120nap": 19422, "\u0120wy": 37136, "\u0120Boeing": 35251, "\u0120Services": 9491, "\u0120Tun": 27664, "\u0120respons": 2539, "\u0120service": 2579, "\u0120uphold": 39954, "Snapshot": 42710, "apsing": 33616, "\u0120mos": 15039, "ibility": 2322, "\u0120characterized": 7943, "\u0120bounce": 31888, "\u0120caud": 36112, "riched": 16278, "\u0120forgot": 18298, "ID": 1838, "InputStream": 30891, "Pol": 7638, "^{-\\": 12886, "oresis": 25609, "\u0120asset": 15231, "\u0120discipline": 17518, "\u0120literacy": 31520, "python": 16659, "\u0120analytics": 31140, "49": 2537, "\u0120Kumar": 34946, "quick": 32600, "\u0120arresting": 47239, "\u0120clamping": 45059, "\u0120couples": 17581, "\u0120phys": 2150, "describe": 49027, "\u0120suppliers": 28265, "\u0120topp": 37210, "COPY": 49617, "\u0120uncertainties": 20418, "oblot": 33147, "\u0120genes": 3608, "\u0120rhe": 23404, "etta": 19953, "ecycle": 34356, "\u0120tweets": 28311, "lightenment": 48485, "URL": 9715, "Originally": 32234, "entre": 46162, "uable": 8584, "\u0120tested": 5762, "governmental": 47557, "\u00c2\u0142\u00c2\u0142": 2519, "+^": 12765, "\u0120Ces": 44533, "\u0120Cle": 8148, "\u0120Era": 39233, "\u0120cloth": 17848, "pire": 16695, "\u0120ask": 1642, "\u0120liberation": 35297, "for": 1542, "xico": 46591, "\u0120militar": 44386, "\u0120planets": 20581, "\u0120electronically": 44183, "\u0120trapped": 18195, "\u0120trial": 2332, "ropri": 12341, "INPUT": 35446, "693": 33291, "BEGIN": 32077, "syn": 14107, "\u0120councils": 45667, "lock": 4348, "\u0120brew": 25410, "\u0120physic": 26289, "\u0120Coh": 46820, "\u0120Chrys": 37117, "\u00c2\u013d": 33307, "ieren": 26914, "\u0120Al": 1219, "\u0120Fields": 28679, "\u0120SHALL": 32221, "\u0120Quant": 12597, "agine": 18720, "Ne": 6560, "PROC": 28389, "ickers": 40593, "\u0120Estados": 35732, "\u0120Photography": 48612, "\u0120EG": 36610, "\u0120solved": 14042, "\u0120hydroxyl": 30721, "\u0120responded": 10974, "\u0120thwart": 41027, "printed": 25779, "organization": 25590, "vi": 6584, "\u0120Gets": 34895, "\u0120liar": 43459, "OUT": 7310, "Sn": 16350, "ibrary": 4068, "\u0120glyc": 16067, "ny": 5134, "\u0120disag": 10009, "\u0120inclus": 44445, "\u0120ISP": 48575, "PLL": 42690, "\u0120subtypes": 25407, "r\u00c3\u00a1": 40024, "\u0120Opposition": 45291, "Tre": 46093, "\u0120Gilbert": 29515, "\u0120smo": 39797, "\u0120Vo": 15914, "\\{\\": 17567, "ilst": 13352, "\u0120tours": 24478, "pex": 24293, "\u0120587": 48962, "\u0120operators": 9158, "\u0120tap": 13341, "\u0120prescription": 17632, "Hel": 9494, "uler": 14398, "ylene": 23196, "Lady": 40616, "dent": 33659, "')$": 31807, "Generated": 33527, "\u0120EXPECT": 22376, "\u0120reservoirs": 45009, "===========================": 49915, "Chars": 45132, "\u0120dre": 45957, "\u0120Glor": 38002, "weight": 6712, "\u0120elongation": 33691, "\u0120sore": 25132, "Aust": 16796, "\u0120\u010a\u010a": 15267, "\u0120Put": 9272, "]$.": 20481, "estry": 46526, "\u0120plates": 10855, "\u0120aorta": 35688, "\u0120culturally": 42838, "00000": 9439, "\u0120grains": 19786, "\u0120locality": 33643, "\u0120refr": 16110, "\u0120stores": 10111, "uing": 5845, "\u0120hebben": 33279, "airo": 22466, "faces": 6511, "\u0120Press": 5687, "\u0120Gordon": 17419, "ately": 1523, "\u0120defenders": 31342, "STR": 9639, "\u0120took": 2335, "ika": 11825, "widgets": 49875, "\u0120invention": 3688, ")),": 9679, "lectual": 37246, "\u0120Skin": 37019, "chester": 43314, "hd": 13838, "\u0120My": 2752, "\u0120\\-": 10667, "\u0120matters": 8213, "adm": 44434, "\u0120trainees": 49303, "Pred": 23064, "\u0120choir": 40656, "\u0120liking": 35908, "\u0120autonomy": 29601, "\u0120205": 22750, "\u0120riding": 15150, "imming": 34282, "\u0120NET": 33130, "\u0120n\u00c3\u00a9": 31627, "\u0120recognise": 31410, "\u0120buffers": 32743, "\u00e3\u0124\u00a6": 35643, "\u0120caring": 23374, "\u0120impartial": 38919, "\u0120Morm": 28280, "osomal": 13304, "Yu": 42039, "orno": 41530, "\u0120Short": 14196, "\u0120ironic": 40066, "Play": 21020, "\u0120discipl": 10918, "\u0120attempts": 9437, "\u0120warns": 42169, "aph": 9761, "\u0120saturation": 22185, "\u0120Prevent": 46915, "\u0120RNase": 46034, "\u0120Character": 18633, "==================================": 46584, "By": 3463, "^{-": 2497, "hypert": 41537, "mond": 9456, "states": 21196, "rsquo": 38267, "\u0120English": 4383, "\u0120adoption": 16253, "\u0120compilation": 25234, "\u0120Massachusetts": 14070, "\u0120expressions": 12091, "\u0120incarcer": 25793, "\u0120ital": 36037, "\u0120ign": 4900, "Population": 48705, "rence": 1196, "\u0120prob": 1742, "\u00e2\u0126\u00a2": 14313, "\u0120pseudo": 17927, "\u0120vap": 37033, "\u0120pie": 3376, "\u0120\u0120\u0120\u0120\u0120\u0120\u0120\u0120\u0120\u0120\u0120\u0120\u0120\u0120\u0120\u0120\u0120\u0120\u0120\u0120\u0120\u0120\u0120\u0120\u0120\u0120\u0120": 8044, "note": 9939, "\u00d0\u00b0\u00d0\u00b7": 11995, "\u012a\u013a": 44140, "\u0120Bernstein": 48647, "\u00d0\u00b5\u00d0\u00b3\u00d0\u00be": 35712, "\u0120351": 35710, "\u0120Eddie": 27238, "\u0120Element": 26392, "\u0120anx": 16515, "\u00e9\u0141": 40153, "own": 628, "cret": 2414, "\u0120anatomical": 27166, "\u0120\u00d8\u00a7\u00d9\u0126\u00d9\u0127": 30331, "blocks": 27027, "Snow": 48686, "aternity": 33040, "inous": 37724, "itet": 38009, "\u00d8\u00b3": 14585, "LAST": 28406, "able": 494, "contin": 8190, "ajax": 20742, "\u012068": 9934, "\u0120Duck": 41729, "\u0120watching": 7487, "\u0120neuro": 6551, "en": 257, "icked": 14050, "\u0120\u00ce\u00ba\u00ce\u00b1\u00ce\u00b9": 18806, "\u00d8\u00aa": 8181, "\u0120demo": 22020, "\u0120hereinafter": 41611, "terminal": 14104, "\u0120Fall": 16275, "\u0120melted": 27072, "\u0120\u00c4\u012f": 23263, "\u0120uneasy": 43025, "\u0120decision": 3061, "))/((": 44306, "dess": 22192, "\u0120incidents": 18048, "\u0120mem": 1167, "\u0120ramp": 18556, "\u0120intra": 8376, "\u0120Bart": 17486, "\u0120perc": 39057, "ffect": 887, "\u0120sexes": 35717, "\u0120Tibetan": 41592, "genstein": 47583, "\u0120co": 820, "\u0120summon": 23439, "\u0120SVM": 46715, "\u0120investment": 8149, "\u0120newborns": 48842, "thirds": 29988, "\u0120persisted": 32178, "\u00e3\u0123\u00b0": 30723, "\u00e7\u012b\u00a9": 34389, "utely": 7348, "\u0120brightness": 20468, "\u0120hides": 43660, "iste": 16974, "663": 35216, "\u0120Airport": 18328, "verify": 36302, "Edward": 44240, "\u0120Legacy": 41091, "Solid": 49474, "ilda": 34223, "\u0120practice": 3946, "\u0120gonna": 6501, "\u0120radi": 8188, "thanks": 35501, "inse": 38424, "\u0120Andrew": 11116, "\u0120Chap": 17235, "\u0120immensely": 45224, "\u0120accl": 48364, "\u0120stric": 34614, "itiveness": 48826, "ryst": 11925, "\u0120Canyon": 33843, "HTML": 15597, ":$$\\": 47279, "CRIPT": 22068, "\u0120Butter": 30683, "\u0120Stuart": 27659, "\u0120apert": 19587, "DER": 13635, "\u0120deterg": 37663, "\u0120roster": 22970, "\u0120Roland": 40738, "\u0120modulo": 40090, "\u0120governed": 17886, "Ton": 36601, "\u0120collaboration": 14448, "\u0120Rober": 5515, "\u0120contre": 37379, "\u0120petitioners": 31846, "\u0120died": 4962, "libc": 34357, "\u0120kinemat": 40395, "\u0120sa": 618, "\u0120ashes": 39187, "ouri": 13979, "\u0120439": 40359, "\u0120anymore": 10542, "\u0120docs": 27586, "\u0120alignment": 12420, "\u0120cada": 24855, "\u012003": 17272, "\u0120crowned": 47376, "\u0120377": 36508, "\u0120Maker": 45325, "\u0120kidneys": 33193, "\u0120overexpression": 19911, "\u00b3": 113, "\u0120UM": 44171, "heets": 37586, "ifies": 7790, "\u0120Import": 16912, "ighborhood": 39895, "irectory": 12492, "\u0120Naturally": 44943, "\u0120119": 12035, "\u0120archive": 21429, "comput": 16777, "\u010b": 188, "\u0120Aur": 29730, "scape": 9875, "\u0120clearly": 4518, "\u0120continue": 4035, "Tour": 38289, "succ": 45992, "\u0120introduction": 10199, "\u0120soften": 50007, "\u00e3\u0123\u00be\u00e3\u0123\u013d": 44658, "\u0120ABA": 38725, "\u0120communic": 3461, "\u0120merged": 21884, "\u0120Clause": 26377, "\u0120protocols": 14238, "\u0120taxes": 10474, "\u0120tribe": 22184, "\u0120water": 1824, "llll": 33685, "Rel": 9112, "ander": 5945, "minded": 23674, "oking": 6856, "\u0120\">": 38329, "\u0120\"+": 31028, "\u0120CHAR": 30752, ",&": 39108, "asian": 27933, "mitting": 15318, "\u0120replied": 10017, "\u0120tribes": 23206, "itates": 36269, "Wis": 48115, "\u0120mergers": 49432, "\u0120podium": 46309, "\u0120queer": 38493, "LR": 8720, "ravo": 41647, "Hug": 46941, "hav": 10940, "ringer": 47761, "\u0120hostage": 43180, "Panel": 16284, "appa": 5596, "633": 49754, "fine": 32829, "\u0120adopt": 5283, "\u0120blind": 9645, "\u0120simplest": 22325, "YOU": 27239, "\u0120p": 268, "\u0120bo": 1766, "their": 14094, "uding": 27951, "Sport": 47477, "mission": 2230, "\u0120Benn": 20931, "CNT": 32744, "]+": 20871, "\u0120designer": 17039, "\u0120latter": 6158, "\u0120kissing": 35945, "\u0120Barr": 27783, "\u0120survived": 16139, "\u0120lepton": 45625, "\u0120Vine": 46883, "\u0120hemorrh": 21699, "combe": 49766, "\u00d8\u00ae": 28337, "\u0120asymptotically": 38311, "Joseph": 32618, "Nil": 37490, "\u0120Race": 23752, "\u0120traced": 26098, "\u0120vast": 8485, "\u0120Resort": 36322, "\u0120advisor": 31149, "it\u00c3\u0142": 21622, "\u0120gin": 48347, "\u01201863": 43450, "coat": 33445, "\u0120Instead": 7820, "\u0120elephants": 42322, "\u0120tank": 11100, "\u0120workpiece": 43983, "EW": 37943, "EventArgs": 40029, "Metadata": 25467, "\u0120spacious": 37039, "getString": 35519, "eor": 22683, "\u0120Holt": 44842, "bably": 15138, "\u0120dv": 43857, "\u0120proces": 38610, "}=-": 39779, "\u0120puzzles": 43884, "\u0120Municip": 26117, "until": 27390, "\u0120\u00c3\u0123": 36201, "Website": 50023, "eight": 19521, "ungen": 17079, "Jackson": 36340, "\u0120adsor": 16738, "\u0120opted": 33549, "\u0120putting": 8133, "\u0120Ward": 18730, "\u0120independ": 7365, "\u0120scall": 45829, "GUI": 46736, "\u00d0\u00b5\u00d0\u00bd\u00d1\u012e": 40123, "\u0120Greek": 11308, "))$": 18103, "\u0120Marion": 38502, "\u0120Rot": 22343, "Activ": 44066, "\u0120motivation": 16038, "\u0120FAQ": 35863, "\u0120interactions": 6355, "gements": 24556, "RUPT": 37086, "opathic": 27406, "\u00e5\u00af": 13744, "phosph": 13778, "\u0120PD": 6442, "\u0120Spin": 33757, "\u0120diamonds": 34779, "\u0120pleas": 26757, "\u0120QU": 26999, "\u0120_____": 37866, "\u0120Mant": 39785, "\u0120Pablo": 46482, "geries": 34527, "argin": 4319, "CW": 41584, "\u0120Minimum": 42607, "\u0120Promise": 32949, "illon": 24632, "\u0120obst": 9982, "\u0120romantic": 18109, "ulative": 12581, "\u0120laser": 8166, "):": 2262, "das": 34797, "\u0120prospectively": 44045, "\u0120Owens": 44248, "ang": 606, "\u0120Neut": 44889, "\\'": 4479, "\u0120Own": 20659, "\u0120flatt": 30627, "\u0120utilization": 19575, "\u0120Truck": 42712, "\u0120coping": 30963, "\u0120dictionary": 19034, "Record": 16324, "Applications": 43432, "\u0120fasc": 10942, "\u0120jak": 39173, "rington": 25915, "STATUS": 22574, "ivirus": 41525, "users": 15987, "\u00e0\u00a4\u00af": 29950, "\u0120arrays": 16417, "\u0120irrespective": 30472, "CTRL": 20562, "Gab": 46565, "carb": 41293, "\u0120Deal": 25412, "\u0120Greene": 35038, "\u0120concert": 12699, "\u0120cush": 26938, "\u0120driv": 3880, "\u0120father": 3392, "\u0120sexuality": 30545, "\u0120Cay": 30956, "Wind": 46995, "\u0120postnatal": 38047, "\u0120relevant": 4623, "\u0120spikes": 34635, "\u00c3\u00ac": 12931, "\u0120phosphorylated": 31232, "ginx": 48431, "\u0120whis": 10866, "\u0120pads": 25297, "\u0120hack": 13908, "\u0120OF": 3481, "\u0120prison": 5754, "Also": 9917, "\u0120--------------": 16913, "\u0120Copyright": 8283, "\u0120cycles": 11945, "velle": 45716, "\u0120estr": 49712, "\u0120Geoff": 33418, "\u0120handc": 41993, "rum": 4638, "\u0120rooted": 26415, "\u0120victims": 10349, "\u0120injective": 39510, "gu": 4297, "overed": 3111, "222": 18895, "Americans": 34436, "Doug": 37912, "Gs": 15121, "\u0120spectrom": 17606, "riz": 21100, "\u0120illustrative": 47386, "clesiast": 49431, "Ox": 25999, "opolys": 44289, "\u0120?>": 23983, "\u0120Shell": 28707, "\u0120class": 966, "\u0120cheering": 45927, "chn": 1451, "\u0120greenhouse": 27160, "USY": 34608, "14": 1047, "NK": 19752, "efined": 37224, "ite": 614, "uish": 37043, "\u0120COUNTY": 43446, "\u0120ferv": 40372, "\u0120seize": 33694, "\u0120thread": 6293, "\u0120persists": 42575, "iration": 10153, ">).": 37322, "527": 45555, "Bob": 26845, "fg": 16054, "\u00e3\u0122": 2155, "\u0120Anderson": 13051, "\u0120departments": 20036, "DD": 11927, "Fire": 21381, "\u0120Buddh": 30168, "\u0120cheap": 11142, "\u0120live": 3153, "\u0120recount": 27513, ")=(": 28844, "PRL": 49255, "ircon": 48017, "shit": 26871, "jh": 34453, "\u0120Clearly": 21461, "\u0120Leave": 28593, "\u0120al": 355, "\u0120dial": 11901, "\u0120reload": 31018, "\u0120spun": 28087, "\u0120yours": 13298, "132": 14783, "\u0120Fresh": 30149, "\u0120Renaissance": 33157, "\u0120directions": 10746, "\u0120weigh": 14357, "atching": 16464, "\u0120reaching": 10922, "Ohio": 30779, "\u00ec\u013f": 10361, "\u0120Francis": 7980, "\u0120Theodore": 40424, "\u0120unjust": 26694, "\u0120vegg": 43697, "\u0120antiqu": 47160, "\u0120biochemical": 19183, "\u0120Unable": 48706, "\u0120embedding": 21496, "\u0120cave": 15985, "\u0120paran": 34823, "\u0125": 214, "\u0120Tommy": 27145, "571": 37644, "varphi": 4535, "\u0120Maintenance": 49108, "\u0120Theater": 32286, "\u0120avoidance": 28772, "\u0120doubles": 33478, "\u0120uv": 46556, "\u0120Resources": 19242, "\u0120Pom": 28300, "amers": 46118, "NGC": 49949, "\u0120separable": 39690, "editor": 20511, "can": 5092, "Employee": 45929, "\u00e0\u00b8\u013b": 16845, "\u0120Tow": 24819, "bys": 44678, "\u0120saying": 3981, "\u0120\u0120\u0120\u0120\u0120\u0120\u0120\u0120\u0120\u0120\u0120\u0120\u0120\u0120\u0120\u0120\u0120\u0120\u0120\u0120\u0120\u0120\u0120\u0120\u0120\u0120\u0120\u0120\u0120\u0120\u0120\u0120\u0120\u0120\u0120\u0120\u0120\u0120\u0120\u0120\u0120\u0120\u0120\u0120\u0120\u0120\u0120\u0120\u0120\u0120\u0120\u0120\u0120\u0120\u0120\u0120\u0120\u0120\u0120": 25511, "\u0120Jak": 32319, "\u00c2\u00ab": 12391, "\u0120ArrayList": 26267, "\u0120Until": 20539, "Wrap": 43496, "ai": 2284, "ECs": 31353, "\u0120sweating": 47425, "unningham": 41681, "\u0120reinforcement": 35221, "\u0120hacia": 49774, "oxylin": 41713, "\u0120KE": 17594, "\u0120yesterday": 11066, "athione": 30493, "\u0120generator": 14156, "missible": 13038, "prompt": 43274, "dfrac": 16980, "\u0120wip": 18967, "\u0120Discover": 47815, "drew": 27089, "\u0120Of": 4683, "\u0120Niss": 41833, "\u0120pressure": 3473, "\u0120elev": 6478, "\u0120seq": 22510, "\u0120thoughtful": 30457, "\u0120junction": 16889, "\u0120embarked": 48053, "ERY": 16759, "\u0120Sach": 33377, "\u0120rele": 1693, "384": 19948, "TY": 25090, "lay": 15328, "\u0120Furthermore": 5488, "\u0120Wien": 48968, "\u0120literal": 22436, "\u0120STATES": 18746, "\u0120ways": 4088, "\u0120nodes": 7632, "\u0120salmon": 24791, "\u0120pharmac": 11214, "\u0120felon": 48935, "\u0120spectrosc": 14995, "\u0120Sat": 11191, "\u0120scr": 7362, "\u0120Quad": 43553, "Del": 13569, "Client": 8975, "\u0120\u00e2\u0138\u0142": 45247, "ffield": 39211, "\u0120represented": 6607, "presentation": 49836, "uar": 37502, "\u0120coal": 10089, "\u0120friendly": 11453, "\u0120Rodgers": 41678, "\u0120biomedical": 35156, "\u0120protesters": 23590, "hour": 11964, "\u0120encouraged": 14659, "record": 15352, "\u0120chamber": 9320, "kDa": 39550, "\u0120LinkedIn": 43565, "Holder": 27046, "accum": 48925, "\u00d0\u00b5\u00d0\u00bb\u00d1\u012e": 23468, "\u0120reflections": 24233, "uttering": 33066, "\u0120stratified": 31539, "\u0120happen": 5108, "seen": 16564, "Allow": 33651, "\u0120Hospit": 46696, "Steven": 46022, "loader": 27564, "\u0120vocals": 23599, "\u0120volumes": 14118, "\u0120Shirley": 44339, "')\\": 34311, "604": 26890, "term": 3945, "\u0120Facts": 37351, "\u0120Yosh": 45858, "\u010a\u0120\u0120\u00c2\u0142": 29683, "\u0120seems": 3133, "\u0120spong": 48230, "\u0120WORK": 37051, "\u0120poll": 8461, "Anim": 40387, "eg": 909, "locked": 30730, "\u0120Luke": 18247, "\u0120DCs": 33697, "\u0120dish": 11609, "\u0120lean": 9644, "\u0120legend": 13691, "\u0120nurs": 9444, "\u0120Dou": 33115, "\u0120downstream": 15450, "etc": 14069, "\u0120BRCA": 40624, "rate": 4427, "\u0120prerequisite": 38445, "\u0120\u00d1\u0123": 4189, "\u0120webs": 3829, "\u0120411": 33232, "\u0120mich": 49068, "\u0120reviews": 10123, "\u0120differences": 3910, "\u0120surrender": 23277, "EMPT": 47913, "oxifen": 48495, "\u0120vegetables": 15737, "\u0120\u00d0\u00b2\u00d0\u00be": 49323, "1988": 14619, "ISBN": 46297, "\u00c3\u00a4s": 38083, "\u0120solo": 14088, "flip": 43272, "\u0120susceptible": 16931, "\u0120fm": 49555, "\u0120Manning": 33665, "\u0120Hicks": 41097, "anking": 41988, "\u0120Input": 19832, "\u0120camera": 6568, "\u0120\u00c5": 6078, "\u00c3\u00a9c": 32839, "'))": 19279, "expressing": 31464, "Priv": 36234, "\u0120revived": 43941, "\u010d\u010a\u0120\u0120\u0120\u0120\u0120\u0120\u0120\u0120\u0120\u0120\u0120\u0120\u0120": 38411, "\u0120interfer": 16165, "\u0120alleging": 23962, "\u0120mush": 21660, "\u0120incorporate": 19071, "\u0120synthesized": 17791, "Figs": 30155, "ochrom": 28759, "\u00e0\u00a6\u00bf": 44111, "\u010d\u010a\u0120\u0120\u0120": 3568, "\u0120sensed": 32041, "\u0120villagers": 41182, "\u00c2\u00b0": 3272, "\u0120piece": 5313, "RIGHT": 42147, "inib": 43891, "\u0120finances": 33129, "\u0120router": 23093, "\u0120rare": 7520, "\u0120Quantitative": 36686, "codes": 30968, "baz": 31953, "592": 42140, "zym": 5228, "\u0120Help": 21695, "MR": 6784, "\u0120ignor": 15776, "ungal": 29457, "})": 2311, "\u0120gr": 650, "\u0120sip": 36577, "\u0120rushed": 20906, "\u0120ocean": 12927, "\u0120}).": 44141, "\u0120sounds": 7835, "\u0120graphic": 19908, "\u0120Heidegger": 49419, "\u0120Purple": 49685, "ritten": 22380, "ruly": 46072, "~),": 28004, "Sal": 15426, "\u0120Syracuse": 48534, "\u0120bee": 30747, "\u0120Mexican": 16234, "\u0120heavens": 36724, "\u0120concept": 4473, "\u0120\\**": 31713, "\u0120rendition": 50032, "\u00e6\u00a9\u0141": 41173, "iliated": 31689, "\u0120Sal": 6470, "\u0120Appro": 17274, "\u0120fa\u00c3\u00a7": 40881, "\u0120duality": 34962, "Disabled": 47703, "ancies": 14013, "webpack": 48437, "\u0120401": 24877, "I": 42, "fade": 43810, "ogue": 14873, "\u0120Bear": 25743, "\u0120Estado": 43188, "\u0120cardinality": 46950, "\u0120boards": 16431, "\u0120dilig": 23947, "\u0120frustrating": 29125, "\u0120joins": 27022, "\u0120tom": 7275, "\u0120drawer": 31579, "\u0120tongues": 50102, "\u012002": 16261, "\u0120portion": 5110, "\u0120employment": 8410, "alar": 45825, "\u0120joining": 14167, "esse": 26491, "closing": 49209, "omers": 14724, "otomy": 22438, "\u00e2\u0124": 46979, "\u0120latitude": 31243, "\u0120lighter": 21259, "019": 11325, "AP": 2088, "(__": 18583, "Events": 24121, "Neg": 26700, "\u0120${{{\\": 46597, "Populated": 38257, "INSTALL": 42033, "\u0120Hassan": 47420, "\u0120Patients": 12493, "\u01201933": 26916, "\u0120599": 49928, "stem": 852, "physical": 29079, "trl": 18609, "\u0120hypogly": 40284, "Sho": 49498, "\u0120improve": 3157, "\u0120officers": 6251, "\u0120established": 4232, "\u0120omitted": 11035, "North": 19846, "```": 11202, "adult": 50006, "epend": 2008, "rh": 9492, "icted": 7025, "technical": 48746, "uced": 5504, "\u00d1\u0123\u00d1\u0124\u00d0\u00b2": 14887, "\u0120HAND": 46683, "\u0120centrifugation": 29691, "\u0120enrollment": 29158, "MAG": 46492, "\u00d0\u00b4\u00d0\u00b5\u00d0\u00bb": 45578, "java": 5594, "wrapper": 25377, "\u0120doc": 5474, "storm": 25576, "suite": 42877, "ynchron": 23078, "kay": 4629, "\u00c2\u00bb.": 25235, "\u0120wrt": 8772, "\u0120\u00d0\u00bd\u00d0\u00b0": 8713, "asp": 4938, "PK": 15659, "Raw": 24436, "\u0120substrate": 6605, "Sunday": 27180, "\u0120devoid": 36757, "\u0120hydrophilic": 40497, "environment": 20034, "atable": 17980, "\u0120supernat": 20637, "\u0120Identification": 35859, "Anne": 49493, "overline": 4862, "\u0120proceeds": 16947, "\u0120RPE": 47741, "ially": 1365, "\u0120Philipp": 16312, "definition": 28692, "\u0120logically": 40452, "\u0120trap": 15464, "mot": 24013, "510": 35191, "II": 2267, "\u0120oblig": 7206, "\u0120persistence": 25306, "\u0120puls": 24295, "\u0120statistics": 9990, "\u0120%}": 23791, "\u0120\u00d0\u00b4\u00d0\u00bb\u00d1\u0131": 31618, "\u0120Norman": 22497, "\u0120merging": 34047, "CTT": 39017, "\u0120leak": 13584, "\u0120\u00c3\u00a9s": 24868, "Along": 37356, "stones": 35695, "\u0120Kab": 40566, "tten": 38497, "\u0120embrace": 19653, "\u0120Directors": 36600, "\u0120Randolph": 44198, "230": 17569, "Gate": 33919, "enig": 46610, "\u0120homolog": 26663, "\u0120needle": 15460, "imester": 39972, "orphism": 28506, "\u0120Ultra": 34809, "uk": 2788, "uti": 32616, "rums": 49276, "\u0120conven": 7581, "\u0120cover": 3835, "\u0120mechanistic": 40368, "\u0120criterion": 17705, "\u0120Lap": 39420, "\u0120deleterious": 42019, "lyss": 47758, "\u0120pier": 18753, "etition": 2930, "\u0120trademarks": 40618, "\u0120verse": 23252, "\u00e9\u0137": 28607, "\u0120expatri": 36624, "amic": 12614, "onical": 12076, "\u0120jam": 25308, "\u0120minority": 15156, "\u0120Assistant": 17762, "\u0120accused": 10145, "\u0120perpetual": 41510, "\u0120travelling": 22710, "forming": 14692, "\u0120customers": 6383, "\u0120decide": 7617, "\u0120Fill": 36529, "\u0120europ\u00c3\u00a9enne": 46143, "\u0120aggression": 27894, "\u0120regular": 3963, "Trim": 49624, "\u0120renormalization": 39358, "information": 18480, "\u0120conjugate": 27442, "rog": 6375, "\u0120restricted": 11096, "\u0120ontology": 42081, "\u0120carried": 4824, "\u0120work": 789, "ocyanate": 49581, "orectal": 21073, "\u0120functioning": 15415, "Bet": 16339, "\u0120Dro": 41278, "Categories": 49396, "\u0120Were": 27200, "assembled": 45241, "defendants": 48631, "sector": 37802, "Mac": 13815, "\u0120climax": 50068, "\u0120conve": 11785, "\u0120hearts": 15060, "\u0120crap": 23550, "\u0120Cous": 45557, "offee": 23520, "\u0120Hil": 17539, "\u0120Mate": 40758, "\u0120seg": 8753, "\u010d\u010a\u0120\u0120\u0120\u0120": 17723, "\u0120spicy": 42028, "\u0120Mass": 7532, "\u0120eh": 25685, "liche": 29968, "-------------------------------------------------------": 48151, "\u0120harmonic": 23007, "\u0120siege": 33758, "\u0120liabilities": 37729, "disk": 27236, "\u0120murmured": 34688, "\u0120restaur": 7453, "\u0120transmitting": 25104, "Tool": 13285, "Hay": 33972, "%%": 7847, "\u0120narrower": 39937, "What": 1276, "SQ": 50185, "\u0120nur": 27359, "Partial": 43487, "\u0120$|": 10493, "\u0120nationality": 47166, "\u00e8\u012a": 34372, "\u0120pleasures": 41645, "\u0120v\u00c3\u00a9": 37973, "\u0120condensate": 39620, "\u0120Bradford": 36890, "quires": 47497, "\u0120while": 1223, "661": 36630, "\u012077": 10484, "\u0120accommodations": 45579, "License": 17736, "uate": 6340, "\u0120law": 1569, "ED": 1703, "true": 5672, "\u0120fastened": 45170, "GLOB": 48430, "RAM": 37231, "unte": 8808, "\u0120Cum": 37887, "394": 27463, "oS": 37791, "una": 9821, "appro": 6772, "\u0120Ign": 25619, "\u0120imposition": 34178, "atts": 24729, "iu": 14353, "\u0120litre": 43803, "\u0120masses": 11843, "\u0120forearm": 41854, "\u0120centrifuged": 29881, "\u0120gossip": 34168, "Lemma": 35439, "iply": 33343, "\u0120telling": 7746, "jump": 48742, "1932": 48184, "\u00e2\u0123\u0126": 40859, "GROUND": 33439, "\u0120advant": 4545, "ung": 1947, "\u00e2\u0122\u013b,": 16236, "\u00e3\u0123\u0135\u00e3\u0123\u00a8": 19067, "paragraph": 43575, "\u0120Einstein": 21003, "\u0120Senator": 18718, "\u0120concluded": 7945, "sen": 8243, "AME": 14081, "\u0120comparisons": 14023, "&": 7, "\u0120insulating": 22831, "ivid": 1741, "\u0120sing": 1625, "osus": 46784, "icks": 5519, "Handler": 9294, "\u0120Gabriel": 27581, "\u0120traject": 13310, "\u0120typedef": 14813, "Dutch": 45854, "),(": 27003, "}^{+": 25135, "\u0120birds": 11260, "bury": 12473, "\u00d8\u00a7\u00d8\u00aa": 24823, "i\u00c3\u00a9n": 21878, "eller": 7707, "\u0120Janet": 35685, "\u0120Legion": 36200, "mu": 1906, "\u0120Peace": 20000, "\u00e3\u0125\u00ac": 24985, ">{": 38958, "\u0120Verizon": 39790, "\u0120leaks": 31693, "\u0120particle": 8091, "\u0120reductase": 39853, "\u0120Summit": 31692, "\u0120transforming": 27197, "\u00d0\u00bd\u00d1\u0131": 32493, "\u00c3\u0133": 8568, "\u0120tattoo": 31720, "\u0120538": 43139, "\u0120561": 48024, "DEFIN": 49175, "aining": 1776, "\u0120414": 36573, "Lists": 50030, "ossa": 30797, "\u0120habe": 44836, "\u0120TM": 18426, "\u0120Wilson": 10520, "\u0120elderly": 13988, "Um": 26186, "Apparently": 40942, "haired": 37128, "ilos": 5463, "\u0120Natural": 14673, "CHANTABILITY": 20386, "\u0120Walsh": 36360, "transaction": 35238, "\u0120blowing": 24935, "\u0120Hole": 46386, "\u00e3\u0125\u00b3": 9467, "\u0120bool": 7301, "oulos": 32498, "\u0120isso": 31812, "\u0120letter": 4857, "\u0120empty": 6325, "\u00e0\u00a4\u00b9": 30598, "\u0120commissions": 36662, "\u0120erase": 36844, "\u0120laws": 5323, "\u0120Connect": 29562, "\u0120protective": 12107, "\u0120Love": 10540, "\u0120Liver": 17687, "conditions": 32978, "\u0120except": 3707, "\u0120(": 313, "cloud": 18534, "neg": 8265, "Adapter": 16930, "\u0120namespace": 12953, "\u0120Operations": 27037, "\u0120rot": 4000, "\u0120exh": 26004, "\u00d0\u00b0\u00d1\u012a": 47046, "\u0120SW": 13710, "\u0120starch": 31001, "enderer": 31676, "\u0120chose": 9703, "noop": 27607, "\u0120unknown": 7202, "fre": 18105, "\u0120oct": 17109, "ifer": 9393, "san": 26125, "\u0120yogurt": 39191, "\u0120homem": 29590, "\u0120standard": 2629, "\u00c2\u0142\u010a": 21304, "\u0120hereditary": 40454, "\u0120renovation": 45081, "\u0120Fletcher": 38711, "umas": 49998, "ripp": 21743, "\u0120deprived": 25979, "\u0120PAN": 41687, "\u0120plans": 5827, "Thank": 8398, "npm": 24541, ")=-": 49621, "generated": 20419, "Variant": 40734, "\u0120produces": 11330, "versely": 13110, "\u0120advancement": 32992, "\u0120repression": 32070, "\u0120polymeric": 33973, "\u0120quand": 37639, "\u0120Sz": 28918, "\u0120subunit": 20560, "\u0120trav": 11074, "\u0120scrolling": 41684, "ernel": 7666, "RSP": 50073, "tic": 3028, "\u0120Investig": 32668, "UIT": 41270, "ime": 553, "\u0120Prob": 27849, "\u0120competence": 30281, "\u0120mais": 11565, "mo": 6972, "onym": 7983, "\u0120monomer": 31553, "\u0120nd": 40515, "\u0120probes": 19432, "\u0120kn": 694, "Party": 43357, "\u0120vinyl": 27179, "\u0120HashMap": 47523, "\u0120In": 496, "\u0120info": 8692, "\u0120take": 1379, "Going": 39204, "\u0120Eden": 36220, "\u0120educate": 31150, "\u0120securing": 24682, "apan": 3682, "Environment": 27041, "\u0120identifying": 12488, "\u0120General": 4214, "\u0120burns": 31594, "\u0120lent": 21685, "\u0120\u010a\u0109": 39171, "omenclature": 50125, "inspired": 38358, "isite": 16241, "sam": 22163, "ycin": 43806, "PLIED": 23637, "007": 7931, "ilit": 6133, "\u0120globally": 21349, "\u0120infinite": 11968, "gel": 11500, "\u0120480": 25888, "\u0120PRO": 25382, "\u0120invading": 45573, "\u0120myocard": 14961, "\u0120Pil": 21263, "\u00ea\u00b0\u0122": 35061, "\u0120hepatitis": 21366, "jcmm": 42691, "\u0120manual": 11595, "[/": 32871, "\u00e3\u0123\u0135\u00e3\u0123\u00a8\u00e3\u0123\u012e": 46770, "precision": 40540, "\u0120Fa": 15404, "\u0120abund": 7735, "\u0120shr": 11111, "\u0120MM": 16975, "\u0120affiliate": 26582, "\u0120Bib": 26453, "Mean": 12515, "\u0120coherence": 25253, "ologous": 17359, "\u0120nons": 14122, "axel": 33960, "\u0120Horse": 27950, "CAR": 25595, "HI": 18469, "\u0120holders": 26160, "697": 29790, "\u0120anos": 41658, "\u0120orchestr": 29693, "uth": 3097, "Greg": 33612, "\u0120kiss": 10135, "\u0120checklist": 44282, "iler": 6731, "omnia": 40529, "\u0120commute": 36437, "\u0120chunk": 20540, "igen": 3855, "\u0120demanding": 17905, "\u0120htt": 2832, "message": 8559, "\u0120body": 2133, "\u0120template": 7646, "\u0120minimum": 5927, "016": 11718, "locking": 49662, "\u0120unfortunate": 23293, "\u0120recipient": 18344, "\u0120Michael": 6277, "\u0120Eugene": 36362, "\u0120cake": 15221, "0033": 40306, "\u0120cheat": 39038, "istrate": 20337, "\u0120Ultimate": 37648, "\u0120dysplasia": 48723, "Attempt": 48857, "\u0120prescribed": 15588, "\u0120exchanges": 23261, "osti": 28074, "\u0120unsure": 31488, "lied": 16283, "os": 375, "CAC": 28348, "\u0120Bos": 18624, "\u0120viv": 25898, "\u00e5\u00a2": 34693, "mn": 16192, "\u00d8\u00a7\u00d8\u00b1": 24477, "Human": 22705, "\u0120arrives": 23981, "night": 6170, "um": 360, "\u0120discouraged": 42965, "young": 37615, "\u0120Gospel": 33283, "\u0120endocrine": 35527, "\u0120envelopes": 48880, "unnumbered": 22322, "\u0120retrieve": 19553, "\u0120Cauc": 25659, "\u0120768": 45730, "\u0120severely": 18270, "\u0120indic": 1778, "Shut": 32832, "\u0120detected": 5189, "auer": 17146, "bell": 10910, "285": 23025, "GCT": 29657, "\u01201896": 43843, "\u0120relatively": 4942, "\u0120plague": 31781, "\u0120disclosed": 10557, "CIAL": 28408, "ambers": 17688, "ield": 1001, "inton": 8185, "lung": 40205, "uling": 16292, "zol": 45831, "\u00c3\u00a9sident": 49405, "cli": 31010, "\u0120Gerald": 32509, "0125": 49464, "outhern": 6360, "\u0120Netflix": 25456, "\u0120Tonight": 43935, "\u0120WR": 18887, "aland": 11318, "\u00c5\u013dci": 26968, "90": 2270, "ATS": 43718, "\u0120authored": 47895, "\u0120continued": 4821, "\u0120cytochrome": 34956, "\u0120digging": 28063, "\u0120brows": 22931, "092": 46838, "perties": 9926, "\u0120coff": 33374, "\u0120Label": 24527, "Fine": 28986, "ometric": 7480, "\u00e5\u00bb\u00ba": 40309, "\u0120%": 2462, "\u0120looks": 4453, "lod": 39079, "\u0120Schwarz": 38397, "\u0120inval": 10794, "\u0120Shared": 38480, "\u0120Orlando": 27687, "\u00e2\u0137\u0132\u00e2\u0137\u0132\u00e2\u0137\u0132\u00e2\u0137\u0132": 36963, "\u00e4\u00b8\u0130": 40564, "Aut": 7034, "\u0120manufacturer": 11662, "\u0120modifying": 26264, "\u0120organ": 1963, "\u0120propositions": 39325, "\u0120required": 2424, "\u0120\u00d0\u00bf\u00d1\u0122": 7486, "jem": 38239, "\u0120rupt": 23982, "\u0120nut": 5825, "\u0120ruined": 27826, "\u0120Key": 10030, "handling": 48590, "\u0120\\$": 25486, "\u0120mucosal": 30617, "azz": 11105, "\u0120misc": 27722, "\u0120offerings": 27278, "ollywood": 41265, "\u0120Geneva": 31955, "\u0120insisted": 16701, "\u0120Typical": 40445, "Wh": 3152, "media": 8236, "\u0120dissertation": 47237, "\u0120Valencia": 47137, "\u0120glue": 28400, "tool": 19210, "counsel": 41308, "\u0120Mongo": 43439, "\u0120goddess": 33764, "\u0120loved": 7636, "\u0120realm": 19929, "round": 4650, "ibaba": 48748, "short": 14458, "\u0120of": 273, "\u0120Mc": 3044, "maximum": 36116, "Actor": 49925, "otides": 20327, "\u0120entering": 11734, "\u0120amyl": 24672, "asm": 4542, "\u012018": 1283, "osities": 48250, "litaxel": 44737, "145": 11838, "\u0120considerable": 10665, "Thu": 44644, "\u0120Safety": 18731, "ppy": 19500, "620": 38447, "Date": 6958, "obt": 49845, "\u0120pathway": 7178, ",'\"": 45719, "\u0120transmissions": 41138, "eras": 11987, "opian": 40113, "\u0120Alzheimer": 23294, "\u0120daughter": 6122, "\u0120eject": 37726, "\u0120motion": 3200, "\u0120amount": 2408, "\u0120Steam": 28984, "GRect": 46121, "micromachines": 41163, "\u0120differing": 26704, "fab": 29857, "\u0120ech": 21509, "\u0120356": 37071, "\u0120coffee": 8574, "Document": 14500, "Upload": 31483, "\u0120posing": 42501, "\u0120Admiral": 28244, "laughter": 36425, "\u0120OTHERWISE": 35497, "\u0120trends": 13554, "\u0120\u00d0\u00b2\u00d1\u0123\u00d0\u00b5": 37975, "\u00c3\u00b1": 6621, "\u0120Bundes": 42442, "\u00e3\u0125": 1769, "\u0120Reid": 29038, "max": 4090, "ites": 3254, "\u0120societal": 38058, "\u0120exploratory": 41075, "\u0120Belt": 39398, "\u0120neighborhood": 9168, "\u0120supporter": 31409, "646": 25238, "\u0120constructing": 26736, "\u0120posterior": 12637, "ourt": 950, "\u0120rock": 5561, "\u0120controllers": 27765, "\u0120utilities": 28275, "abs": 5375, "oucester": 47949, "\u0120Artist": 37618, "\u0120extraction": 11998, "\u0120onder": 29508, "hib": 1856, "inand": 36721, "ishops": 29194, "\u0120Turkish": 18416, "\u0120phenomen": 7434, "\u0120producing": 9603, "arn": 1596, "\u0120snaps": 48569, "\u0120Ng": 38495, "\u0120called": 1925, "\u0120Fri": 30867, "\u0120killed": 5339, "\u0120known": 1929, "helm": 35528, "lact": 33316, "stance": 4792, "kip": 44821, "\u0120Whatever": 21836, "\u0120stub": 19542, "\u0120triglyceride": 49020, "\u0120Analysis": 10330, "\u0120lipid": 11764, "\u0120Batt": 23777, "\u0120hal": 7905, "IDs": 31724, "\u0120Cases": 36040, "\u0120visually": 25910, "\u0120suburbs": 35821, "\u0120NJ": 11356, "ah": 1240, "\u0120Pok": 24323, "\u0120className": 32181, "\u0120whales": 43928, "bie": 17782, "\u0120par": 1061, "\u00eb\u0124": 44028, "innen": 40916, "rente": 48338, "\u0120Eva": 41186, "\u0120duplicates": 40430, "\u0120headache": 24934, "\u0120motives": 29613, "\u0120study": 1263, "\u0120Paris": 7785, "\u0120toes": 30106, "\u0120closed": 4581, "\u0120Trudeau": 45277, "\u012095": 5325, "scriptsize": 42612, "\u0120Mercedes": 35512, "\u0120house": 2419, "\u0120Kon": 21928, "\u0120penalties": 22414, "\u0120rally": 18240, "\u0120uid": 43323, "idas": 21400, "\u0120Not": 3105, "\u0120Cock": 37621, "\u0120manufacturers": 16596, "\u0120evangel": 28813, "\u0120Fargo": 47429, "\u0120506": 39172, "dc": 12352, "\u0120perpendicular": 20277, "\u0120printing": 11993, "\u0120projection": 12378, "\u0120reviewing": 16725, "askell": 34524, "\u00e6\u0139\u0142": 47029, "olta": 41385, "ivals": 25786, "\u0120activ": 1396, "\u0120monks": 34955, "\u0120exhibiting": 30259, "\u0120pred": 2063, "\u0120sein": 27437, "<_": 32044, "letal": 15449, "iations": 10944, "\u0120\\}": 31858, "ithub": 6666, "\u0120staircase": 37212, "\u0120podcast": 21110, "\u0120Cal": 2263, "\u0120backgrounds": 24550, "\u0120BM": 15334, "\u0120intervene": 32014, "ager": 3800, "\u0120July": 4163, "\u0120pharm": 7800, "headed": 24818, "ibilities": 9594, "\u0120ache": 49652, "quee": 39757, "\u0120commissioned": 26237, "\u0120dan": 16447, "\u00e5\u00bc\u0122": 35930, "\u0120application": 2898, "\u0120draft": 7482, "bow": 11939, "ESM": 12884, "fraid": 9126, "gov": 12312, "\u0120Instruments": 39664, "\u0120Nep": 26121, "\u0120Op": 12605, "\u0120\u0120\u0120\u0120\u0120\u0120\u0120\u0120\u0120\u0120\u0120\u0120\u0120\u0120\u0120\u0120\u0120\u0120\u0120\u0120\u0120\u0120\u0120\u0120\u0120\u0120\u0120\u0120\u0120\u0120\u0120\u0120\u0120\u0120\u0120": 12375, "Security": 20356, "\u0120Circle": 29572, "\u0120bland": 40672, "\u0120decay": 10027, "Marg": 36569, "discuss": 35844, "plete": 13350, "psis": 26633, "Flu": 43493, "\u00f2": 174, "olve": 3247, "Pick": 36942, "transferase": 30837, "Patrick": 45840, "rain": 1949, "asset": 39869, ",...": 35824, "\u0120cerebro": 34879, "\u0120reasonable": 5272, "ared": 1096, "\u0120{:": 45250, "nell": 16847, "photo": 24442, "\u0120(&": 41851, "\u0120heterozygous": 37754, "\u0120Prest": 31291, "\u0120contents": 9410, "\u0120Algebra": 38621, "\u0120computing": 12672, "\u00e5\u0131\u0138": 27937, "\u0120intrusion": 39482, "\u0120mechanisms": 6297, "pend": 16183, "iddle": 3209, "\u0120365": 23412, "}_{{\\": 17738, "\u00c5\u0124a": 35457, "ioni": 19374, "mong": 33277, "exception": 22558, "\u0120marketing": 9137, "arious": 37993, "Conflict": 30064, "ichi": 22208, "CREATE": 25875, "\u0120aw": 3768, "\u01201935": 29175, "\u0120dash": 20134, "\u0120positive": 2762, "\u0120discriminated": 49247, "artic": 45894, "OFFSET": 33441, "176": 17184, "NH": 17659, "\u0120Partners": 33556, "\u0120solder": 31223, "\u0120Saudi": 16158, "\u0120permanent": 9928, "\u0120surfaced": 47300, "\u0120players": 3773, "\u0120AIDS": 24482, "mund": 27778, "\u0120WAS": 22250, "\u0120chin": 22239, "\u0120jewelry": 28226, "\u0120unl": 46144, "\u0120teens": 27517, "meth": 20912, "fits": 26017, "inside": 40084, "\u00e3\u0124\u00a2": 17072, "aylor": 9614, "lated": 16148, "\u0120circulated": 41443, "\u0120separates": 36158, "\u0120Default": 18193, "\u0120abortions": 41591, "\u0120DD": 28143, "\u0120inhibits": 21425, "\u0120\u00e2\u0122\u012b": 44578, "\u0120Kash": 29654, "are": 609, "rv": 23667, ")](#": 17281, "\u00e7\u0141": 25762, "\u0120tox": 6847, "\u0120strings": 11559, "Register": 16601, "sm": 3610, "\u0120Weyl": 38201, "POSE": 19024, "ments": 942, "**)": 5737, "\u0120Communist": 22356, "\u0120young": 2872, "\u00e1\u00ba": 9702, "\u0120Ant": 9422, "\u0120defect": 7071, "chle": 37894, "Comm": 25600, "graded": 41556, "itons": 50247, "vious": 3391, "\u0120engine": 3948, "514": 42389, "\u0120lure": 42620, "igion": 24734, "cj": 27074, "\u0120virus": 6581, "526": 46514, "\u00ef\u00bf\u00bd\u00ef\u00bf\u00bd": 42481, "ledge": 3009, "acion": 33271, "places": 30345, "\u0120crystallization": 46129, "\u00d0\u00b2\u00d0\u00b5\u00d1\u0124": 47553, "251": 21451, "\u0120Eston": 39863, "\u0120cann": 13066, "\u0120enlightened": 49400, "\u0120flood": 10802, "\u0120Path": 12899, "\u0120distal": 16891, "John": 8732, "\u0120frost": 34724, "zens": 16655, "Adam": 33467, "\u010a\u0120\u0120\u0120\u0120\u0120\u0120\u0120\u0120\u0120\u0120\u0120\u0120\u0120\u0120\u0120\u0120\u0120\u0120": 15518, "\u0120criticism": 14226, "\u0120heavenly": 44593, "\u0120increased": 2559, "Overflow": 45220, "\u0120stat": 1098, "\u0120suites": 49130, "\u0120tuning": 25184, "[@": 683, "\u00e3\u0123\u012d\u00e3\u0124\u012b": 21479, "\u0120adopts": 47932, "wear": 21417, "ographers": 42679, "\u0120Offic": 8853, "\u0120improvement": 7756, "\u0120photograp": 15536, "Edit": 13904, "\u0120varieties": 19112, "WIN": 25079, "orsche": 47030, "\u0120plethora": 48541, "\u0120218": 26578, "\u0120Shaw": 24999, "liner": 41904, "LEV": 25684, "\u0120Wei": 42701, "\u0120Weaver": 45226, "amos": 13167, "\u0120converges": 26414, "\u0120Unity": 29368, "compat": 38659, "cline": 32602, "professional": 36094, "DC": 9151, "\u0120PT": 10622, "law": 6937, "\u0120George": 6086, "bard": 26067, "\u0120invalid": 12078, "\u0120municip": 11992, "perial": 19648, "und": 1504, "ari": 1792, "0000": 1418, "hey": 26512, "\u0120Authors": 26940, "\u0120pro": 354, "onent": 5318, "elyn": 30024, "\u0120Supreme": 6413, "\u0120awards": 16620, "sa": 6678, "uras": 27356, "\u0120Mouse": 27319, "pixel": 29206, "\u0120tactics": 21041, "Kevin": 40773, "mediate": 8613, "\u0120Neither": 17106, "\u0120convenient": 11638, "],\\": 20924, "g": 72, "\u0120Mer": 7612, "\u0120merc": 14480, "\u0120ruler": 29658, "Expected": 35481, "\u0120shuffle": 46671, "\u0120skeleton": 29564, "\u0120wordt": 38117, "argv": 28928, "javase": 50024, "\u0120mechan": 2543, "\u012043": 7652, "\u00c3\u00bcss": 33880, "\u0120Angel": 18354, "\u0120Fly": 19746, "ozy": 15393, "acetic": 39548, "Media": 17831, "\u0120MON": 33995, "\u0120Fixed": 30159, "\u0120tournaments": 37410, "EST": 24422, "\u0120handler": 16454, "\u0120laps": 44421, "726": 49510, "especially": 20432, "vents": 27156, "\u0120MSD": 49517, "\u0120string": 2876, "\u0120Edinburgh": 25990, "\u0120http": 3944, "\u0120workshop": 22586, "  ": 50276, "\u0120Block": 15204, "cyt": 36824, "\u0120laying": 23157, "bian": 13564, "\u0120Pill": 48213, "nya": 49252, "\u0120Instant": 41337, "ulse": 15748, "HF": 21996, "\u0120accelerated": 21702, "\u0120ribosomal": 40867, "\u0120willful": 47187, "\u0120\u00d0\u00b1\u00d1\u012d": 23358, "cast": 4008, "\u00e5\u013e\u00a8": 13610, "\u0120future": 2852, "\u0120commitments": 32316, "\u0120digest": 19818, "\u0120rhythm": 19407, "bund": 45268, "opsies": 30495, "\u00d0\u00b5\u00d1\u0124\u00d0\u00b5": 50231, "Processor": 33473, "tub": 20615, "TestCase": 40595, "izaci\u00c3\u00b3n": 44841, "stances": 4777, "\u012001": 14805, "&\\": 5977, "\u0120Calvin": 36858, "Track": 23857, "\u0120Dental": 47918, "\u0120Pharm": 18033, "\u0120ring": 5818, "\u0120commencement": 37877, "\u0120achievement": 19797, "\u0120Ibid": 20140, "\u0120NEW": 22428, "setminus": 12750, "mega": 3937, "\u0120materially": 40690, "Dependency": 45864, "esses": 48998, "\u0120cocktail": 29086, "atosis": 41272, "ething": 1526, "\u0120asymptomatic": 30192, "\u0120neurop": 26768, "^+": 4526, "ceptive": 31898, "\u0120poetic": 40522, "ancial": 14033, "073": 40991, "smallmatrix": 48070, "224": 17537, "cz": 14617, "\u0120TR": 7500, "2222": 48049, "DM": 9042, "\u0120finely": 25806, "\u0120inspiring": 29853, "\u0120Valent": 24640, "Far": 24234, ".\\[[@": 15775, "\u0120classrooms": 45445, "\u0120inadvertently": 42255, "\u0120manif": 6183, "\u0120matern": 45171, "\u00e3\u0124\u00ab": 28779, "\u0120iod": 25723, "Bridge": 47322, "\u0120unfavorable": 43257, "\u0120United": 1986, "KT": 38930, "ONE": 11147, "imag": 35690, "prehens": 39932, "isco": 23538, "onet": 47956, "\u0120Kirk": 22579, "\u0120gaseous": 42626, "\u0120Potential": 38473, "hw": 13816, "\u01201969": 16648, "\u0120raid": 25682, "\u0120ro": 687, "Histor": 32086, "azo": 38507, "\u0120Patricia": 39206, "\u0120festivals": 33182, "with": 3113, "\u0120preference": 14682, "etitive": 19922, "\u0120launches": 37048, "\u0120exposition": 47284, "\u0120licensed": 17236, "\u0120soc": 9267, "stars": 37146, "009": 8972, "chief": 21063, "\u0120Ricci": 45309, "\u0120Weber": 37247, "\u0120Za": 49300, "\u0120ans": 7897, "\u0120incurred": 23122, "\u0120ingen": 35604, "\u0120lights": 10654, "\u0120overdose": 46539, "\u0120initiatives": 21823, "\u0120situations": 9534, "\u0120Ti": 15984, "AVE": 13754, "someone": 48472, "\u0120Athletic": 39749, "Cra": 36092, "\u0120certainty": 23140, "Methods": 15568, "\u00c2\u013f": 20475, "\u0120Ell": 9545, "\u0120sponsor": 28924, "^{[": 36692, "erd": 15182, "\u0120pip": 9196, "ureau": 13252, "\u0120helmet": 26358, "bled": 11046, "\u0120advanced": 7269, "\u0120vitamins": 35347, "\u0120CBS": 21946, "pl": 446, "Anti": 36382, "\u0120Percent": 31396, "\u0120Hex": 48927, "\u0120crude": 18934, "\u0120Uniform": 37749, "amics": 47775, "\u0120announce": 10578, "Strong": 39819, "deen": 48737, "xton": 28807, "orman": 39221, "\u0120cope": 23808, "\u0120jar": 21152, "\u0120HERE": 23531, "\u0120nex": 47103, "\u0120auction": 22685, "\u0120Culture": 17156, "\u0120pathophys": 30249, "\u0120slide": 14518, "\u0120Beta": 32913, "\u0120Engineer": 39424, "\u0120Kris": 37204, "\u0120zijn": 18949, "\u0120adulthood": 33428, "isible": 16802, "\u0120productive": 19303, "\u0120pir": 19188, "\u0120responsibilities": 19715, "Pen": 26008, "Visit": 37698, "ometer": 11955, "\u0120bare": 8050, "\u0120funds": 8064, "aiser": 34393, "\u010a\u0109\u0109\u0109\u0109\u0109\u0109\u0109\u0109\u0109": 33213, "\u0120consolidated": 33114, "France": 33639, "\u0120Portland": 20956, "\u0120dehydrogen": 26427, "\u0120Jim": 8438, "Rick": 46204, "\u0120attention": 4116, "rei": 31586, "idae": 15203, "\u0120inex": 29257, "\u0120ple": 2318, "\u0120stipulation": 41626, "\u0120transformer": 39707, "frag": 42494, "Rog": 34935, "\u0120travelled": 29433, "\u0120uni": 42015, "\u0120weakly": 22112, "\u010a\u010a\u0109\u0109\u0109": 28122, "overn": 4574, "\u0120minimally": 34885, "\u0120};": 7734, "gently": 40383, "scribed": 31509, "dom": 3335, "escent": 40513, "medium": 28672, "\u0120Italian": 9890, "\u0120Pow": 15181, "\u0120pavement": 37984, "\u0120Booth": 40905, "\u0120beautifully": 27839, "\u0120statements": 7234, "==========================": 48666, "\u0120Franco": 39035, "epi": 37332, "lj": 35687, "^[": 18990, "perature": 18458, "pointer": 25078, "\u0120Compute": 45947, "\u0120party": 3128, "\u0120CONCLUSION": 49950, "\u00c2\u0135": 27399, "\u0120fluctuation": 31608, "\u0120penal": 29697, "\u0120\u00e2\u0122\u013b": 15956, "1500": 33856, "\u0120ether": 25704, "\u0120prov": 872, "51": 3712, "\u0120Obs": 31859, "\u0120Western": 6359, "plasty": 44406, "\u0120lava": 48343, "urel": 37281, "\u0120Mort": 16905, "sky": 13456, "\u0120Independence": 32237, "groupId": 24548, "ropic": 12189, "transform": 16702, "\u0120Ku": 22509, "Throw": 36556, "337": 23829, "template": 8547, "\u0120Elsa": 48076, "ivers": 1564, "otion": 5011, "atile": 12596, "iscussion": 10055, "\u00c3\u013b": 15097, "\u0120knows": 6057, "\u0120mould": 33176, "Length": 10830, "\u0120resilient": 35730, "\u0120Cec": 31661, "\u0120268": 30783, "\u0120eldest": 39311, "@": 33, "rina": 29814, "\u0120Golgi": 49308, "\u0120coach": 8690, "\u0120demol": 25948, "runtime": 21005, "\u0120talk": 2312, "$\u00e2\u0122\u013b": 29789, "\u0120lucky": 13476, "\u0120193": 26138, "\u0120],": 11337, "protocol": 26324, "\u0120Somerset": 48244, "ientes": 42523, "\u00e7\u00bd": 19957, "r\u00c3\u00a9": 20887, "1962": 32796, "zitter": 45609, "\u0120Sympt": 40561, "\u0120crossover": 31595, "\u0120$-$": 24281, "ricks": 21557, "\u00d0\u00bf": 7179, "\u0120Layer": 35368, "\u0120instantly": 18319, "\u0120justices": 50236, "\u0120research": 2561, "\u0120surgery": 5869, "experimental": 49363, "semble": 12779, "othal": 30205, "visory": 24236, "\u0120Jennifer": 26355, "\u0120\\\\[": 49550, "\u0120ch": 448, "\u0120Dirichlet": 47340, "\u0120fe": 704, "hill": 18610, "Olympic": 40611, "\u0120carries": 15814, "\u0120rising": 11002, "\u0120cyclo": 30881, "ression": 1256, "\u0120worden": 25188, "\u0120Priority": 46859, "Microsoft": 16880, "ClCompile": 38173, "Sign": 11212, "instance": 14966, "\u0120legitimacy": 37978, "ken": 3612, "eni": 29571, "ODU": 14647, "nic": 9335, "\u0120340": 28528, "\u0120attend": 8041, "\u0120Vladimir": 31563, "pta": 37668, "\u0120(+": 21757, "\u0120coincides": 30150, "DTD": 41375, "\u0120blindness": 44868, "\u0120isotope": 43112, "istics": 3397, "\u0120detox": 40472, "\u0120missing": 5816, "\u0120proc": 15613, "othelial": 13151, "\u0120sausage": 40741, "\u0120offseason": 42346, "\u0120-------------------------": 32703, "\u0120Civ": 21352, "\u0120longitudinal": 14854, "\u0120slender": 36019, "\u0120spontaneous": 17046, "\u0120Williamson": 41367, "eous": 22953, "olin": 15141, "\u0120Norway": 20341, "\u0120Total": 12266, "gebras": 16343, "\u0120annual": 7970, "\u0120components": 4295, "\u0120Indigenous": 35623, "\u0120PFS": 47286, "\u0120distinguishing": 32495, "\u0120graphics": 15896, "css": 9016, "isation": 5837, "\u0120h\u00c3\u00a4": 41788, "\u0120Treatment": 17012, "\u0120Gay": 25498, "Sleep": 33669, "\u0120lam": 16519, "rowned": 20234, "\u0120Neil": 26298, "Lip": 42902, "ausal": 27026, "devices": 49242, "\u0120milit": 14269, "\u0120sanity": 45985, "\u0120transformed": 13657, "\u00d0\u00b5\u00d1\u0124": 7508, "\u0120swelling": 25567, "\u0120oppose": 25437, "\u0120panels": 12471, "\u0120prefrontal": 42793, "\u00e5\u00ba\u0136": 36361, "\u0120synt": 43548, "major": 24330, "\u0120Lagrangian": 26150, "\u0120\u0120\u0120\u0120\u0120\u0120\u0120\u0120\u0120\u0120\u0120\u0120\u0120\u0120\u0120\u0120\u0120\u0120\u0120\u0120\u0120\u0120\u0120\u0120\u0120\u0120\u0120\u0120\u0120\u0120\u0120\u0120\u0120\u0120\u0120\u0120\u0120\u0120\u0120\u0120": 13582, "Try": 17222, "intervention": 43198, "\u0120AMPK": 46822, "imal": 1983, "\u0120bes": 6290, "stage": 13311, "\u0120detect": 2736, "\u0120tomography": 20213, "\u0120Locke": 49019, "Creating": 40353, "\u0120fabricated": 26493, "\u0120reciprocal": 33561, "\u0120starter": 26023, "\u0120gle": 20786, "\u00e3\u0123\u00a9": 20603, "rah": 22876, "seb": 36899, "oper": 2211, "unci": 36637, "\u0120Tam": 16219, "\u0120coated": 19185, "\u010a\u0120\u0120\u0120\u0120\u0120\u0120\u0120\u0120\u0120\u0120\u0120\u0120\u0120\u0120\u0120\u0120\u0120\u0120\u0120\u0120\u0120\u0120\u0120\u0120\u0120\u0120\u0120\u0120\u0120\u0120\u0120\u0120\u0120\u0120\u0120\u0120\u0120\u0120": 29942, "ivalence": 44132, "\u0120Rita": 46980, "\u0120Quarter": 29787, "\u0120occasional": 19322, "enium": 28795, "\u0120Scul": 46661, "actly": 24374, "unction": 4346, "atu": 37577, "derer": 21052, "\u0120acquired": 9288, "\u0120acknowledged": 14969, "oustic": 16623, "\u0120Bol": 16001, "alities": 12908, "\u0120\u00c3\u00a6": 27119, "jan": 17551, "\u0120Nich": 16982, "37": 1787, "iley": 11416, "\u0120responding": 19392, "\u0120shouldn": 10095, "\u00d0\u00b0\u00d1\u0124\u00d0\u00b0": 27372, "Inc": 29228, "\u0120AA": 17838, "\u0120Ross": 13625, "States": 27121, "\u00e6\u0140": 17321, "\u0120erosion": 32561, "idelberg": 45355, "\u0120dramatically": 16821, "\u0120illnesses": 31372, "aje": 32444, "\u0120pool": 6363, "\u0120toxic": 12825, "\u0120Failure": 32104, "foo": 12110, "outputs": 44902, "\u0120541": 39522, "\u0120tram": 32926, "\u0120-*-": 45180, "endants": 8817, "\u0120367": 36768, "\u0120Anne": 17467, "\u0120phosphate": 17016, "\u0120\u00c3\u00a9v": 45631, "toos": 48809, "\u0120Genome": 36921, "\u0120VAL": 15527, "\u0120Heck": 44415, "vette": 48359, "sensitive": 19579, "grades": 25013, "\u0120DVD": 17509, ")}(\\": 29591, "\u0120alkali": 42391, "\u0120BN": 35602, "*-*": 40291, "ety": 1734, "sor": 7333, "\u0120Driver": 32911, "\u0120GMT": 25386, "MAT": 15090, "TN": 25697, "\u0120einer": 24910, "\u0120figure": 4677, "drop": 12233, "\u0120adequately": 18212, "\u0120Duty": 43172, "\u0120Dominican": 46406, "\u0120HOU": 41831, "\u0120Nord": 23060, "\u0120invocation": 45781, "\u0120schedules": 28631, "\u0120wage": 16610, ":_": 23338, "iab": 31289, "\u0120Winnipeg": 48046, "\u0120darker": 28170, "\u0120trophy": 39259, "\u0120deserves": 22828, "\u00bc": 122, "\u0120FISH": 48068, "\u0120\u00d1\u0123\u00d0\u00bb": 25332, "\u00e8\u00bf\u0136": 47397, "\u0120conflict": 7344, "\u0120inherently": 26557, "ner": 1216, "rique": 40428, "\u0120farther": 21816, "\u0120Session": 28674, "\u0120malign": 11934, "\u00e3\u0123\u0139\u00e3\u0123\u0141": 15124, "\u0120osm": 31624, "\u0120casa": 39368, "\u0120attained": 26553, "\u0120electrophys": 44553, "context": 8882, "\u0120grounds": 9905, "heastern": 25489, "Wait": 13689, "azure": 43478, "\u0120lept": 24214, "\u0120pent": 15482, "\u0120undertaking": 33405, "NER": 21598, "drm": 40361, "sold": 42022, "\u0120immigration": 13163, "ArgumentException": 43411, "ERK": 32344, "\u0120Riemann": 25571, "994": 34307, "\u0120192": 19372, "lin": 3642, "\u0120Atomic": 39628, "\u0120affiliated": 27312, "includes": 30076, "\u00d8\u00b9": 13793, "\u0120bullying": 38738, "insula": 23619, "Rate": 25977, "Phil": 21556, "acci": 42401, "qrt": 2274, "trans": 3675, "\u0120Detailed": 47042, "\u0120Wed": 7213, "\u0120enacted": 23552, "\u0120envis": 47335, "\u0120Cambodia": 41984, "\u0120homeowners": 40821, "doing": 25163, "\u0120Kavanaugh": 47598, "\u0120Sans": 28495, "\u0120menstrual": 46182, "original": 19164, "\u0120muy": 28309, "\u0120purchased": 9716, "\u0120Surviv": 49693, "equal": 11969, "sta": 18233, "tration": 14046, "umetric": 45558, "\u0120gravity": 12926, "\u0120means": 2097, "was": 4238, "stad": 25134, "ategory": 1280, "ceral": 33606, "IDENT": 25788, "enable": 14760, "\u0120correcting": 35827, "\u0120disruptive": 43081, "IMAGE": 35894, "\u0120overcome": 11399, "documented": 34023, "\u0120Graduate": 37770, "\u0120LSD": 47803, "\u0120Temp": 40708, "adv": 24301, "\u0120dal": 26932, "bor": 3399, "ak": 518, "regulate": 48707, "\u0120Integration": 43309, "\u0120coin": 18011, "})$$": 43742, "LAND": 35897, "\u0120Conversely": 24646, "ote": 1584, "ocial": 2142, "\u0120capability": 14603, "\u0120clk": 49362, "\u0120surprises": 37700, "\u00d2": 142, "\u0120height": 4898, "\u0120Rah": 27614, "\u0120problems": 3237, "\u0120colour": 10688, "\u0120schema": 20824, "\u0120teen": 11332, "\u0120val": 821, "erved": 4994, "asers": 39053, "\u0120keeper": 43775, "action": 1913, "\u00e1\u00bf\u0138": 43077, "\u0120advis": 15237, "\u0120menus": 37829, "280": 19100, "\u0120Em": 4825, "\u0120Territory": 36943, "apis": 30053, "\u0120Charl": 22200, "\u0120fields": 4910, "\u0120ok": 8718, "\u0120tread": 29134, "\u0120Welsh": 29630, "\u00e3\u0125\u00bc\u00e3\u0125\u012a": 42364, "orect": 20149, "Prom": 19262, "\u00e6\u00a7": 43033, "scriptscriptstyle": 27886, "anol": 9201, "*,": 2992, "817": 49660, "\u00e3\u0125\u0125\u00e3\u0124\u00af": 37988, "oj": 13511, "\u0120Unless": 15999, "\u0120conflic": 11603, "\u0120predecessor": 28934, "\u0120adrenal": 33903, "\u0120Sally": 32577, "ascular": 5670, "\u00e5\u0132\u012a": 24168, "\u0120Windsor": 42835, "rak": 21720, "rid": 6992, "amo": 13431, "\u0120pods": 43701, "PSS": 21851, "\u0120bio": 9015, "\u0120poker": 32748, "701": 42940, "\u0120swallowed": 30427, "zb": 30007, "\u0120destruct": 21181, "072": 42515, "\u0120picture": 5406, "\u0120Mar": 2398, "\u0120Reaction": 47484, "\u0120monkeys": 30552, "\u0120dances": 47078, "gos": 44654, "authors": 43355, "vis": 4534, "Lower": 25216, "django": 44472, "reo": 40470, "\u00d0\u00ba\u00d0\u00b0": 21475, "\u0120258": 31605, "ocide": 33429, "\u00e6\u0138\u00b9\u00e6\u00b3\u0137": 44301, "\u0120Odd": 43871, "@@": 22610, "inject": 44155, "\u0120Uri": 45855, "\u0120assists": 27593, "\u0120brave": 21189, "\u0120erythe": 45481, "\u0120notwithstanding": 30812, "=\"../../../": 36587, "\u0120receiving": 6883, "\u0120unf": 5369, "\u0120projected": 16589, "21": 1797, "anno": 23099, "\u00e6\u0127": 46791, "\u0120243": 30188, "\u0120prognosis": 17102, "\u0120Nar": 26417, "\u0120pot": 1721, "\u0120simultaneously": 10486, "\u0120rash": 35511, "\u0120diffus": 46132, "\u0120stems": 23880, "\u0120Pictures": 30200, "689": 29941, ";}": 22866, "}-\\": 10780, "pired": 24875, "\u0120FA": 10601, "\u0120Lastly": 36562, "\u0120booster": 48696, "\u012059": 8978, "\u0120buyers": 22251, "\u0120hospit": 11469, "\u0120overruled": 34310, "\u0120Phosph": 38826, "\u0120perox": 19899, "\u0120Fr": 1879, "\u0120politically": 23075, "itations": 22644, "arning": 4026, "\u0120repairing": 47387, "ologic": 9522, "Execution": 35449, "\u0120\u00d8": 4954, "\u0120generated": 4561, "\u0120Rx": 47317, "\u0120coincidence": 27454, "analytic": 42567, "\u0120png": 38259, "incre": 19687, "\u0120ult": 4054, "\u0120repos": 13929, "boys": 25637, "\u00d7\u013e": 20770, "0030": 29728, "\u0120Tat": 28887, "\u0120Joshua": 29092, "\u0120declares": 34852, "\u0120dilute": 49203, "pip": 42532, "(&": 6395, "emphasis": 18532, "mare": 22005, "emitting": 42658, "pike": 37333, "\u0120multiplication": 25219, "\u00e5\u0122\u00bc": 40969, "\u0120loses": 25068, "\u0120plaques": 38073, "rights": 37767, "reens": 10436, "isser": 46302, "\u0120Thomson": 41963, "\u0120taxation": 34871, "\u00e4\u00b8\u012b": 36168, "\u0120Image": 10882, "\u0120cube": 23636, "\"}^": 45509, "\u0120variations": 10575, "\u0120\u00c2\u00b6\u00c2\u00b6": 38320, "\u0120Yug": 36589, "must": 18265, "\u0120quote": 14430, "dashed": 32448, "\u0120Bradley": 27991, "\u0120Harris": 13680, "Cold": 50184, "\u0120fMRI": 43918, "ULTS": 34077, "\u0120beneficiary": 33452, "\u0120abs": 2117, "fh": 30550, "\u0120express": 3890, ")$-": 16550, "whatever": 38499, "\u0120\u00c2\u00b7": 25271, "\u01201850": 38367, "\u0120graves": 38854, "RF": 22986, "paced": 47417, "1993": 13549, "\u0120satisfactory": 20297, "Frequency": 45369, "million": 24561, "\u0120injuries": 9478, "atten": 21562, "\u0120Ill": 6192, "atal": 3165, "\u0120agitated": 47902, "\u0120veins": 27394, "impact": 48276, "hydrox": 31810, "\u0120520": 34775, "\u0120Seattle": 16335, "\u0120discour": 22528, "\u0120fost": 25243, "\u0120infinity": 23579, "\u0120intertw": 44463, "\u0120posts": 9319, "ogeneity": 14812, "\u0120***": 14244, "\u0120shade": 21290, "\u0120ot": 14366, "kk": 14750, "ILE": 35336, "\u0120Johnson": 7902, "\u0120illum": 16023, "\u0120Strategic": 40456, "attachment": 47537, "\u0120contraction": 22170, "********": 2015, "artifactId": 24203, "\u00e7\u0139": 40162, "Link": 10516, "\u0120bound": 3033, "Phot": 25414, "\u0120Renew": 50235, "\u0120cream": 10777, "ness": 1255, "url": 6434, "\u0120tape": 11173, "Labels": 46341, "641": 33976, "\u0120Equipment": 40061, "OR": 1372, "icin": 24754, "\u0120incorporated": 11217, "atory": 2473, "\u010d\u010a\u0120\u0120\u0120\u0120\u0120\u0120\u0120\u0120\u0120\u0120\u0120": 8173, "\u00e5\u012e\u0138": 27707, "inux": 8810, "kubuntu": 34400, "\u0120/*!<": 44740, "\u0120Stim": 38459, "\u0120bloc": 41129, "asso": 26341, "\u0120playback": 35415, "\u0120scra": 34890, "\u0120squeezing": 43464, "\u0120nort": 20558, "\u0120odor": 26883, "Overall": 22641, "\u0120Haz": 25992, "\u0120Items": 33938, "bia": 26978, "YN": 43092, "\u0120consist": 2882, "\u0120uncon": 10915, "\u0120\u00d0\u00b8\u00d0\u00bc": 32951, "\u0120clar": 8254, "\u0120centered": 18932, "\u0120exerts": 45956, "px": 3498, "\u00d1\u0124\u00d0\u00b8": 43811, "openia": 32889, "\u010f": 192, "\u00e3\u0125\u0129": 31712, "\u0120,": 1157, "\u0120Anal": 14703, "\u0120aus": 16506, "\u0120Parameter": 35475, "\u0120depths": 24484, "ional": 1593, "leading": 16378, "\u0120dict": 10886, "\u0120forecast": 16923, "ismiss": 22527, "\u0120Tb": 48883, "\u0120excretion": 35317, "\u0120arise": 12893, "\u0120deserted": 36986, "\u0120f\u00c3\u00a5": 36283, "\u0120rules": 4803, "jab": 37918, "\u01202010": 4267, "\u0120speeches": 31537, "\u0120subsid": 14761, "HK": 34650, "Consider": 16628, "\u0120-,": 48568, "\u0120chees": 36187, "CLAIM": 35772, "emn": 24551, "\u0120teachers": 10954, "Court": 18336, "athed": 41746, "754": 31254, "\u0120)\\": 32860, "\u0120Per": 3545, "\u0120exemplified": 45045, "\u0120Hook": 30276, "\u0120high": 1029, "\u0120arrangements": 16669, "\u0120surpassed": 49634, "\u0120River": 7121, "\u0120prisoners": 16154, "\u0120Jennings": 48408, "\u0120pair": 4667, "population": 30957, "\u0120subdu": 49371, "\u0120lightweight": 28441, "\u0120emp": 41534, "\u0120quest": 1437, "\u0120tRNA": 41906, "\u0120folds": 34579, "\u0120Crisis": 39308, "\u0120nue": 28988, "hh": 12155, "PAD": 41420, "\u0120%)": 41569, "\u0120Congressional": 30841, "883": 39273, "\u00e2\u0122\u013f).": 21372, "\u0120MB": 15255, "\u0120Channel": 16824, "\u0120captain": 13595, "\u0120brace": 27965, "\u0120blending": 41209, "\u0120cleans": 30671, "\u0120AUT": 44046, "rific": 14830, "ps": 793, "nob": 31528, "\u0120Dual": 38405, "SELECT": 12995, "comments": 26122, "\u0120Text": 10318, "\u0120banana": 36767, "\u0120Tim": 8969, "\u0120deut": 38806, "\u0120enorm": 12546, ">{{": 49884, "\u0120photometry": 41708, "Algorithm": 39973, "Th": 1044, "\u0120propagator": 45425, "\u0120rm": 40373, "\u0120shred": 28347, "\u0120endothelial": 14335, "scripts": 26804, "\u0120Erik": 40537, "\u0120noises": 33737, "\u0120decl": 2944, "\u0120style": 3740, "\u0120parade": 28768, "}}}(\\": 39111, "\u0120ponder": 37202, "\u0120thunder": 24511, "\u0120recl": 43834, "probe": 32373, "\u0120Mich": 4378, "\u0120industry": 4491, "))$.": 34801, "iro": 9401, "vin": 8498, "\u0120festival": 16365, "uins": 47701, "\u0120human": 1966, "copyright": 35152, "Pac": 27879, "ViewModel": 39744, "})-": 44564, "\u00e3\u0123\u00a4": 20691, "\u0120(\\>": 30119, "\u0120Interview": 31466, "\u0120cardiac": 10177, "\u0120senses": 21768, "ensure": 5358, "\u0120prints": 22774, "\u0120accompanied": 11704, "\u0120summed": 37254, "pound": 35987, "\u00e8\u00bd": 27258, "\u0120Romania": 34262, "\u0120stra": 3405, "\u0120Hum": 16765, "ori": 8885, "\u0120terminals": 20737, "\u00d0\u013a": 29690, "\u0120puzzled": 39340, "\u0120tree": 5202, "PR": 3175, "/\\": 6602, "ounced": 11493, "\u0120Range": 21277, "\u0120forums": 25278, "\u0120qRT": 34908, "\u0120concealed": 27715, "\u0120checkbox": 43989, "\u0120ineffective": 18860, "dings": 26935, "\u0120issue": 2523, "\u0120pace": 13870, "Han": 34437, "\u00e6\u0135": 44508, "iscuss": 8552, "vec": 4642, "\u00e1\u0140": 18081, "\u0120undefined": 17011, "\u0120Sure": 15594, "\u010a\u0109": 996, "\u0120yell": 42963, "\u0120\u00c3\u00a8": 12187, "\u0120\u0120\u0120\u0120\u0120\u0120\u0120\u0120\u0120\u0120\u0120\u0120\u0120\u0120\u0120\u0120\u0120\u0120\u0120\u0120\u0120\u0120\u0120\u0120\u0120\u0120\u0120\u0120\u0120\u0120\u0120\u0120\u0120\u0120\u0120\u0120\u0120\u0120\u0120\u0120\u0120\u0120\u0120\u0120\u0120\u0120\u0120\u0120\u0120\u0120\u0120": 21336, "\u0120inquired": 39257, "})^{\\": 47402, "\u0120Michigan": 11314, "\u0120cot": 13450, "\u0120Given": 10300, "\u0120Generate": 48533, "\u0120anchored": 39574, "\u0120bronze": 26247, "\u0120Purchase": 47368, "\u0120geneal": 49584, "\u0120relaxing": 32196, "\u0120computes": 48169, "hether": 7986, "woods": 48853, "advant": 11402, "quier": 38680, "\u0120reserv": 9298, "\u0120clo": 23406, "\u0120cochle": 48751, "\u0120\u00d0\u0141": 21146, "\u0120comm": 764, "\u00c3\u00b4": 9837, "East": 28886, "Thom": 42299, "Vern": 50126, "ortex": 18815, "\u0120music": 3440, "034": 20570, "\u0120Gi": 12024, "\u0120suppressor": 34224, "raged": 34785, "\u0120Jul": 9218, "\u0120Wheat": 39979, "\u0120decoding": 28490, "\u0120moiety": 37772, "\u0120punct": 17256, "\u0120theology": 31525, "\u0120Indiana": 14614, "thia": 36005, "\u0120Leon": 14765, "\u0120introdu": 3092, "THER": 13656, "\u0120Plug": 48823, "\u0120substitution": 19137, "antically": 39904, "\u0120Mi": 9823, "MQ": 41488, "sample": 16848, "\u0120valuable": 9865, "gal": 9896, "\u0120Internet": 7336, "Euro": 47678, "993": 35410, "211": 17605, "ensation": 17332, "igu": 36753, "\u0120Without": 12414, "\u0120wallet": 23138, "\u0120Keith": 24035, "\u0120OPT": 37692, "\u0120cemetery": 33091, "VALUE": 22355, "Buy": 37517, "\u0120acknowled": 9555, "\u0120highways": 40459, "\u0120introductory": 47649, "\u0120collapsed": 21900, "\u0120contradicts": 40878, "\u0120owes": 42261, "rect": 6471, "\u0120Duke": 14913, "\u0120undocumented": 46098, "\u0120reservation": 28930, "atra": 29628, "ig": 304, "vp": 29035, "Later": 24801, "\u0120Rather": 13771, "\u0120unanimously": 38350, "\u0120\u00ce\u00b3": 13850, "onal": 2814, "atorial": 25922, "\u00e1\u0122\u0132": 49669, "things": 28579, "driven": 17477, "\u0120IRA": 36496, "\u0120Ahmed": 32787, "\u0120Mix": 22347, "\u0120adjacent": 9701, "\u0120PIP": 50248, "\u0120hypoxia": 23618, "\u0120GOODS": 47144, "\u0120disc": 1262, "\u00b0": 110, "\u0120BRE": 46299, "Disk": 42278, "\u0120Sloven": 43372, "\u0120Transport": 26396, "\u0120detained": 28952, "Ptr": 12030, "BB": 10172, "\u0120fighting": 8615, "etheus": 48227, "mul": 31601, "\u0120Abrams": 49665, "\u0120heavier": 27953, "\u0120identification": 8137, "Port": 11688, "\u0120length": 2978, "beck": 28298, "\u0120mounts": 47001, "\u0120programs": 5659, "running": 24220, "\u00d0\u00bb\u00d0\u00b5\u00d0\u00bd": 36723, "\u0120Philosophy": 27284, "0060": 35173, "\u0120dismant": 37227, "\u0120encoder": 32049, "\u0120folk": 19365, "\u0120evenly": 25356, "\u0120hierarchical": 24498, "\u0120purely": 15846, "\u0120regained": 47414, "\u0120shrew": 48258, "String": 2776, "\u0120smartphone": 21679, "batch": 23941, "oples": 18898, "irms": 11178, "\u0120lives": 4852, "\u0120containers": 17671, "\u0120xs": 48361, "\u0120FIF": 25971, "\u00c3\u00bcnd": 46766, "\u0120Delete": 33551, "\u0120rigidity": 40350, "CCT": 35163, "JO": 26461, "aco": 15861, "files": 11242, "\u0120diffuse": 21858, "proto": 20894, "\u0120fibroblast": 39044, "\u0120speedy": 39103, "urns": 10029, "chs": 42585, "\u0120typh": 46354, "doibase": 33835, "\u00e6\u0138\u00b9": 20005, "\u0120203": 24876, "\u0120psoriasis": 44455, "\u0120mic": 8555, "\u0120touch": 5181, "\u0120comprehens": 9483, "\u010a\u0120\u0120\u0120\u0120\u0120\u0120\u0120\u0120\u0120\u0120\u0120\u0120\u0120\u0120\u0120\u0120\u0120\u0120\u0120\u0120\u0120\u0120\u0120\u0120\u0120\u0120\u0120\u0120\u0120\u0120\u0120\u0120\u0120\u0120\u0120\u0120\u0120\u0120\u0120": 17240, "\u0120subscribe": 26302, "irement": 36728, "\u0120Frances": 27522, "\u0120expects": 21973, "\u0120hunger": 23635, "result": 6870, "\u0120Lane": 19051, "\u0120epidemic": 22954, "\u0120\\(": 24829, "\u0120hydr": 33171, "imme": 46848, "conditional": 35428, "gent": 7322, "uty": 12223, "\u0120Isaac": 29222, "filename": 17479, "substack": 35547, "\u0120)$": 34454, "\");": 3287, "\u0120Dios": 46516, "println": 16684, "cra": 33205, "weet": 8775, "furt": 34783, "\u0120BAS": 19253, "\u0120<?": 17987, ":'": 22426, "elij": 40467, "those": 21808, "ensch": 49296, "bringing": 49575, "chemic": 23413, "ympt": 40045, "\u00e2\u0122\u00a8": 40702, "bed": 3026, "propylene": 49848, "\u0120Beyond": 23626, "\u0120Chase": 27917, "\u0120GmbH": 38230, "\u0120HCT": 46363, "\u0120IO": 19698, "dip": 31665, "catenin": 31276, "store": 11869, "imbab": 35206, "\u0120_,": 13830, "\u0120bits": 9886, "\u0120Jupiter": 34434, "\u0120hist": 1872, "\u0120Zhang": 22114, "\u0120justice": 8426, "\u0120AF": 11854, "\u0120>>>": 30803, "\u0120Burton": 33718, "\u0120microl": 48661, "\u0120paralysis": 45050, "\u0120rag": 23603, "\u0120CHO": 45534, "\u0120rugby": 29385, "\u0120Combat": 46750, "fields": 15069, "\u0120dynamically": 23043, "abase": 4286, "astern": 8963, "\u0120expense": 14247, "UX": 21466, "nai": 40236, "\u0120498": 42872, "160": 9913, "\u0120facult": 43686, "\u0120meditation": 23986, "\u0120representations": 14237, "\u0120shortly": 13515, "\u0120variable": 4778, "es": 265, "oh": 1368, "icient": 17952, "\u0120Theorem": 6899, "\u0120prenatal": 38977, "\u0120showers": 39426, "\u0120weak": 5075, "Completed": 45653, "otal": 5359, "\u0120fundraising": 35958, "dl": 11830, "ged": 2400, "Rose": 37070, "\u0120PW": 47124, "\u0120vitality": 47065, "\u0120\u0120\u0120\u0120\u0120\u0120\u0120\u0120\u0120": 2286, "=\u00e2\u0122\u013f": 44680, "Works": 21950, "uint": 8531, "v\u00c3\u00a4": 21380, "\u0120amendment": 15129, "\u0120clad": 46017, "adal": 30277, "groups": 12896, "ignore": 30029, "seconds": 30544, "\u0120deflection": 43293, "\u0120geb": 30722, "\u0120Europ": 13124, "MHz": 32023, "\u0120Pur": 14929, "hematic": 22409, "\u0120OA": 29258, "\u0120entitled": 7429, "\u0120impe": 19812, "\u0120pursu": 8205, "\u00ce\u00bf": 2863, "\u0120Celtic": 40327, "\u0120blacks": 26769, "\u0120bootstrap": 28551, "\u0120knocked": 19336, "Binary": 32849, "\u0120$^": 31502, "\u0120tern": 49688, "actor": 5906, "conn": 22670, "\u0120Such": 6102, "\u0120heterocy": 44632, "\u0120Carn": 33334, "creat": 20132, "UES": 16768, "}({\\": 10791, "avirus": 16963, "\u0120Occ": 17763, "ucking": 25826, "\u0120hig": 1725, "\u0120transistor": 16781, "ollary": 17405, "report": 16223, "\u0120scarc": 22888, "\u0120regul": 5433, "program": 14996, "\u0120achie": 3143, "383": 30528, "474": 30413, "oses": 4863, "indows": 5509, "arynge": 27455, "reich": 38938, "Merge": 44022, "\u0120Calif": 34280, "\u0120Kevin": 15273, "TIME": 18318, "\u0120affected": 5876, "Wang": 31061, "\u0120Manual": 28609, "Alt": 31879, "\u0120attitude": 12046, "oler": 15740, "\u0120phenomenal": 44294, "\u0120solidarity": 34394, "\u0120Griffith": 38842, "\u0120tre": 2578, "\u0120\u00e2\u0122\u0140": 16724, "30": 1229, "\u0120alphabet": 30156, "ORS": 16902, "ant": 386, "made": 12710, "\u0120316": 33152, "\u0120assign": 9212, "\u0120booking": 30170, "plantation": 38484, "\u0120performs": 17923, "\u0120preacher": 50146, "webkit": 20726, "animal": 49655, "lux": 29833, "nyder": 38192, "\u00e6\u00ac\u00a1": 35241, "\u0120knocking": 30906, "\u0120petty": 38817, "\u0120Administ": 10051, "\u0120participant": 14687, "\u0120sys": 11876, "\u0120avoid": 3693, "ario": 5629, "gens": 41181, "\u0120Terry": 21638, "\u0120logar": 21953, "negative": 12373, "\u0120Temple": 17658, "\u0120selection": 5438, "\u0120Cran": 45374, "\u0120interven": 16070, "\u0120138": 15410, "\u0120ChIP": 42898, "ww": 1477, "Constructor": 38168, "\u0120musicians": 20230, "\u0120prosthetic": 48199, "\u0120tempo": 28250, "\u0120fi": 12684, "401": 25797, "ending": 1946, "\u0120foi": 27052, "Location": 11930, "itivity": 5714, "\u0120\u010a": 2490, "\u0120Milk": 41452, "\u0120comprises": 12093, "\u0120seek": 7703, "\u0120Liz": 31479, "Swift": 44756, "\u0120coll": 3007, "\u0120slices": 18484, "\u0120140": 11858, "uten": 10284, "nas": 27109, "\u0120knockdown": 23471, "\u0120satisf": 3449, "import": 2948, "Sometimes": 20806, "strous": 45567, "So": 2598, "lower": 12973, "\u0120Jacques": 36063, "\u0120Military": 20884, "\u0120hangs": 37778, "\u00e4\u00bb\u0138": 24446, "\u0120accorded": 48693, "\u0120Fc": 34858, "\u0120albeit": 23447, "\u0120incarceration": 38886, "\u0120coloured": 37220, "\u0120mus": 1948, "\u0120outskirts": 46413, "flush": 34459, "clud": 741, "rangian": 23623, "________": 3234, "\u0120Ages": 34546, "\u0120hats": 33054, "\u0120parametric": 36833, "\u0120permeability": 25566, "nis": 24836, "\u0120Asp": 26989, "\u0120Vers": 25403, "encil": 21177, "\u0120participants": 5014, "\u0120quanto": 41518, "itor": 2081, "\u0120personally": 11697, "got": 19559, "JK": 43262, "\u0120dentro": 45078, "\u0120prohibit": 33459, "atl": 42029, "\u0120Leg": 7153, "irl": 2587, "choose": 27271, "\u0120severe": 5460, "ERROR": 12641, "ulance": 28356, "Mic": 28184, "\u0120valves": 28367, "rength": 27410, "\u0120Bryant": 33276, "classification": 42070, "Effect": 15131, "\u00ef\u00bd": 20422, "\u0120POSS": 43194, "\u00e6\u013e\u012f": 49616, "\u0120executive": 9165, "ach": 607, "\u0120dw": 19858, "\u0120Arthur": 15948, "antic": 6484, "\u0120Midd": 34012, "\u0120emb": 4443, "\u0120showed": 2692, "\u0120tant": 22602, "\u0120;": 3706, "\u0120pics": 40482, "Stop": 15021, "('',": 41771, "\u0120am": 717, "\u0120embargo": 39135, "`:": 38416, "\u0120frequent": 10879, "\u0120Pan": 9251, "\u0120supportive": 23384, "ume": 2123, "\u0120tweak": 48626, "09": 2693, "porters": 33187, "unctional": 47855, "Solution": 37533, "\u0120fib": 5713, "\u0120Progress": 28225, "un": 328, "\u0120Contrary": 42748, "\u0120OPINION": 36111, "\u00e5\u0130": 20647, "\u0120lump": 32163, "\u0120nutrients": 23491, "BSD": 33725, "\u0120english": 48087, "\u0120fibers": 13154, "\u0120promises": 16966, "ISC": 33771, "\u0120Russians": 24794, "Charles": 27515, "DIR": 13266, "\u0120Sale": 29068, "\u0120done": 2218, "\u0120exclusive": 11855, "ece": 18393, "\u0120sustain": 10265, "\u0120Buenos": 46287, "\u0120barn": 23584, "ICAN": 48697, "\u0120342": 36153, "\u0120goals": 7342, "Mit": 34967, "99999999": 43977, "ynom": 9822, "134": 15468, "INVALID": 35557, "\u0120Cameron": 22671, "cling": 36537, "plist": 45890, "\u0120How": 1359, "\u0120Walt": 31580, "\u0120antagonist": 25166, "\u0120initialization": 31850, "\u0120nowhere": 17663, "\u0120suggesting": 7738, "ulas": 37961, "\u0120entre": 13326, ">();": 18257, "elaide": 37485, "simple": 19583, "uristic": 32838, "\u0120\"`": 36823, "six": 17182, "\u0120Eat": 43852, "\u0120Men": 9730, "quet": 21118, "associated": 12534, "\u0120Baron": 26192, "\u0120Ivy": 45397, "\u0120equal": 4503, "GY": 39491, "Grid": 15099, "\u0120influencing": 29189, "000001": 40817, "\u0120judic": 33348, "\u00c3\u00b3": 1954, "etted": 37883, "\u0120noct": 44970, "\u0120Hume": 47094, "\u0120operational": 15942, "\u0120respective": 9056, "\u0120than": 685, "polar": 24862, "\u0120III": 6490, "uben": 47681, "\u0120G\u00c3\u00b6": 48337, "\u0120poets": 32976, "\u0120trilogy": 47921, "\u01201100": 45404, "\u0129": 218, "ancy": 4306, "\u0120lobbying": 40140, "daily": 35431, "\u0120\u00ce\u00b2": 8361, "wartz": 33194, "\u0120attackers": 40567, "\u0120slash": 41048, "\u0120confrontation": 31233, "\u0120spindle": 30033, "\u0120philosoph": 17211, "\u00e9\u0138": 15954, "\u0120opens": 13279, "\u0120callback": 15259, "\u0120stable": 6474, "adelphia": 13254, "ira": 8432, "\u0120ethnic": 16175, "\u0120thinner": 37367, "andals": 45642, "carrier": 48789, "mpl": 42180, "\u00e0\u00a4\u00a4": 23936, "\u0120atherosclerotic": 49667, "\u0120stip": 18798, "\u0120544": 41156, "agnet": 36488, "\u0120Christine": 36449, "\u0120Diff": 29277, "service": 10613, "ENC": 20712, "\u0120bb": 48557, "Fran": 44630, "\u0120gaming": 16791, "\u0120cycle": 5880, "bucket": 38924, "\u0120Now": 3954, "\u0120feet": 4669, "\u0120thereto": 26474, "\u0120cabinet": 19211, "\u0120end": 990, "Std": 38821, "\u0120IMF": 35734, "\u0120Congress": 5759, "\u0120Elvis": 49177, "tasks": 40480, "\u0120Victory": 44071, "\u0120single": 2014, "\u00d1\u0123\u00d1\u0124\u00d0\u00b2\u00d0\u00b5\u00d0\u00bd": 45476, "\u0120t": 246, "\\#": 16622, "Fund": 22624, "ipro": 39552, "cultural": 37452, "messages": 33844, "Safe": 35947, "\u0120ERR": 22535, "\u0120PB": 15192, "\u00c3\u00b6n": 17685, "\u00e9\u013d": 20031, "itone": 17495, "430": 34230, "~,": 9854, "insects": 46687, "\u0120Fleet": 32521, "\u0120Wer": 27766, "\u0120daddy": 42219, "\u0120enem": 6502, "\u0120identifiers": 47811, "\u0120keeps": 11359, "\u0120revisit": 45735, "\u0120happier": 33128, "\u00d7\u0139": 36403, "\u0120producers": 18014, "\u0120them": 731, "\u0120unacceptable": 28536, "\u0120degeneration": 27939, "\u0120warfare": 27205, "\u0120growled": 49994, "\u0120\u00ce\u00b7": 24355, "\u0120diameters": 37162, "\u0120Socrates": 43424, "poral": 23702, "1947": 41858, "fill": 9337, "\u0120hospitality": 34598, "\u0120must": 1364, "\u0120preserves": 31221, "Lau": 49698, "Ok": 20127, "inities": 46821, "97": 4148, "\u00c2\u00a7": 7803, "\u0120plugin": 15191, "\u0120periodontal": 41875, "RE": 1848, "\u0120SUN": 40686, "\u0120volunteered": 43659, "''(": 50101, "\u0120BOOL": 46013, "\u0120update": 5731, "\u0120exagger": 23668, "ego": 32844, "\u00c3\u00a4\u00c2\u00ba": 31782, "\u0120combinatorial": 38183, "\u0120depends": 7024, "\u0120facie": 31452, "inset": 46039, ".\u00e2\u0122\u012d": 32477, "pmb": 38013, "izoph": 20080, "gated": 27189, "\u0120Shir": 31721, "Payload": 48797, "nek": 36869, "\u0120muscular": 27602, "blic": 21287, "\u0120Submitted": 49451, "\u0120niece": 43551, "\u0120Begin": 22929, "icle": 2024, "\u0120Tribunal": 45845, "\u0120quite": 3240, "\u0120widths": 34414, "\u0120summit": 21948, "\u0120Due": 12571, "\u0120Bio": 16181, "\u0120COL": 21849, "ocument": 1829, "iza": 21631, "Rep": 6802, "progress": 24951, "\u00d0\u00b0\u00d0\u00b1": 21029, "\u0120Maxwell": 28200, "RESET": 47885, "\u0120Ram": 9752, "\u0120n\u00c3\u0125": 38229, "^+\\": 37578, "\u0120exercised": 25796, "\u0120succeeds": 44584, "\u0120transitional": 42933, "\u0120coupons": 49516, "\u0120unsigned": 10698, "us": 316, "\u0120Caption": 42699, "\u0120acetone": 48886, "\u0120hadronic": 49680, "ati": 8657, "\u0120'''": 42011, "\u0120METHODS": 49044, "\u0120antib": 4042, "\u0120TEXT": 46434, "RY": 30251, "\u0120Dollar": 46693, "Stan": 36447, "each": 14382, "aturally": 28147, "\u0120Bu": 11262, "chars": 30830, "\u0120apple": 19126, "\u0120cet": 32228, "\u0120ending": 12365, "FX": 27208, "\u0120molecules": 8094, "\u0120occupy": 26263, "\u0120assaults": 44848, "\u0120liberty": 17843, "\u0120swit": 11857, "ract": 974, "structure": 18317, "uesday": 7131, "\u00c4\u00b1": 5588, "rese": 43038, "bal": 7187, "sweet": 46896, "wolf": 40995, "\u00d0\u00b8\u00d1\u0123": 17307, "\u0120207": 25589, "\u0120OVER": 39161, "\u0120aspiration": 36951, "\u00e1\u0125\u0136": 36017, "\u0120pointing": 13458, "\u0120coined": 48945, "\u0120islands": 17546, "encode": 25950, "\u0120abundant": 17829, "\u0120Section": 5238, "DEV": 15528, "created": 22337, "\u0120\u00c2\u00a9": 20919, "mp": 2503, "\u0120": 209, "\u0120Protect": 48483, "enden": 27793, "lla": 14797, "\u0120indictment": 17612, "253": 22067, "\u0120Modi": 32710, "\u0120taxpayer": 22094, "\u0120534": 40730, "\u0120scout": 42513, "ploid": 37461, "\u00e3\u0123\u0137\u00e3\u0124\u012e\u00e3\u0123\u0141": 48939, "\u0120liv": 14121, "EH": 46353, "\u0120private": 3055, "\u0120Conway": 47313, "babel": 46998, "\u0120album": 5400, "attributes": 26059, "greek": 8747, "receptor": 44501, "\u00d0\u00bd\u00d0\u00b8\u00d0\u00ba": 42720, "ounder": 10117, "ipple": 33687, "\u0120mathemat": 11076, "\u0120Mills": 28750, "\u0120endings": 47834, "move": 15106, "liver": 16735, "Constraint": 35118, "Government": 33832, "amond": 10525, "\u00e2\u012a\u0139\u00e2\u012a\u0139": 38443, "\u0120CONTR": 19061, "\u0120SB": 22051, "Split": 33720, "\u0120elective": 44529, "\u0120hemp": 45967, "\u0120publ": 2958, "599": 46407, "cion": 48966, "viol": 23283, "Struct": 21772, "\u0120choked": 48722, "\u0120dispatched": 39752, "\u0120${{\\": 7201, "\u0120MMP": 22646, "odenal": 50054, "Clip": 46300, "ESE": 37453, "\u0120\\!": 21846, "guy": 26619, "\u00c3\u0143an": 24501, "chi": 4635, "\u0120ashamed": 29170, "\u0120counterclaim": 48066, "\u0120fish": 6773, "\u0120grad": 3805, "\u0120gathered": 13037, "\u0120nurt": 33242, "\u0120relativ": 44544, "\u0120\u00d8\u00a3": 23207, "\u0120',": 26848, "\u0120attraction": 21779, "izophren": 20224, "\u0120Organization": 17273, "\u0120York": 2816, "\u0120dismissal": 16852, "\u0120stress": 4073, "\u0120Berger": 43602, "ARC": 28077, "leman": 39772, "\u00d1\u0122": 1697, "\u0120share": 3894, "\u0120loops": 17417, "reduce": 35878, "\u0120Nine": 26789, "X": 57, "\u0120cancellation": 26667, "adoop": 36700, "\u0120Farmers": 43614, "at\u00c4\u0125": 44106, "chan": 2291, "\u0120colors": 9830, "\u00e5\u012b": 16805, "\u0120nodded": 11522, "\u0120Priest": 41701, "}}}}$": 35937, "\u0120heirs": 46834, "DNA": 8354, "Bio": 23270, "\u0120()]{}": 43134, "\u0120Treat": 21560, "\u0120attenu": 20943, "Jordan": 44100, "amen": 18986, "\u0120OW": 46192, "\u0120joined": 7416, "\u0120gag": 46579, "\u0120ammunition": 28630, "\u0120poorest": 47354, "tern": 931, "\u0120spiral": 22377, "\u0120thats": 28763, "\u0120coupling": 8789, "\u0120Adapt": 47002, "esteem": 40597, "\u0120absolute": 7880, "\u0120dull": 22544, "SRC": 31694, "rehens": 8391, "\u0120acquisition": 11931, "\u0120couple": 4564, "\u0120UFC": 31057, "\u0120eine": 15827, "\u0120expression": 2048, "\u0120gauge": 11206, "\u0120mother": 3101, "\u0120obstruction": 22080, "\u0120averaged": 17522, "\u0120seven": 5093, "\u0120xcex": 34833, "\u0120prophets": 45888, "\u0120ambiguity": 28931, "\u0120loot": 41045, "\u0120Preparation": 45221, "insky": 26495, "\u0120///": 6141, "\u0120SAP": 34520, "\u0120Monsieur": 38321, "\u0120moot": 31866, "utations": 35294, "\u0120authenticity": 40318, "\u0120dit": 16465, "events": 20969, "\u0120boss": 12145, "\u0120catast": 22476, "\u0120Mueller": 26596, "\u0120Kell": 43892, "\u0120Kir": 20799, "Similar": 33397, "\u0120envelop": 29275, "\u0120ventricle": 36848, "252": 20438, "\u0120mort": 4920, "173": 21151, "apers": 6143, "response": 10927, "\u0120locking": 22081, "dered": 3466, "\u0120formulated": 26115, "haven": 47031, "\u0120fulfillment": 43568, "001": 2874, "facts": 33799, "\u0120Hoffman": 39602, "\u0120patrons": 38412, "\u0120butcher": 45975, "\u0120textbooks": 45789, "\u0120printers": 38121, "\u0120Scale": 14446, "43": 3079, "\u0120alignments": 43097, "261": 26560, "\u00d0\u00b5\u00d0\u00ba\u00d1\u0124": 39286, "\u0120Dixon": 39736, "\u0120Boeh": 50061, "\u0120McL": 29243, "umbai": 29819, "\u0120PCB": 43463, "\u0120injury": 4975, "\u0120nad": 33078, "\u0120eternity": 40432, "ING": 2637, "\u0120cav": 9605, "\u0120defenses": 25774, "\u0120interventions": 12214, "\u0120lug": 26285, "cht": 12914, "ithe": 37018, "\u0120adapt": 5223, "\u0120probative": 42192, "\u0120trump": 29154, "Ay": 42829, "ENV": 33735, "\u0120Petitioners": 49597, "\u0120CNS": 27102, "\u0120Va": 21894, "\u0120automated": 16644, "\u0120Sund": 28767, "Sc": 4316, "\u00ce\u00af\u00ce\u00bd": 26097, "\u0120spp": 26105, "\u0120signaled": 49908, "\u0120compliant": 38147, "\u00d0\u00b8\u00d1\u0124\u00d0\u00b5": 21387, "\u0120Crist": 31603, "\u00c3\u00a7o": 31277, "lav": 19306, "olysis": 23575, "\u0120Over": 6061, "urance": 4628, "pection": 13886, "\u0120awe": 34369, "\u0120circulating": 19682, "mt": 6917, "\u0120comprom": 10953, "\u0120vascular": 11172, "\u0120197": 25336, "\u0120Serum": 30028, "400": 8320, "\u00d0\u0141": 21715, "\u0120reflecting": 18964, "Americ": 6496, "FUNCTION": 30306, "icon": 3557, "\u0120Egg": 30112, "\u0120consent": 7578, "\u0120Julius": 44402, "Ring": 45606, "ischen": 16050, "zes": 13505, "mbox": 6190, "\u0120explicit": 6843, "\u0120plate": 5340, "\u0120Sensitivity": 50132, "\u0120Schul": 42492, "boro": 32485, "owl": 29973, "tree": 12588, "ands": 2287, "youtube": 24583, "roads": 29488, "\u0120Morgan": 16286, "\u0120Todd": 24010, "\u0120embryo": 26223, "\u00e7\u00a2": 46180, "\u0120superintendent": 45480, "Bell": 36705, "CBS": 42866, "\u0120remorse": 47753, "\u0120sidebar": 46078, "\u0120\u00d0\u00bc\u00d0\u00be\u00d0\u00b6": 30954, "\u0120addressed": 9713, "\u0120mong": 49535, "\u0120delegates": 30679, "itives": 23223, "Anyone": 31568, "ITEM": 45129, "Molecular": 43687, "\u0120IRC": 48674, "\u0120altern": 3960, "\u0120councill": 46395, "\u0120serial": 10382, ".\"\"": 15653, "Er": 21419, "Anthony": 50047, "ald": 8950, "\u00e7\u0131\u00be": 41492, "\u0120January": 4247, "\u0120corneal": 33477, "\u0120count": 1385, "\u0120color": 3295, "\u0120Mechanical": 46523, "blogspot": 32586, "\u0120debtors": 44226, "\u0120marching": 37655, "reaction": 48235, "\u0120exhibit": 10738, "\u0120positively": 14962, "Easy": 36342, "joint": 16662, "\u0120-->": 6781, "Db": 23213, "100000": 42856, "\u0120biomarkers": 20896, "\u0120video": 3492, "Brazil": 41946, "mitter": 34242, "most": 2252, "recent": 45019, "\u00c2\u00b2": 15818, "Simple": 21595, "\u00ec": 168, "vg": 46594, "erna": 34685, "\u0120Clinton": 9662, "\u0120Grove": 32431, "\u0120contrasting": 42455, "\u0120exch": 16021, "\u0120foreach": 21495, "\u0120invol": 1901, "Depth": 34733, "\u0120multiplying": 39763, "\u0120packed": 14998, "\u0120grief": 20993, "\u0120wrote": 4159, "\u0120\u00e0\u00a6": 23969, "atform": 4012, "extern": 19560, "\u0120Singh": 21193, "\u0120returns": 6548, "\u0120awa": 33326, "\u0120Human": 8801, "\u0120initially": 8523, "ice": 547, "\u0120stre": 6126, "\u00cf\u0127": 5117, "\u0120Cox": 19043, "\u0120Laws": 28856, "\u0120civil": 5079, "\u0120impos": 4617, "GNU": 47509, "2003": 9755, "\u0120Problem": 24016, "\u0120Comisi\u00c3\u00b3n": 46187, "\u0120Students": 21696, "\u0120collaborative": 27549, "\u0120educ": 3336, "scrib": 8425, "\u0120wildly": 32251, "\u0120scorn": 48260, "AMP": 12437, "\u0120electro": 4640, "Universal": 49194, "imore": 17286, "\u0120overr": 17797, "\u0120closely": 8244, "\u0120mortg": 37832, "\u0120shack": 44213, "\u0120yielding": 27012, "\u0120it": 352, "\u0120Danny": 20882, "\u0120charming": 25507, "orted": 7551, "\u0120surprisingly": 19143, "\u0120Ott": 26118, "riors": 19426, "\u012025": 2030, "\u0120interpre": 18396, "\u0120Gard": 17064, "\u0120murder": 7701, "\u0120specialization": 48544, "\u0120densities": 16689, "LO": 8372, "FULL": 47825, "friendly": 19771, "development": 27055, "eV": 31027, "\u0120Greece": 17785, "\u0120Windows": 7464, "\u0120Palestine": 29313, "\u0120beverage": 32715, "\u0120post": 1501, "\u0120scientifically": 50164, "\u0120structures": 5289, "\u0120tack": 11463, "\u0120vi": 2177, "\u0120Ug": 29636, "uv": 8962, "\u00d7\u00a1": 49657, "\u0120poor": 4105, "\u0120BG": 40126, "\u0120labelling": 46684, "letters": 29076, "\u0120Ch": 775, "\u0120helpless": 26952, "later": 31312, "\u0120regulator": 19768, "\u0120publish": 15452, "aping": 15609, ".\").": 32755, "\u012036": 5540, "\u0120VIII": 29136, "\u010a\u0120\u0120\u0120\u0120\u0120\u0120\u0120\u0120\u0120\u0120\u0120": 935, "\u0120Translation": 44546, "labeled": 22027, "\u0120$^{": 19219, "snap": 38705, "\u0120Rig": 34382, "\u0120chance": 4839, "\u0120rinsed": 41502, "\u0120successive": 20946, "\u0120identically": 45963, "\u0120trad": 2901, "\u0120really": 1663, "find": 8606, "\u0120recruitment": 16510, "\u0120\u00e2\u0122\u012d": 41301, "\u0120Compar": 21594, "Memory": 21911, "PRES": 42706, "\u0120negligent": 27841, "\u0120Female": 26993, "\u0120chemok": 32038, "\u0120Safe": 28481, "533": 45153, "\u0120po": 2963, "\u0120powers": 9136, "\u0120silly": 19456, "\u0120terminal": 8351, "\u0120wasn": 3589, "\u0120furnace": 33926, "xit": 19706, "\u0120Maxim": 47635, "\u0120peg": 47997, "intf": 44313, "\u0120gli": 16439, "\u0120sacks": 44992, "Zhang": 36378, "\u0120grace": 14426, "\u0120desirable": 11408, "\u00e2\u0122\u013e": 1628, "\u0120Fun": 15955, "\u0120operate": 10196, "\u0120secured": 14049, "GR": 6217, "autions": 36336, "\u0120factors": 2616, "\u00c3\u00bct": 43715, "\u00e6\u013b": 37895, "\u0120compensated": 31745, "\u0120minister": 9843, "\u0120barriers": 15938, "\u0120CASE": 44714, "inberg": 37722, "\u0120soldier": 15796, "\u0120KEY": 25111, "{$": 16661, "\u0120\u0120\u010a\u0120": 32776, "ankton": 41484, "ames": 1443, "anche": 10024, "\\]]{}": 29013, "185": 17786, "294": 22858, "Cur": 18191, "467": 44598, "proxy": 26520, "\u00c4\u0129": 9948, "Twitter": 31068, "\u0120LOVE": 36996, "aments": 19491, "\u0120Gem": 28540, "MIT": 38860, "\u0120instinct": 18110, "\u0120underwater": 35355, "\u0120vm": 31940, "\u0120ascribed": 45800, "\u0120kv": 44739, "\u00ec\u013c": 27997, "ident": 888, "\u012074": 10677, "\u0120Nu": 24903, "\u0120viruses": 14781, "\u0120\u0120\u0120\u0120\u0120\u0120\u0120\u0120\u0120\u0120\u0120\u0120\u0120\u0120\u0120\u0120\u0120\u0120\u0120\u0120\u0120\u0120\u0120\u0120": 1636, "ediatric": 41816, "onson": 43893, "yml": 46415, "February": 24099, "\u0120biomark": 15236, "\u0120connected": 4802, "\u0120defence": 17147, "\u0120design": 2216, "\u0120slack": 37358, "\u0120sovereign": 16629, "mmc": 45549, "KES": 46009, "close": 10483, "dar": 27083, "\u00c8": 132, "\u00d9\u0123": 11912, "Bot": 33355, "rou": 30898, "\u0120Europa": 19930, "\u0120centr": 26297, "\u0120ella": 43746, "\u0120json": 14113, "\u0120Cyt": 28995, "\u0120pictured": 35957, "odel": 49797, "\u0120tbl": 47838, "\u0120clearance": 17998, "\u0120django": 41747, "\u0120\"'": 17169, "54": 3439, "\u0120morphine": 37464, "\u0120McCarthy": 32101, "\u0120recognizing": 26182, "\u0120vaguely": 39559, "\u0120shook": 11898, "\u0120nontrivial": 37825, "central": 25765, "\u0120spilled": 42893, "imi": 23611, "bage": 16229, "\u00c2\u0137": 17237, "\u0120MPI": 45063, "\u0120covering": 10985, "\u0120\u0120\u0120\u0120\u0120\u0120\u0120\u0120\u0120\u0120\u0120\u0120\u0120\u0120\u0120\u0120\u0120\u0120\u0120\u0120\u0120\u0120\u0120\u0120\u0120\u0120\u0120\u0120\u0120\u0120\u0120\u0120\u0120\u0120\u0120\u0120\u0120\u0120\u0120\u0120\u0120\u0120\u0120\u0120\u0120\u0120\u0120\u0120\u0120\u0120\u0120\u0120\u0120\u0120\u0120\u0120\u0120\u0120\u0120\u0120\u0120\u0120\u0120\u0120\u0120\u0120\u0120\u0120\u0120\u0120\u0120\u0120": 37505, "\u0120anonym": 26314, "\u0120Fort": 10188, "\u00e3\u0125\u0141": 47054, "\u0120air": 2329, "\u00f1": 173, "\u0120Koch": 33135, "Recogn": 44349, "\u0120occult": 42003, "\u0120histogram": 33105, "\u0120burned": 15676, "Tags": 31095, "vir": 12855, "\u0120Leadership": 37817, "\u0120Spread": 43611, "\u0120poems": 25443, "\u0120trem": 11820, "FAIL": 27002, "\u0120487": 41949, "grown": 30144, "otoxicity": 35767, "\u0120colony": 17562, "\u0120controlling": 10938, "\u0120l\u00c3\u0143": 43882, "\u0120wer": 16640, "\u0120227": 26472, "\u0120aument": 46850, "\u0120hem": 7492, "\u0120376": 38516, "-------------------------------------------": 39485, "\u0120Hmm": 49577, "\u0120atop": 31831, "\u0120geometry": 12087, "\u0120Creek": 16611, "\u0120tren": 11621, "\u0120Patrick": 15435, "\u0120incompetent": 43650, "\u0120Threat": 46371, "\u0120resident": 14544, "\u0120stepping": 24655, "ahead": 42338, "mostly": 39025, "\u0120\u00e0\u00a4\u00b8": 33465, "event": 8045, "iforn": 4599, "\u0120Met": 6365, "arly": 1285, "\u0120Few": 29578, "\u0120bizarre": 27541, "\u0120concentration": 4719, "Rob": 17895, "\u0120China": 4135, "birds": 40382, "\u0120CT": 7403, "\u0120pipeline": 15722, "\u0120syll": 29977, "\u0120Protein": 20112, "\u0120Murder": 46681, "\u0120elite": 17832, "',\\": 37652, "\u0120wur": 31546, "PLA": 41104, "easy": 36423, "\u0120Hampshire": 24129, "\u0120hosp": 45304, "\u0120sensation": 22135, "meet": 49422, "\u0120vide": 8851, "mology": 44548, "\u0120shipment": 38388, "NP": 11236, "doms": 41635, "\u0120345": 32670, "\u0120Earth": 7565, "\u0120aspirin": 39764, "\u0120comb": 2049, "0027": 37812, "oshi": 25453, "\u0120Chapman": 37108, "\u0120Gig": 44998, "\u0120floors": 23467, "Te": 7573, "daugh": 30776, "otten": 7382, "\u0120Fruit": 43974, "olds": 3502, "\u0120circumferential": 50145, "Leg": 18596, "\u0120cross": 2831, "\u0120giving": 4933, "a\u00c3\u00a7\u00c3\u00a3o": 14291, "substr": 39765, "\u0120Dance": 30866, "\u0120occupancy": 35190, "mist": 33542, "\u0120tracts": 40784, "\u0120favoring": 48065, "\u0120upset": 14004, "isites": 47091, "oti": 49259, "\u00ce\u00bb\u00ce\u00b7": 38929, "\u0120capric": 43636, "\u0120calc": 9039, "\u0120quantified": 18755, "######": 5146, "arcin": 20153, "\u0120Guard": 12174, "Array": 6542, "rendum": 24972, "\u0120recapt": 48928, "miR": 22221, "677": 30311, "\u0120sellers": 34864, "2018": 7798, "ylvan": 10645, "\u0120national": 3872, "\u00e0\u00b2": 14489, "Arm": 22552, "\u0120Ave": 18953, "Resolver": 35964, "\u0120smells": 34247, ";{\\": 43657, "\u0120Asc": 33420, "\u0120cats": 16581, "\u0120strict": 7654, "\u0120hereto": 36291, "\u0120reactors": 44262, "IBUT": 30639, "TEST": 14524, "ietz": 33879, "Ol": 33319, "\u0120personnel": 11570, "muc": 49551, "\u0120technicians": 40560, "illery": 21347, "renthood": 42395, "nes": 5210, "\u0120Oval": 48954, "\u0120Jury": 41670, "NUM": 20872, "\u0120Denis": 48125, "\u0120atherosclerosis": 32317, "\u0120Strategy": 32988, "\u0120reson": 8146, "prises": 21264, "\u0120Karen": 25062, "utor": 6854, "\u0120Wife": 40223, "\u0120agent": 5570, "\u0120Warsaw": 40431, "\u0120authoritarian": 43902, "rift": 35885, "\u0120bitterness": 44875, "\u0120maxima": 49313, "cf": 7836, "olymers": 47748, "\u0120skillet": 37548, "\u0120Oslo": 43516, "\u0120skills": 6936, "\u0120forces": 5621, "\u0120damping": 31731, "\u0120kat": 45470, "\u0120greatness": 43703, "\u0120Miami": 16146, "\u0120invoke": 22073, "\u0120Education": 10286, "\u0120stereotypes": 44720, "\u0120Fish": 23645, "/{": 32095, "\u0120trig": 5951, "\u0120\u00c3\u013b": 35017, "\u0120attaching": 36976, "group": 4399, "\u0120colspan": 41002, "\u0120economically": 29187, "\u0120relegated": 50217, "\u0120stages": 8661, "lement": 1338, "hope": 36865, "phony": 39901, "oths": 21992, "\u0120caut": 21086, "\u00d8\u00a7\u00d9\u0128": 18906, "\u0120ubiquit": 18523, "\u0120overwhelming": 16400, "\u0120Missing": 42234, "\u0120Cord": 31726, "active": 4507, "areness": 10640, "ikan": 38522, "Men": 18812, "eon": 33453, "\u0120Evidence": 19594, "\u0120await": 14303, "EXT": 9465, "\u0120descriptions": 20121, "\u0120transplantation": 18061, "Hist": 32736, "\u0120seizures": 26347, "\u0120vacated": 35617, "ible": 917, "\u0120expressing": 13002, ").": 481, "ost": 493, "geq": 5090, "\u00e5\u012f\u0123": 37657, "\u0120sliding": 20661, "Prefab": 43472, "\u0120aim": 4388, "\u0120hugely": 40704, "UTERS": 48181, "\u0120insist": 23103, "\u0120Else": 32867, "kil": 40408, "\u0120capital": 5347, "485": 34906, "shots": 28853, "\u0120Bryan": 30397, "\u0120goal": 4736, "\u00e2\u0122\u0125": 3930, "\u0120Noah": 32794, "\u00e9\u00a6": 40843, "\u0120arches": 50042, "\u0120gaug": 39417, "\u0120newcom": 38782, "\u0120swarm": 47025, "BR": 7941, "\u0120tibial": 45777, "\u0120pile": 19176, "Big": 5178, "\u0120Baghdad": 39759, "fall": 12615, "\u0120Damascus": 47419, "\u0120Par": 2956, "\u00e5\u012a": 6765, "\u01202004": 6157, "\u0120Entity": 33162, "\u0120Resolution": 36347, "\u0120ideological": 31002, "\u0120Wik": 45155, "0012": 26313, "\u0120repeat": 10280, "user": 4537, "relim": 26827, "\u0120Subject": 20772, "\u0120Working": 21919, "aning": 18197, "ashed": 6948, "\u0120auto": 6753, "\u0120pup": 16597, "resource": 15024, "\u0120novo": 17590, "________________________________": 16881, "Mont": 28211, "011": 13925, "\u0120Computer": 19179, "\u0120manager": 7205, "\u0120AMERICA": 46063, "\u0120assayed": 38284, "informed": 38967, "\u0120Wiki": 37059, "\u0120ethnicity": 31908, "PSC": 37612, "\u0120clinical": 3382, "\u0120conduct": 2589, "\u0120agitation": 39786, "\u00e8\u00a1\u012e": 16677, "\u0120TP": 26029, "IGHT": 9981, "\u0120rewarded": 33302, "\u0120sustainable": 18380, "Bon": 27157, "\u0120Nom": 37947, "\u0120establ": 2528, "\u0120updates": 11269, "\u0120explanatory": 41355, "\u0120lys": 13042, "38": 1839, "\u0120Feng": 49544, "\u0120Garcia": 26424, "\u0120567": 49609, "\u0120Loop": 32057, "\u0120Monica": 34781, "\u0120Griff": 19342, "bones": 47473, "sn": 11489, "\u0120jog": 32412, "\u0120ON": 8160, "filter": 10978, "yan": 8202, "\u0120Sah": 32706, "deg": 16887, "\u0120With": 2726, "\u0120Design": 11405, "ogi": 48000, "\u00d0\u00bd": 1640, "\u0120affirmative": 25712, "\u0120pr\u00c3\u00a9": 19856, "47": 2504, ":\"){": 18031, "lessly": 13102, "producing": 28916, "602": 31459, "\u0120estimating": 26230, "\u0120Scholars": 37047, "\u0120since": 1580, "\u0120honor": 10390, "\u0120nickel": 30237, "ermal": 19278, "\u0120recru": 11663, "\u0120Catholics": 33097, "\u0120hype": 31012, "\u0120hydrocarbon": 34736, "\u0120spaces": 8470, "infer": 47586, "\u0120risen": 28987, "\u0120unden": 43296, "fiction": 33223, "yr": 6147, "\u0120hurry": 24284, "\u0120emissions": 14839, "\u0120wrongly": 47723, "ketch": 48411, "\u0120selecting": 17221, "\u0120collaborate": 42124, "\u0120Stan": 10908, "\u0120recurring": 36108, "\u0120Controls": 47393, "\u0120kings": 25346, "\u00e7\u0132": 21422, "\u0120better": 1805, "\u0120spine": 17201, "\u0120latency": 22667, ".),": 11507, "\u00d1\u013a": 47735, "isin": 29197, "Express": 16591, "github": 7280, "\u0120zones": 18192, "findViewById": 44688, "\u0120Briefly": 25487, "\u0120year": 807, "cers": 8964, "ulsion": 15305, "\u0120moi": 24346, "grily": 44634, "formatter": 47460, "mog": 44519, "\u0120Normally": 40474, "entry": 8873, "\u0120Cer": 28608, "\u01201895": 42549, "\u0120meer": 42964, "\u0120strong": 2266, "2020": 14952, "Settings": 16704, "=-": 11468, "ens": 561, "\u0120Moscow": 16496, "ENTS": 24937, "\u0120pretreatment": 33555, "\u0120hyster": 32685, "bis": 24000, "\u0120hardest": 31056, "\u0120instructions": 7997, "ructions": 6477, "\u0120Parlament": 33867, "\u0120dissolve": 40709, "Equal": 12827, "\u0120Bud": 15731, "\u00e1\u0125": 7226, "\u0120ap": 1049, "\u0120aberrant": 39591, "anks": 3107, "\u0120Methodist": 43327, "\u0120solitary": 29437, "\u0120threats": 14207, "\u0120handed": 14048, "\u0120Procedure": 18809, "\u0120indis": 47531, "AUC": 42080, "\u0120GB": 20514, "\u0120$$\\": 1764, "\u0120Activ": 39750, "\u0120sandy": 41240, "\u0120homologous": 30742, "\u0120autopsy": 37563, "More": 7673, "\u0120\u00d1\u0127": 27968, "emph": 37236, "\u0120-----": 19312, "lotte": 20885, "\u0120Ide": 17315, "ynn": 38051, "\u0120Sem": 13740, "View": 3145, "\u0120African": 8118, "\u0120Opening": 44500, "\u0120Boot": 24146, "\u0120protection": 6055, "ittest": 44713, "umpy": 37028, "\u0120ultimate": 12553, "\u0120Writ": 16679, "stitution": 5379, "nar": 27380, "Config": 6155, "\u0120Ted": 17446, "\u0120ale": 21844, "\u0120instances": 10872, "\u0120parity": 25622, "\u0120aggregate": 19737, "153": 16271, "managed": 39196, "Sequence": 26102, "teenth": 16565, "\u0120Reply": 38984, "\u0120photograph": 10440, "\u0120Factors": 38182, "\u0120preponderance": 37158, "\u0120renders": 29512, "\u0120breakfast": 12561, "\u0120\u00d1\u0123\u00d0\u00b2": 28695, "cke": 33144, "ign": 525, "}}+": 26284, "\u0120parenting": 31104, "\u0120reliance": 22095, "\u0120fro": 8954, "\u0120Collect": 22729, "\u0120\\|\\": 33401, "Jew": 27341, "ontal": 8226, "Button": 8880, "},\\": 5548, "\u0120Mars": 13648, "\u0120biomed": 33379, "https": 3614, "\u0120brings": 10316, "Ag": 8903, "\u0120invade": 42879, "\u0120malignant": 17566, "\u0120treating": 12767, "\u0120Sources": 34734, "_);": 39133, "paired": 30125, "\u0120chef": 26540, "\u0120perturbative": 43939, "\u0120Duc": 29241, "\u0120positioned": 15471, "RN": 39290, "Comparison": 23648, "enses": 5060, "\u0120Dress": 49077, "\u0120Sett": 30827, "\u0120Struct": 26253, "\u0120\\{\\": 32080, "eah": 3983, "igan": 8541, "\u0120admittedly": 47421, "eb": 2275, "\u0120politic": 48217, "213": 21197, "\u00c2\u00bd": 8313, "906": 30920, "upper": 23725, "Civ": 23429, "\u00d1\u0124": 1367, "\u0120recombination": 22989, "\u0120runners": 30451, "toxins": 28838, "\u0120$.": 13355, "isdiction": 37420, "\u0120familiarity": 38550, "\u0120eigenvalues": 20223, "\u00d0\u00b8\u00d1\u0124\u00d0\u00b5\u00d0\u00bb": 49349, "swe": 46970, "\u0120corticosteroids": 49796, "\u0120inhabited": 41477, "\u0120customary": 35629, "\u0120rearrangement": 47410, "\u0120random": 3632, "]*": 23741, "individual": 27276, "Console": 35184, "\u0120Indeed": 8079, "\u0120engagement": 13226, "sized": 10306, "\u0120snar": 50082, "\u0120Fas": 38777, "DN": 29681, "Roger": 46961, "\u0120Atlantic": 14847, "\u0120barrier": 11394, "\u0120\u0120\u0120\u0120\u0120\u0120\u0120\u0120\u0120\u0120\u0120\u0120\u0120\u0120\u0120\u0120\u0120\u0120\u0120\u0120\u0120\u0120\u0120\u0120\u0120\u0120\u0120\u0120\u0120\u0120\u0120\u0120\u0120\u0120\u0120\u0120": 13095, "suits": 30293, "\u0120collabor": 8317, "\u00ce\u00b1\u00ce\u00b9": 10298, "\u0120famously": 39316, "\u0120dynamical": 18525, "\u0120jail": 12907, "[(": 15830, "\u0120lion": 27405, "\u0120Gir": 35480, "\u0120herbs": 27495, "\u0120password": 9868, "\u0120demonstrating": 17227, "MS": 3338, "?.": 29006, "665": 48204, "ude": 2496, "orest": 27764, "\u0120hematopoietic": 37537, "endas": 47184, "\u0120incapable": 31257, "jb": 27686, "iviral": 26818, "\u0120barrels": 33545, "\u0120skeptical": 33872, "Elizabeth": 45150, "indexOf": 33966, "\u0120being": 1146, "9999": 14432, "Buff": 40331, "\u0120Scient": 11615, "\u0120concord": 34860, "\u0120replies": 32114, "xffffffff": 46213, "\u0120chill": 27450, "\u0120though": 2167, "atch": 1506, "\u0120uniform": 6447, "\u0120recharge": 48625, "\u0120Guatem": 40346, "\u0120endorse": 18883, "classes": 19770, "\u0120SM": 9947, "eron": 16259, "productive": 16233, "Quest": 34686, "\u0120neurode": 32647, "wash": 43351, "\u0120someday": 36900, "\u0120Universal": 21312, "igs": 17638, "reading": 24042, "\u0120swamp": 44195, "]{}]{}": 9899, "\u0120Customers": 49627, "apes": 9652, "ructure": 7818, "lando": 23612, "\u0120\u00c3\u00a5": 13581, "\u0120dangerous": 8312, "\u0120malt": 33673, "\u0120Didn": 40713, "\u0120pills": 28123, "\u0120USSR": 48727, "WIND": 37058, "\u0120Holiday": 37768, "\u0120bij": 28045, "\u0120prospect": 11091, "\u0120recursion": 43489, "709": 26371, "curs": 16461, "\u0120wafer": 20832, "gor": 3892, "\u0120glitter": 37920, "aukee": 28855, "\u0120regulations": 10132, "\u0120Material": 17724, "uso": 39014, "\u0120595": 49675, "\u0120Count": 8240, "\u0120trim": 13970, "\u0120\u0120\u0120\u0120\u0120\u0120\u0120\u0120\u010a\u0120": 49176, "\u0120hippocampus": 26382, "\u0120phospholip": 31939, "\u0120Croatia": 42862, "umbent": 30791, "\u01202005": 5826, "makes": 46535, "\u0120Gar": 10867, "\u00e6\u013e\u0141": 34175, "\u0120surrounding": 8704, "\u0120urging": 30039, "beat": 19505, "\u0120surgeries": 37966, "\u0120Rout": 30852, "\u0120repetitions": 49495, "\u0120},": 3572, "\u0120departed": 29115, "ink": 750, "implementation": 39595, "hir": 49440, "registry": 31007, "ETH": 12775, "dou": 45922, "\u0120segmentation": 26405, "\u00e0\u00b9\u0122": 22311, "\u0120witnessing": 49379, "\u0120Reynolds": 27523, "\u0120empres": 37581, "onucle": 18135, "\u0120trend": 9058, "beyond": 42218, "dra": 12111, "\u0120humility": 48044, "+=": 34788, "\u0120depicted": 17253, "\u0120Dise": 15094, "\u00c2\u00b3": 19281, "deck": 43677, "\u0120Look": 9870, "\u0120Leo": 24944, "\u0120Fen": 36328, "hearted": 32928, "ocracy": 29149, "}}\\\\": 40437, "\u0120Ramirez": 48444, "\u0120blogging": 38525, "\u0120granting": 18028, "497": 30626, "\u0120^\\": 25492, "\u0120listed": 7117, "\u0120enlarge": 46112, "\u0120Rise": 39952, "\u0120Jeg": 42569, "\u0120unrestricted": 48566, "\u0120\\\"": 12114, "\u0120memories": 12959, "\u0120Mock": 33833, "\u0120Provincial": 49850, "\u0120jej": 44446, "\u0120dip": 12539, ")'": 18619, "determ": 18916, "digital": 35399, "uls": 7228, "\u0120emergency": 8945, "\u0120pand": 18060, "\u0120vag": 12531, "encing": 5537, "\u00d1\u0125\u00d0\u00b4": 23038, "\u0120rem": 867, "\u0120si": 4927, "\u0120Hom": 15388, "\u0120summoned": 34150, "\u00c3\u00a7a": 17434, "\u0120leukocyte": 42573, "50": 1235, "\u0120examiner": 37981, "\u0120throne": 23399, "\u00b4": 114, "microorganisms": 42831, "brahim": 44147, "endez": 46869, "\u0120peninsula": 42816, "entity": 21294, "\u010a\u0120\u0120\u0120\u0120\u0120\u0120\u0120\u0120\u0120\u0120\u0120\u0120\u0120\u0120\u0120\u0120\u0120\u0120\u0120\u0120\u0120\u0120\u0120\u0120\u0120\u0120\u0120\u0120\u0120\u0120\u0120\u0120\u0120\u0120\u0120\u0120\u0120\u0120\u0120\u0120\u0120\u0120\u0120\u0120\u0120\u0120\u0120\u0120\u0120\u0120\u0120": 36411, "\u0120225": 19956, "\u0120refusing": 21455, "yer": 7885, "\u01201956": 22716, "complet": 40450, "\u0120increasingly": 9592, "\u00d0\u00b9": 10411, "\u0120TRA": 28981, "aaaa": 23342, "\u0120uintptr": 10131, "\u0120adam": 38622, "\u0120conveniently": 34090, "\u0120obedience": 40138, "oca": 14799, "\u0120steady": 11792, "cents": 17742, "457": 28744, "isi\u00c3\u00b3n": 32320, "shock": 35492, "\u00ec\u0139\u0132": 27940, "size": 3281, "Flag": 22532, "\\**": 22635, "\u0120omissions": 49889, "\u0120refine": 39494, "Ds": 19277, "\u0120remem": 10409, "\u0120tobacco": 16045, "XS": 44199, "operatorname": 4820, "\u0120Introduction": 12276, "\u0120arrog": 29586, "mortem": 44307, "invasive": 26681, "yers": 13356, "\u0120Iranian": 20533, "sect": 7338, "Right": 8455, "\u0120existential": 41412, "\u0120Aff": 9767, "\u0120amplic": 48537, "\u0120capturing": 26475, "\u0120int": 540, "\u0120retire": 11585, "\u01201944": 21930, "\u0120Motion": 16066, "\u0120bul": 5152, "iol": 10966, "ulators": 28457, "\u0120----------------------------": 38759, "\u0120284": 31507, "\u0120dead": 3846, "\u0120quoted": 15212, "iversal": 28632, "\u0120libc": 33365, "\u0120today": 3063, "dominal": 43405, "AO": 48713, "\u0120husbands": 38639, "\u0120desde": 28947, "olia": 25119, "\u0120emerges": 32361, "\u00e3\u0125\u0138": 36924, "\u0120Warrior": 46191, "\u0120transcription": 9464, "Mexico": 48273, "\u0120LHC": 35864, "\u0120knelt": 47511, "GFR": 13826, "]'": 31258, "=": 30, "\u0120illeg": 20739, "\u0120Avengers": 48255, "Donald": 16008, "\u0120ensu": 34151, "\u00e9\u0123": 14378, "\u0120stringent": 32881, "\u0120thickening": 46994, "\u0120\u00cf\u0125\u00cf\u0127\u00ce\u00bd": 47909, "annah": 18477, "\u0120seismic": 44967, "riv": 1069, ".\")": 25107, "\u0120initi": 9347, "\u00c3\u00a3": 3312, "\u00e2": 158, "\u0120Biol": 38912, "\u0120Leicester": 42457, "Face": 31090, "\u0120translations": 29971, "\u0120fond": 14753, "nu": 3023, "\u0120aroma": 42100, "iser": 9141, "\u0120architect": 6805, "galact": 42957, "\u0120directing": 25091, "\u0120md": 31934, "\u0120follicular": 48107, "\u00d7\u0135": 35790, "adays": 23448, "wi": 22084, "\u00e3\u0123\u00ab\u00e3\u0124\u012a": 39593, "collapse": 33683, "\u0120sprinkle": 47865, "\u0120alumin": 14992, "\u0120Atl": 8628, "\u0120investments": 18900, "Justice": 43743, "\u0120tent": 12556, "\u0120hyperplasia": 42127, "\u0120moet": 42397, "\u0120Savage": 38942, "\u00c3\u00ban": 19664, "\u0120immuno": 37013, "\u0120dwell": 23031, "\u0120pellets": 38326, "\u0120chem": 3554, "\u0120ns": 19769, "\u00cf\u0127\u00cf\u0126": 30935, "\u0120cros": 23987, "Gu": 8469, "ului": 27472, "\u0120motifs": 25907, "container": 13299, "outside": 40939, "hu": 11917, "suit": 46522, "ysym": 8627, "\u0120Mick": 42735, "Don": 5498, "ainers": 39982, "day": 1201, "xff": 21671, "\u0120Tensor": 41529, "\u0120combo": 35141, "\u0120pr\u00c3\u00b3": 34117, "\u0120glory": 18735, "\u0120simply": 3365, "\u00c3\u00a1z": 36526, "sl": 3433, "\u0120modeled": 23115, "greg": 6130, "ob": 706, "yx": 28264, "\u0120XY": 45920, "\u0120hearsay": 35513, "\u0120388": 37112, "cedure": 14843, "acle": 6929, "+,": 24728, "\u0120Cash": 27020, "\u0120rank": 5958, "\u0120aesthetic": 24624, "\u0120deliberately": 21547, "shell": 17901, "\u0120fermion": 35530, "cerpt": 26009, "\u0120deletions": 38995, "\u0120Elliot": 49867, "\u0120expon": 13287, "\u0120lady": 10692, "\u0120Magic": 21577, "\u0120rocky": 33848, "\u0120ell": 11591, "rod": 16104, "stalk": 43222, "arshal": 19032, "ating": 839, "still": 23350, ">\";": 27988, "\u0120Rivers": 28160, "\u0120during": 1309, "\u0120figuring": 36182, "\u0120archives": 31523, "\u0120donkey": 49695, "\u0120net": 2036, "\u0120noticeable": 28629, "dup": 34856, "amon": 19451, "heast": 12283, "\\}}": 34846, "\u0120shaft": 13755, "\u0120shy": 23478, "\u0120truth": 5083, "\u0120vibration": 22634, "rox": 41636, "\u0120company": 2567, "\u0120Chat": 24180, "\u0120Yoga": 44052, "root": 9723, "\u0120selectively": 21656, "\u0120format": 5981, "\u0120AV": 14148, "\u0120Things": 19348, "\u0120\u00d0\u00a1": 22310, "\u0120summer": 5768, "\u0120advancing": 26441, "arguments": 31126, "\u0120assessments": 20215, "LIB": 18169, "\u0120broch": 48762, "\u0120roast": 37092, "\u0120joint": 6036, "\u0120calor": 46636, "asek": 47104, "levard": 33446, "Buck": 32475, "\u0120'\"": 32589, "\u0120uptake": 13797, "\u0120epoxy": 42018, "\u0120Plugin": 49366, "98": 4185, "align": 8623, "\u0120entities": 14429, "rive": 6606, "\u0120pave": 29238, "etin": 36995, "ilar": 1858, "\u0120exception": 6517, "schem": 20645, "loop": 14075, "\u0120fortunate": 27949, "\u0120manifolds": 28236, "ically": 1037, "as": 284, "ellant": 4167, "oupe": 37841, "\u0120machining": 48330, "\u0120series": 2962, "mium": 45779, "\u0120forehead": 22977, "\u0120Double": 18603, "\u0120stones": 17380, "create": 6953, "\u0120Vermont": 27751, "\u0120citiz": 6211, "\u0120official": 3565, "\u0120bastard": 32199, "\u0120Wii": 41884, "\u0120scars": 38763, "ouncing": 28590, "vn": 26697, "===========": 15765, "upal": 33020, "\u0120sens": 2288, "\u00db": 151, "\u0120popped": 32773, "applied": 46188, "\u0120Dash": 37521, "layout": 7916, "iya": 44631, "\u0120papill": 46074, "420": 25569, "LOG": 21273, "Rh": 27837, "free": 4924, "nem": 25476, "ria": 5182, "\u0120Ford": 12673, "\u0120excell": 6552, "\u0120incidental": 40514, "\u0120noble": 17874, "\u0120supre": 24140, "\u0120fascinating": 20996, "\\_[": 13380, "\u0120sway": 26740, "\u0120Foreign": 15839, "\u0120invert": 30332, "\u0120pride": 15555, "\u0120suggestive": 32717, "\u0120tightly": 18996, "\u0120went": 2427, "\u0120Fla": 28675, "046": 26857, "\u0120Tools": 29806, "ixon": 17707, "\u0120defe": 7965, "\u0120Reed": 24518, "\u0120417": 38362, "\u0120Med": 3050, "\u0120Dub": 20065, "clerosis": 18320, "\u0120airplane": 33667, "param": 3575, "\u0120602": 46968, "\u0120\u00d1\u0125": 11770, "12345": 42594, "\u0120assassination": 34024, "\u0120github": 40477, "knock": 48459, "\u0120\u00cf\u0126\u00ce\u00b1": 36796, "\u0120Dodgers": 47506, "\u0120throat": 13386, "Simplify": 7657, "\u0120M\u00c3\u00a9": 36912, "ullen": 26584, "USB": 26346, "\u0120Curt": 24126, "\u0120crushed": 24983, "\u0120aster": 23317, "Shop": 48698, "xx": 5260, "\u0120gross": 13711, "\u0120limit": 2701, "Measure": 30563, "\u0120pa\u00c3\u0143ses": 38196, "Lex": 38406, "NN": 8504, "istory": 5934, "police": 50141, "\u0120propensity": 33882, "774": 30715, "\u0120115": 11343, "server": 9438, "\u0120soy": 19175, "\u0120terrified": 32052, "Strategy": 35548, "previous": 35065, "\u0120AE": 29946, "\u0120turmoil": 44073, "\u0120although": 3738, "\u0120acclaimed": 42445, "\u0120segregation": 29604, "JB": 35941, "**,**": 44862, "\u0120marsh": 32341, "team": 22035, "romagnetic": 13957, "\u0120attendance": 21250, "\u0120sounded": 17132, "\u0120youtube": 49683, "wt": 17118, "\u0120actionable": 49353, "estern": 4094, "\u0120Miguel": 36400, "\u0120albumin": 24641, "\u0120precaution": 47644, "\u0120\u00c3\u00a9t\u00c3\u00a9": 23162, "\u0120forensic": 35073, "early": 18579, "idic": 44521, "bolds": 5655, "Screen": 22249, "\u0120ASS": 21893, "\u0120simpl": 8077, "\u0120ser\u00c3\u00a1": 46240, "\u0120trailer": 19150, "\u0120serious": 4092, "\u0120perspectives": 24302, "\u0120pa": 1349, "\u0120condem": 14502, "\u0120elapsed": 38667, "\u00c3\u00bch": 26288, "\u0120orbits": 24679, "\u0120albums": 16258, "\u0120pen": 4331, "\u0120ports": 17596, "\u0120sand": 7537, "doi": 14369, "isks": 38235, "amba": 31834, "\u0120gate": 7394, "net": 3024, "Clinical": 30466, "lined": 12490, "\u0120Alexa": 31717, "\u0120perturbed": 44711, "\u00c3\u00bcller": 35603, "\u0120PN": 35709, "----------": 9962, "\u0120mayor": 14967, "\u0120stressful": 33674, "\u0120cares": 24505, "\u0120afore": 17804, "Im": 3351, "Players": 49649, "mj": 43330, "usterity": 48033, "\u010a\u010a\u010a\u0120\u0120\u0120\u0120\u0120\u0120\u0120": 47147, "\u0120Record": 18700, "\u0120stalled": 48283, "^{+": 13566, "\u0120econ": 40389, "\u00e5\u00a4": 7249, "\u00f4": 176, "ATT": 20905, "\u0120guys": 6068, "ismo": 15119, "\u0120behaves": 37824, "arin": 19881, "iah": 13560, "\u0120inversion": 27697, "\u0120therap": 12489, "Eric": 37376, "\u010a\u0120": 586, "\u0120Ajax": 47867, "\u0120ye": 9094, "\u0120constructive": 25799, "thon": 6033, "rail": 38017, "ont": 834, "\u0120Hein": 36029, "\u0120inexpensive": 27296, "clin": 47217, "\u0120PubMed": 48508, "\u0120mindfulness": 49922, "mod": 2307, "\").": 6788, "HG": 28658, "LS": 7858, "Dom": 17004, "\u00e5\u00a4\u013c": 24899, "meric": 1446, "\u0120frustration": 22014, "ritz": 32071, "\u0120integer": 7007, "\u0120sky": 8467, "\u0120\u00d0\u00b7\u00d0\u00b0": 19113, "314": 18486, "\u0120221": 27587, "\u0120scree": 48675, "\u0120And": 1244, "\u0120Festival": 14964, "keit": 30893, "\u0120Peters": 15370, "\u0120accuse": 45577, "\u0120immediate": 8993, "CU": 18094, "\u0120tiempo": 36333, "mkdir": 50202, "\u0120northern": 11186, "adic": 18535, "\u0120depending": 7293, "\u0120TV": 5579, "underline": 11666, "\u0120admirable": 50063, "\u0120hear": 4089, "month": 7791, "\u0120Fernando": 39795, "\u0120Fuk": 34990, "\u0120Glasgow": 31127, "\u0120Meh": 48005, "\u0120900": 22908, "\u0120aph": 38779, "\u0120mant": 18006, "\u0120];": 25896, "Each": 11837, "\u00e7\u013d\u00ae": 28154, "1997": 12430, "Redirect": 50053, "\u0120MIL": 44903, "\u0120commits": 34588, "\u0120genre": 19098, "\u0120reaches": 14190, "\u0120Catholic": 10503, "Marshal": 39444, "\u0120rings": 14445, "toxic": 39826, "\u0120durations": 47668, "\u0120convergence": 14940, "nav": 8002, "\u0120commemor": 42628, "\u0120setup": 9978, "\u0120waiter": 46216, "\u0120scoring": 14755, "\u0120Afghan": 13376, "\u0120womb": 49009, "\u0120blessing": 26569, "\u0120Augustine": 47974, "examples": 32045, "\u0120Bridge": 15454, "695": 26541, "auss": 10064, "ophil": 15019, "\u0120TiO": 38867, "\u0120dz": 33425, "\u00d0\u00be\u00d1\u0122\u00d0\u00bc": 38660, "\u0120influence": 4833, "\u0120234": 27812, "Transition": 39512, "\u0120Shim": 41675, "\u0120cowork": 38800, "\u0120ultra": 17452, "[]{": 16943, "\u00c3\u00a4sident": 49560, "\u0120prohib": 9419, "\u00e2\u0122\u012e": 49003, "\u00e3\u0123\u00a8\u00e3\u0123\u0139\u00e3\u0123\u00a6": 44517, "Args": 16523, "ancing": 6816, "\u0120batches": 39657, "\u0120microm": 25390, "\u0120Vietnamese": 30907, "\u0120lords": 49117, "\u0120spoken": 13452, "\u0120\u00d1\u0131": 22744, "cad": 21192, "\u0120Ion": 40733, "\u0120ACTION": 37457, "\u0120intoxication": 43717, "\u0120platelet": 21039, "\u0120interplay": 36039, "\u0120stock": 5739, "\u00d8\u00b0": 31602, "available": 15735, "\u0120CAS": 34710, "\u010d\u010a": 2379, "\u0120installing": 20864, "\u0120toler": 8150, "\u0120broth": 26425, "\u0125\u00bd": 15911, "\u0120emitted": 23128, "\u0120reluctant": 27821, "\u0120mes": 6191, "charged": 31094, "\u0120ov": 14246, "\u0120Bert": 21804, "Chris": 27503, "\u0120Lit": 26775, "\u0120sting": 38278, "215": 21351, "\u00e3\u0123\u0134": 48756, "\u0120Wool": 32632, "idency": 20927, "\u0120thoughts": 7906, "urnal": 35486, "first": 7053, "zero": 10528, "orean": 37173, "=\"$(": 43306, "\u0120135": 13620, "\u0120BT": 23755, "\u0120Huff": 35318, "OST": 13792, "\u0120burdens": 32274, "\u0120explosives": 42403, "\u0120HeLa": 33795, "\u0120mang": 19695, "segment": 29429, "\u0120defense": 5684, "\u0120Order": 9700, "\u0120trusts": 45219, "\u0120Ald": 19811, "\u0120previously": 3786, "\u0120veto": 35204, "ri": 363, "\u0120histopathological": 46346, "Visible": 26998, "criptions": 28756, "\u00e4\u00bb": 5690, "\u0120Relationship": 47244, "\u0120bamboo": 42657, "\u0120\u00cf\u0126\u00ce\u00bf": 17686, "cm": 3591, "\u0120day": 1388, "041": 28271, "essage": 2482, "leans": 19472, "\u00c2\u00bb,": 26147, "vention": 4053, "\u0120Carib": 23920, "\u0120exhibited": 12322, "\u0120pussy": 35614, "\u0120reminded": 17328, "\u0120\u00d0\u00b7": 8793, "\u0120sine": 37353, "\u0120Absolute": 48140, "\u0120roughly": 11467, "\u0120Corporation": 11294, "\u010a\u010a\u0109": 6886, "\u0120FCC": 27470, "\u0120pitches": 41095, "\u0120Cluster": 32793, "\u0120Se": 1023, "NT": 6369, "\u0120Criteria": 39554, "Process": 12919, "Sun": 14594, "885": 29805, "ior": 1528, ")|\\": 30919, "\u0120Na": 6897, "\u0120bart": 44693, "src": 7614, "1101": 40416, "(['": 40116, "Audio": 23751, "\u00d0\u00b5\u00d0\u00bc": 10077, "\u0120constructions": 35831, "\u0120necessity": 15504, "Answer": 32869, "\u0120103": 13062, "\u0120PF": 22919, "\u0120swing": 14284, ")**(": 48667, "\u0120contentions": 39304, "\u0120basis": 3720, "lut": 40376, "\u0120acknowledgment": 48371, "\u0120focal": 18560, "364": 23100, "utf": 17880, "pard": 43832, "uego": 35784, "\u0120initiate": 23070, "\u0120\u00d0\u0133": 38177, "\u0120548": 45297, "\u0120manifests": 46955, "gorithms": 46042, "\u00d8\u00b5": 30265, "\u0120Sunday": 6926, "escape": 34189, "hover": 22424, "ocate": 24461, "\u00c3\u00b1or": 30765, "\u0120Excell": 36345, "\u0120Fit": 40632, "\u0120Tin": 46487, "izon": 21148, "\u0120Well": 6089, "}$\\": 23743, "\u0120Gl": 4051, "\u0120obtaining": 13546, "guided": 26960, "}),": 22286, "textup": 32603, "\u0120few": 1643, "\u0120possibilities": 15018, "\u0120rig": 8132, "\u0120sculpt": 17481, "\u0120piez": 33588, "\u0120ranc": 50008, "\u0120secure": 7895, "\u0120aeros": 34507, "\u0120blades": 25254, "\u0120tensions": 29005, "\u0120tunn": 11552, "HER": 18449, "\u0120Wales": 15420, "\u0120amended": 13799, "\u0120cellular": 7842, "\u0120chilling": 45942, "\u0120pragmatic": 41585, "\u00c7": 131, "\u0120sculptures": 48106, "marks": 17144, "ospit": 10472, "\u0120McC": 8771, "\u0120Rapt": 46879, "\u0120hated": 21023, "\u0120underest": 22698, "isations": 18058, "524": 43171, "odge": 13676, "sover": 28242, "076": 41923, "\\!": 6476, "\u0120Entry": 30234, "\u0120Kitt": 34738, "\u0120hardware": 10309, "\u0120inhibitors": 11531, "\u0120immunofluorescence": 35055, "\u0120illustrations": 33954, "\u0120306": 31950, "nix": 47352, "typeof": 25833, "\u0120Fifty": 38625, "\u0120tanto": 30670, "\u0120.$$": 18822, "\u0120TNF": 14857, "\u0120Lead": 12151, "arine": 43304, "\u0120representing": 9999, "\u0120slips": 42282, "574": 38503, "\u0120ACT": 21318, "\u0120occupations": 45517, "Gro": 38650, "\u0120Output": 24882, "eterm": 13109, "\u0120indicator": 15301, "\u00e8\u00b6": 34138, "\u0120inqu": 9254, "\u0120Farmer": 49146, "\u0120projective": 27266, ".\");": 23715, "\u0120Base": 11760, "\u0120standpoint": 32764, "\u0120complaint": 5833, "\u0120followers": 18409, "\u010d\u010a\u0120": 4256, "\u0120De": 1605, "IAN": 26081, "\u0120DS": 20807, "\u0120Start": 11075, "\u0120URL": 10611, "\u0120detectives": 42661, "\u0120rins": 32677, "hire": 11094, "\u0120\u00ce\u00bcM": 16769, "\u0120influences": 16178, "\u0120hepatic": 17508, "\u0120staging": 28727, "().": 5023, "detect": 33492, "atem": 31587, "due": 21848, "avez": 45836, "seys": 48096, "\u0120Terror": 31199, "uss": 1316, "Gen": 7475, "\u0120vind": 30922, "\u0120presents": 10262, "\u0120neu": 12644, "limit": 17465, "\u0120territorial": 32169, "Football": 49007, "feat": 48887, "\u0120Jerry": 21122, "\u0120standardized": 19817, "\u0120(\u00c2\u00a3": 36397, "\u0120Liam": 44123, "\u0120tentative": 43095, "\u0120\u00ce\u00bf": 16962, "\u0120THREE": 43593, "\u0120Volkswagen": 47486, "leneck": 44856, "432": 32803, "ropolitan": 19646, "\u0120acuity": 43457, "zt": 15701, "\u00d9\u012a\u00d8\u00af": 49788, "\u0120Christmas": 9449, "\u0120ogs\u00c3\u00a5": 40415, "aming": 6472, "\u00e2\u012d\u00af": 50034, "\u0120longest": 20088, "Loaded": 49473, "rano": 41911, "chie": 2942, "\u0120modest": 16453, "*>(": 46802, "\u0120PSA": 35538, "prints": 21937, "duration": 27076, "reat": 675, "\u0120Ir": 7854, "\u0120Sil": 7949, "activate": 36915, "\u0120Courts": 33417, "\u0120mRNAs": 34033, "\u0120projections": 20553, "\u0120cigarette": 19555, "aye": 38814, "neh": 37337, "\u0120727": 48470, "\u0120classify": 30215, "proving": 40037, "wered": 8736, "\u0120Final": 16299, "appellant": 34657, "visit": 37799, "allenge": 19656, "\u0120DMEM": 41065, "1918": 45995, "\u0120Flight": 29726, "\u0120Richards": 35122, "\u0120aer": 10590, "\u0120diagnostic": 10401, "\u0120forthcoming": 31196, "082": 45159, "scalar": 41034, "\u0120intense": 12680, "iazep": 42907, "cn": 14340, "\u0120312": 30581, "complex": 19017, "RET": 22178, "\u0120Prem": 13343, "\u0120investigated": 6949, "%-": 33109, "\u0120Balk": 41028, "1986": 14880, "650": 31036, "\u0120Adam": 13187, "\u0120life": 1495, "ruption": 9525, "\u00e0\u00af": 15176, "\u0120inquire": 40279, "back": 2135, "\u0120doctrines": 40785, "unning": 10455, "\u0120merger": 24362, "\u0120shall": 3091, "WH": 8835, "erdinand": 43528, "\u0120rebounds": 41531, "\u0120CB": 17933, "\u0120southern": 11053, "\u0120spor": 24188, "\u00e3\u0123\u0141": 6218, "\u0120stuck": 10960, "46": 2950, "\u0120Sessions": 35015, "\u0120Photo": 15837, "\u0120transplanted": 38887, "\u0120truncated": 28069, "751": 37950, "stri": 32182, "\u0120reimb": 23503, "\u0120decre": 2864, "\u010d\u010a\u0109\u0109\u0109\u0109": 28778, "\u0120hesitate": 32379, "oyo": 49155, "\u0120passions": 38969, "\u0120Pride": 39523, "\u0120dozen": 13365, "\u0120monopoly": 37020, "\u0120starters": 37843, "\u0120creamy": 40180, "\u0120orthogonal": 19627, "mes": 6952, "Pf": 48680, "\u0120April": 4162, "Cor": 9873, "\u0120Az": 13063, "349": 21095, "\u00ce": 138, "\u0120Landau": 42005, "\u0120advertis": 16230, "\u0120smoothed": 43966, "\u0120\u00d5": 35257, "\u0120\u00e2\u0122\u013e": 773, "Visual": 25889, "\u0120conceive": 42684, "\u0120so": 594, "\u0120exp": 866, "regulation": 11973, "\u0120horizontally": 36128, "\u0120spleen": 26528, "STAT": 11708, "PART": 26765, "\u0120Her": 4058, "\u0120\"\",": 18586, "\u0120simulate": 26065, "FM": 18278, "Asp": 35087, "fff": 22650, "\u0120Upon": 15797, "errals": 47013, "\u0120Os": 14183, "\u0120RAW": 43036, "\u0120embar": 14301, "\u0120intestine": 28741, "\u0120leading": 4283, "\u0120extinction": 21891, "Ws": 30748, "\u0120[-": 28591, "\u0120regions": 4811, "\u00d8\u012e": 26969, "\u0120Lyn": 13619, "\u0120hypotheses": 24316, "\u0120ver": 2336, "\u0120nause": 28237, ")^\\": 25690, "\u0120rate": 2281, "\u0120thumbs": 47982, "\u0120marker": 10705, "========": 822, "monitor": 46905, "\u0120proceeding": 12162, "\u0120Halloween": 30556, "notag": 22632, "mitt": 16855, "\u0120Dum": 38004, "urger": 44250, "\u0120garment": 40371, "\u0120ridge": 27563, "under": 4524, "\u0120correct": 3451, "\u0120problematic": 20276, "Eight": 33770, "Young": 29140, "'],": 16445, "Einstein": 48987, "IENT": 31093, "\u0120mines": 27304, "grat": 25923, "\u0120TW": 30694, "\u0120Cow": 18544, "\u0120Jones": 8302, "che": 1962, "\u0120kept": 4934, "\u0120aut": 1125, "\u0120favorably": 49148, "\u0120Turner": 20757, "\u0120actions": 5231, "MA": 3788, "\u0120biblical": 35525, "\u0120alias": 28129, "\u0120;)": 24457, "ortical": 35149, "abit": 46442, "cus": 11675, "Bank": 16822, "plectic": 31615, "\u0120registered": 9856, "Special": 22166, "Invitrogen": 29166, "Silver": 40796, "412": 30965, "Protocol": 26692, "umberland": 44113, "\u0120feel": 1928, "\u0120metabolic": 10761, "\u0120modalities": 33433, "\u0120prelim": 11944, "trade": 37719, "\u0120Natal": 34530, "Mad": 19008, "magn": 30362, "\u0120122": 17115, "\u0120Bec": 40392, "injury": 48145, "umu": 49304, "\u0120Victorian": 27794, "\u0120populations": 7625, "atore": 42466, "Anth": 37701, "endant": 5483, "\u010d\u010a\u010d\u010a\u0120\u0120\u0120\u0120\u0120\u0120\u0120": 23883, "\u0120Steele": 40592, "\u0120normal": 2622, "\u0120representative": 8612, "tt": 1440, "\u0120ESPN": 27478, "lceil": 42914, "Haw": 35034, "\u0120visions": 36522, "\u0120exhaust": 9286, "upgreek": 8861, "\u0120polymers": 20147, "icular": 8070, "\u0120expect": 1902, "\u0120coy": 49145, "\u0120controversy": 16305, "\u0120serpent": 45046, "\u0120Claud": 35662, "\u0120generations": 14649, "threatening": 33897, "\u0120weird": 12504, "\u00e7\u0143": 24379, "\u0120completeness": 29867, "\u0120competitors": 21607, "~^": 39303, "agen": 6533, "617": 41830, "big": 2760, "KC": 39089, "\u0120Canal": 33042, "\u0120Dale": 28710, "\u0120European": 5284, "\u0120crimes": 12137, "\u0120NAS": 13170, "\u0120reviewed": 9814, "assador": 18692, "Dar": 28895, "Cro": 40053, "ase": 511, "\u00e4\u00bd\u00bf\u00e7\u0136\u00a8": 29463, "\u00d8\u00a7\u00d9\u0127": 30901, "\u0120Kl": 18223, "\u0120almost": 2761, "\u0120likelihood": 12177, "\u0120requiring": 10568, "\u0120sequences": 6430, "\u0120injustice": 31427, "developer": 35654, "\u0120Audi": 49368, "vre": 39798, "oga": 13703, "\u0120realiz": 42924, "\u0120Fang": 50162, "\u0120takeover": 48896, "\u0120algorithms": 11333, "\u0120para": 5586, "abar": 47718, "\u0120Salad": 40212, "dad": 45328, "860": 48294, "\u0120at\u00c3\u00a9": 47345, "\u0120collisions": 22959, "Cost": 25997, "eed": 13158, "\u0120Academ": 9420, "Saint": 41676, "rians": 26886, "\u00e9\u013a": 29852, "\u0120Buff": 19229, "kinase": 49278, "\u01201972": 15750, "\u0120bipolar": 27842, "\u0120bishop": 29417, "\u0120composite": 8212, "\u0120condensed": 35341, "\u0120Mickey": 44065, "\u0120didnt": 42126, "\u0120associated": 2330, "\u0120ed": 1407, "\u0120gesture": 21850, "matically": 33866, "\u0120grandfather": 21507, "\u0120overly": 27662, "\u0120enzymes": 12807, "Intent": 28843, "\u0120Bound": 38635, "aire": 10723, "\u0120becoming": 7552, "\u0120binary": 8985, "\u0120\u00cf\u0122\u00cf\u0123\u00ce\u00bf": 28354, "\u012066": 9523, "\u0120cried": 14187, "\u0120imposs": 37593, "\u0120471": 41468, "Bbb": 22982, "DMA": 32843, "In": 688, "\u0120approved": 7012, "\u0120fluoride": 39181, "\u0120respond": 3794, ").)": 42968, "\u00e1\u0122": 7183, "ifically": 4452, "v\u00c3\u00a9": 43147, "\u0120Arbit": 44287, "\u0120coat": 11959, "\u0120protecting": 15233, "\u0120Bank": 6022, "\u0120emotional": 8991, "\u0120disrupt": 13201, "\u0120Serv": 7724, "\u0120interact": 8008, "show": 9029, "lis": 38466, "MenuItem": 43429, "\u0120soils": 31344, "Below": 30003, "rapeut": 7439, "=\"-": 24539, "crete": 6713, "\u0120dining": 17552, "\u00e2\u0122\u0136\u00e2\u0122\u0136\u00e2\u0122\u0136\u00e2\u0122\u0136": 17803, "\u0120celebr": 6615, "\u0120todas": 37634, "\u0120{%": 37183, "\u0120Merr": 34069, "479": 28757, "orn": 1575, "\u0120Diane": 36965, "\u0120constit": 3598, "agonal": 21805, "}^{-": 11444, "078": 36709, "ytt": 46515, "\u0120Foster": 24942, "anut": 25725, "Quick": 28782, "billion": 47116, "\u0120419": 38380, "\u0120debe": 47643, "\u0120front": 2914, "amss": 8809, "\u0120confined": 18414, "\u0120wel": 6210, "iary": 7855, "qs": 41317, "\u0120scraping": 47232, "352": 27267, "nbsp": 6732, "\u0120wsp": 45718, ".\u00e2\u0122\u013b\u00e2\u0122\u013f": 32090, "\u0120abnormal": 10969, "\u0120coinc": 10891, "also": 12563, "\u0120Tak": 23161, "herry": 16210, "veh": 32731, "\u0120nephe": 30124, "hereinafter": 30350, "remote": 28213, "\u00e6\u0122": 13258, "meaning": 30407, "\u0120paint": 6848, "\u0120investigations": 14006, "\u0120prohibiting": 43987, "ZZ": 25314, "\u0120Lily": 32817, "\u0120starring": 28193, "05": 1762, "ylate": 32011, "wall": 12081, "\u0120drink": 5484, "Gar": 31352, "595": 44159, "formation": 1248, "\u0120mk": 36904, "mares": 44672, "\u0120WHERE": 17242, "\u0120skill": 10861, "Bre": 16212, "entric": 19458, "Async": 19168, "\u00e3\u0123\u0124": 14010, "zi": 9877, "completely": 43665, "\u0120Esc": 20748, "\u0120alkal": 42008, "\u0120remake": 50224, "opath": 11036, "undo": 16538, "\u0120Ash": 12521, "\u0120heightened": 35568, "\u0120Schools": 27498, "\u0120Legisl": 17152, "\u0120recorded": 5950, "\u0120veteran": 18425, "luc": 33986, "stown": 39225, "\u0120withdrawal": 18185, "\u0120Always": 25728, "\u0120evalu": 3595, "\u0120viz": 40027, "\u0120wider": 14200, "hetto": 48850, "\u0120\u00ef": 16141, "formaldehyde": 47236, "\u0120nach": 23424, "\u0120relationships": 7688, "\u0120[_": 42989, "pur": 13182, "\u0120[**": 4299, "\u00e0\u00a4\u00bf": 20489, "\u0120Choose": 28890, "\u0120kins": 48729, "\u0120turbulence": 32125, "\u0120dece": 17630, "\u0120defeating": 38774, "\u0120tiss": 3375, "eld": 10391, "\u0120unclear": 12744, "uds": 36626, "\u0120enzym": 6085, "\u0120whether": 1880, "{%": 28683, "\u00d1\u0125\u00d1\u0130": 26199, "\u0120cleaned": 22269, "\u0120belong": 5663, "**](#": 37786, "\u0120departure": 16018, "\u00e7\u0124": 21944, "erge": 15811, "\u0120MER": 18226, "\u0120comeback": 41759, "110": 7749, "OUTPUT": 38333, "tle": 22924, "ogra": 20116, "318": 28560, "\u0120Iron": 17826, "\u0120Mayor": 18308, "\u0120ancestors": 25938, "atic": 1420, "\u0120occ": 1609, "hetics": 30832, "\u0120overlay": 33828, "zerba": 41743, "\u01208000": 48296, "\u0120acted": 14001, "\u0120Bonferroni": 40358, "\u0120enormous": 14779, "\u0120Small": 15023, "\u0120n\u00c3\u00bamer": 44935, "\u0120additive": 21842, "\u0120respect": 1675, "\u0120d\u00c3\u00a9c": 33677, "\u0120shield": 12831, "+": 12, "\u0120Howe": 48550, "\u0120nog": 30876, "\u0120unexpectedly": 34065, "\u0120borough": 46861, "urus": 40756, "1111": 13721, "\u0120Cornwall": 44677, "\u0120combust": 17420, "\u0120grasped": 46137, "\u0120Genesis": 39184, "\u0120MAP": 13430, "\u0120Region": 18973, "Build": 10987, "}$]{}": 20977, "\u0120Somalia": 46699, "uin": 19014, "ollow": 901, "435": 36677, "FH": 36821, "dh": 20402, "ugar": 16734, "wf": 48808, "\u0120Ball": 14702, "\u0120Bomb": 29811, "\u0120creations": 45414, "jobs": 44144, "\u0120culinary": 44604, "\u0120filament": 26533, "\u0120migraine": 41755, "goog": 48031, "ente": 13589, "\u0120sera": 24932, "\u0120ventral": 29866, "poor": 31943, "\u00e7\u013d\u00b8": 32313, "\u0120waving": 34475, "BPF": 36053, "\u0120affirming": 48984, "ensa": 43166, "\u0120safe": 4999, "\u0120nh": 31386, "\u0120approximately": 5512, "\u0120rectangular": 26305, "ida": 4355, "\u0120distributed": 5939, "contains": 24634, "igm": 15379, "\u0120Arg": 14979, "\u0120NCAA": 26865, "\u0120RTC": 46278, "cookie": 36617, "\u0120Resp": 12019, "uous": 3472, "\u0120Brian": 14468, "\u0120alike": 19605, "\u010d\u010a\u010d\u010a\u010d": 35745, "opoietic": 31390, "spacing": 35215, "\u0120regeneration": 22781, "\u0120ca": 7318, "              ": 50264, "\u0120actuator": 33774, "\u0120having": 1907, "lasting": 31403, "\u0120masterpiece": 45497, "ocyte": 10833, "localhost": 22922, "\u0120jets": 24825, "\u0120glimp": 27092, "phosphate": 25955, "SERVER": 40056, "\u0120addr": 26181, "overrightarrow": 45195, "\u0120Las": 15878, "ams": 1317, "hip": 1456, "\u0120different": 1027, "ifts": 8515, "\u0120Edition": 17897, "\u0120expatriate": 44708, "\u0120velocity": 7602, "\u0120\u0120\u0120\u0120\u0120\u0120\u0120\u0120\u0120\u0120\u0120\u0120\u0120\u0120\u0120\u0120\u0120\u0120\u0120\u0120\u0120\u0120\u0120\u0120\u0120\u0120\u0120\u0120\u0120\u0120\u0120\u0120\u0120\u0120\u0120\u0120\u0120\u0120\u0120\u0120\u0120\u0120\u0120\u0120\u0120\u0120\u0120\u0120\u0120\u0120\u0120\u0120\u0120\u0120\u0120\u0120\u0120\u0120\u0120\u0120\u0120\u0120\u0120\u0120\u0120\u0120\u0120\u0120\u0120\u0120\u0120\u0120\u0120\u0120\u0120\u0120\u0120\u0120\u0120\u0120\u0120\u0120\u0120\u0120\u0120\u0120\u0120\u0120\u0120\u0120\u0120\u0120\u0120\u0120\u0120\u0120\u0120\u0120\u0120\u0120\u0120\u0120\u0120\u0120\u0120\u0120\u0120\u0120\u0120\u0120\u0120\u0120\u0120\u0120\u0120\u0120\u0120\u0120\u0120\u0120\u0120\u0120\u0120\u0120\u0120\u0120\u0120\u0120\u0120\u0120\u0120\u0120\u0120\u0120\u0120\u0120\u0120\u0120\u0120\u0120\u0120\u0120\u0120\u0120\u0120\u0120\u0120\u0120\u0120\u0120\u0120\u0120\u0120\u0120\u0120\u0120\u0120\u0120\u0120\u0120\u0120\u0120\u0120\u0120\u0120\u0120\u0120\u0120\u0120\u0120\u0120\u0120\u0120\u0120\u0120\u0120\u0120\u0120\u0120\u0120\u0120\u0120\u0120\u0120\u0120\u0120\u0120\u0120\u0120\u0120\u0120\u0120\u0120\u0120\u0120\u0120\u0120\u0120\u0120\u0120\u0120\u0120\u0120\u0120\u0120\u0120\u0120\u0120\u0120\u0120\u0120\u0120\u0120\u0120\u0120\u0120\u0120\u0120\u0120\u0120\u0120\u0120\u0120\u0120\u0120\u0120\u0120\u0120\u0120\u0120\u0120\u0120\u0120\u0120\u0120\u0120\u0120\u0120\u0120\u0120\u0120\u0120\u0120\u0120\u0120\u0120\u0120\u0120\u0120\u0120\u0120\u0120\u0120\u0120\u0120\u0120\u0120\u0120\u0120\u0120\u0120\u0120\u0120\u0120\u0120\u0120\u0120\u0120\u0120\u0120\u0120\u0120\u0120\u0120\u0120\u0120\u0120\u0120\u0120\u0120\u0120\u0120\u0120\u0120\u0120\u0120\u0120\u0120\u0120\u0120\u0120\u0120\u0120\u0120\u0120\u0120\u0120\u0120\u0120\u0120\u0120\u0120\u0120\u0120\u0120\u0120\u0120\u0120\u0120\u0120\u0120\u0120\u0120\u0120\u0120\u0120\u0120\u0120\u0120\u0120\u0120\u0120\u0120\u0120\u0120\u0120\u0120\u0120\u0120\u0120\u0120\u0120\u0120\u0120\u0120\u0120\u0120\u0120\u0120\u0120\u0120\u0120\u0120\u0120\u0120\u0120\u0120\u0120\u0120\u0120\u0120\u0120\u0120\u0120\u0120\u0120\u0120\u0120\u0120\u0120\u0120\u0120\u0120\u0120\u0120\u0120\u0120\u0120\u0120\u0120\u0120\u0120\u0120\u0120\u0120\u0120\u0120\u0120\u0120\u0120\u0120\u0120\u0120\u0120\u0120\u0120\u0120\u0120\u0120\u0120\u0120\u0120\u0120\u0120\u0120\u0120\u0120\u0120\u0120\u0120\u0120\u0120\u0120\u0120\u0120\u0120\u0120\u0120\u0120\u0120\u0120\u0120\u0120\u0120\u0120\u0120\u0120\u0120\u0120\u0120\u0120\u0120\u0120\u0120\u0120\u0120\u0120\u0120\u0120\u0120\u0120\u0120\u0120\u0120\u0120\u0120\u0120\u0120\u0120\u0120\u0120\u0120\u0120\u0120\u0120\u0120\u0120\u0120\u0120\u0120\u0120\u0120\u0120\u0120\u0120\u0120\u0120\u0120\u0120\u0120\u0120\u0120\u0120\u0120\u0120\u0120\u0120\u0120\u0120\u0120\u0120\u0120\u0120\u0120\u0120\u0120\u0120\u0120\u0120\u0120\u0120\u0120\u0120\u0120\u0120\u0120\u0120\u0120\u0120\u0120\u0120\u0120\u0120\u0120\u0120\u0120\u0120\u0120\u0120\u0120\u0120\u0120\u0120\u0120\u0120\u0120\u0120\u0120\u0120\u0120\u0120\u0120": 19979, "\\]](": 45662, "\u0120Rh": 11537, "\u0120unpaired": 47223, "\u0120Eagle": 26864, "\u0120Friend": 25845, "\u0120files": 4367, "\u0120illustrate": 17093, "ane": 1351, "\u0120cosa": 40963, "\u0120policy": 3646, "election": 24508, "\u0120Sanct": 49787, "edin": 36777, "\u0120longing": 40484, "\u0120streak": 29642, "\u0120wal": 10250, "\u00c2\u013c": 20054, "rized": 50065, "\u0120inj": 2450, "\u0120anim": 3865, "\u0120Enum": 46222, "\u0120prime": 4335, "\u0120yield": 4917, "\u0120Simply": 29574, "Ac": 9692, "779": 33727, "cut": 7317, "dll": 25360, "stdio": 43930, "\u0120mor": 2298, "\u0120say": 1333, "ell": 437, "cong": 14829, "\u0120og": 9040, "\u0120\u00d8\u0143": 40913, "      ": 50272, "oge": 32275, "bial": 11588, "Home": 18686, "lia": 19702, "\u0120*/": 1738, "\u0120branches": 12998, "\u0120histological": 24394, "eled": 17371, "iling": 4837, "\u0120flick": 22336, "iset": 42468, "\u0120Bri": 41431, "\u0120inev": 13177, "\u0120lnc": 32878, "\u0120therapeutic": 9282, "He": 1328, "\u0120PAS": 42300, "pd": 19875, "digest": 49534, "\u0120December": 4565, "arum": 29389, "Based": 15545, "\u0120conjunct": 49961, "\u0120xxx": 43911, "\u0120berries": 37408, "\u0120proven": 11464, "pow": 13029, "\u0120nodding": 49006, "\u0120\u00ec\u013f": 35305, "\u0120comprehen": 28535, "\u0120on": 327, "\u00e5\u0131\u0133": 29918, "329": 22011, "mic": 6185, "\u00e8\u012d": 38672, "\u0120Hier": 39452, "\u0120Observ": 16177, "\u0120corporations": 18674, "Ru": 33468, "\u0120advertising": 12089, "pper": 3803, "\u01202008": 4695, "\u0120dried": 14245, "\u0120addictive": 49458, "stic": 11224, "\u0120macro": 14823, "\u0120unity": 16167, "\u0120cytos": 18314, "Selection": 23474, "immune": 20916, "engineering": 44602, "visiae": 39740, "ermanent": 47605, "solete": 34720, "~~~": 6223, "\u0120Publication": 20702, "\u0120Theme": 45551, "iso": 14699, "odynamics": 30141, "\u0120balloons": 50210, "\u0120gul": 49725, "\u0120hardened": 43656, "ieur": 26730, "noon": 8396, "\u0120deliveries": 40547, "\u0120limestone": 48475, "oth": 837, "\u0120Diet": 23845, "Present": 25582, "\u0120coe": 6161, "again": 16245, "\u0120Nebraska": 20176, "\u0120shining": 28115, "Unlock": 45430, "\u0120Plaza": 33427, "\u0120facto": 32924, "\u0120FC": 16004, "RAY": 23544, "\u0120narrowing": 44746, "\u0120Gas": 18644, "\u0120Parts": 41371, "\u0120adopted": 8671, "\u0120Cont": 3267, "\u0120measles": 47151, "won": 33382, "awt": 36006, "s": 84, "\u0120/**": 6401, "\u0120invisible": 20624, "\u0120wield": 37214, "\u0120Sto": 32081, "\u0120Ready": 38743, "withstanding": 22046, "^\u00e2\u012a\u0134/\u00e2\u012a\u0134^": 28912, "INFO": 16615, "cans": 40786, "placement": 26380, "roe": 20950, "missing": 33722, "0055": 31253, "\u0120Cr": 7306, "\u0120bal": 4273, "\u0120century": 5331, "\u0120colonies": 19665, "\u0120franchise": 17117, "\u0120Palest": 11481, "\u0120Complete": 25426, "\u0120Shepherd": 44452, "\u0120resided": 45986, "\u0120sails": 49726, "])": 3291, "\u0120107": 14034, "\u0120induction": 9953, "\u0120Hegel": 44499, "\u0120Otto": 37659, "\u0120pumpkin": 43818, ".^\\[[@": 43782, "Getty": 24051, "\u0120disse": 15062, "\u0120Minister": 8308, "\u010a\u0120\u0120\u0120\u0120\u0120\u0120\u0120\u0120\u0120\u0120\u0120\u0120\u0120\u0120\u0120\u0120\u0120\u0120\u0120\u0120\u0120\u0120": 17482, "\u0120Occup": 29314, "\u0120Lynch": 28589, "\u0120basement": 21135, "\u0120canonical": 15516, "\u0120driver": 6254, "\u0120mis": 3731, "\u00e4\u00ba\u012e": 34744, "\u0120chars": 47647, "way": 1106, "tags": 23059, "\u0120peaked": 33404, "Thermo": 32245, "\u0120doub": 18283, "\u0120Scene": 45258, "\u0120plead": 19494, "\u0120second": 1273, "\u0120apart": 7419, "\u0120animate": 49129, "May": 6791, "ohn": 2116, "\u0120pylori": 35912, "\u0120inevitable": 19455, "TYPE": 10560, "\u0120/*": 3476, "\u0120GOD": 43360, "=\"'$(": 48201, "\u0120perhaps": 4931, "705": 45698, "\u0120escort": 33352, "ukes": 41757, "\u0120----,": 49869, "\u0120attacking": 20362, "fired": 46178, "\u00e2\u0122\u0135\u00e2\u0122\u0135\u00e2\u0122\u0135\u00e2\u0122\u0135": 20214, "\u0120middle": 4766, "wu": 44217, "\u0120cohomology": 30367, "\u0120adopting": 25987, "rical": 5526, "hart": 23110, "usalem": 16840, "Crit": 33611, "GH": 12677, "configure": 29525, "\u00d7\u00a7": 41855, "\u0120ERISA": 39601, "\u0120Euler": 31752, "accord": 39844, "722": 48923, "\u0120Brandon": 29040, "\u0120Concept": 38298, "\u0120Guang": 37830, "\u0120dominance": 26447, "\u0120LB": 27118, "ugu": 42314, "\u0120External": 37320, "\u0120Museum": 11032, "\u0120bra": 6513, "752": 35179, "Token": 11200, "ent": 290, "acry": 21800, "aug": 2321, "ygen": 6918, "\\\\\\\\": 36038, "\u0120freezer": 38993, "\u0120nursing": 15929, "\u0120sound": 3590, "\u0120inside": 3304, "\u0120adaptation": 15644, "Besides": 26021, "\u0120Maps": 33861, "terbury": 46585, "tica": 18259, "acts": 10719, "heavy": 37893, "\u0120lifted": 14287, "\u0120overturned": 45965, "Always": 34361, "\u0120pity": 27042, "\u0120quick": 3158, "\u0120skeletal": 20847, "pk": 27905, "\u00d0\u00b8\u00d0\u00b3": 43461, "\u0120transmembrane": 33809, "\u0120truck": 9988, "thank": 47033, "\u0120environmentally": 39331, "\u00d9\u0129\u00d8\u00a7": 37760, "\u0120recipe": 13612, "NG": 12770, "\u0120botan": 44820, "498": 31358, "Addr": 23054, "Done": 34739, "Western": 27733, "\u0120Chiefs": 40839, "\u0120bird": 12621, "\u0120without": 1293, "\u0120\u0120\u0120\u0120\u0120\u0120\u0120\u0120\u0120\u0120\u0120\u0120\u0120\u0120\u0120\u0120\u0120\u0120\u0120\u0120\u0120\u0120\u0120\u0120\u0120\u0120\u0120\u0120\u0120\u0120\u0120\u0120\u0120\u0120\u0120\u0120\u0120\u0120\u0120\u0120\u0120": 13075, "ymphony": 39298, "\u0120DEFAULT": 29339, "\u01201994": 9354, "\u0120Penny": 42778, "\u0120Surface": 29700, "\u0120Which": 6758, "\u0120instruct": 9618, "\u0120throttle": 41688, ",'": 4117, "itti": 21498, "...)": 19552, "\u0120freed": 21517, "\u0120journalist": 17264, "\u0120pick": 2619, "\u0120251": 30669, "\u0120varies": 16149, "\u0120improperly": 28203, "Aye": 50195, "0040": 31119, "\u0120Using": 6915, "\u0120receptive": 44952, "ints": 23578, "woke": 47211, "princ": 26985, "\u0120Properties": 25626, "\u0120extrinsic": 38988, "\u0120fitted": 14662, "\u0120scholars": 12981, "\u00e3\u0123\u00a8": 6088, "\u0120Learning": 20727, "\u0120adapter": 23675, "----------------------------------------------------------------": 2518, "\u00d0\u00b0\u00d0\u00b9": 21241, "park": 30844, "\u0120Mach": 20310, "\u0120utilizes": 29820, "\u0120Marie": 21088, "\u0120p\u00c5\u013b": 27830, "\u0120Kate": 20428, "\u00e3\u0124\u0124": 10786, "\u0120cans": 34208, "\u00e5\u0141": 26581, "\u0120dated": 15483, "\u0120presented": 3559, "````": 34842, "elon": 46842, "\u0120endogenous": 17774, "),": 582, "\u0120\u00e2\u0128\u0133": 44723, "\u0120flavor": 13746, "oston": 8735, "o": 80, "iones": 12629, "\u0120discussion": 5955, "\u0120pin": 9176, "262": 24724, "\u00e5\u00ae\u00b6": 34091, "\u0120drowned": 40649, "\u00b7\u00b8": 39068, "\u0120stare": 25885, "Absolutely": 48462, "\u0120CAB": 47409, "\u0120poet": 17502, "onance": 47872, "date": 2754, "\u0120Dot": 38181, "\u0120Lopez": 31897, "eclipse": 21835, "\u0120advising": 44083, "Mapper": 37479, "Rad": 13021, "ction": 421, "saw": 35577, "separated": 49741, "ellite": 29873, "constructor": 36073, "\u0120bunch": 12190, "ru": 579, "critical": 26717, "$\\": 1202, "arettes": 22131, "itol": 16180, "District": 31711, "strip": 25763, "\u0120Africans": 45359, "\u0120Anglo": 33252, "pected": 5344, "\u0120Byz": 38557, "\u0120Importantly": 27628, "\u0120Township": 26469, "\u0120firefighters": 45399, "brates": 36613, "\u0120monetary": 22669, "\u0120congrat": 28858, "\u0120motivated": 17194, "Qu": 3864, "ainer": 7566, "AKT": 49775, "\u0120collection": 4849, "\u0120cysteine": 35750, "\u0120dismissed": 11511, "-$\\": 42929, "Take": 12864, "suffix": 49959, "\u0120capit": 43395, "\u0120phenol": 45705, "\u0120rivalry": 43497, "\u0120soll": 36959, "\u0120unlaw": 18725, "\u00d9\u0128\u00d8\u00a7": 43762, "ME": 5288, "\u0120Ens": 31790, "Ident": 11540, "tokens": 45499, "\u0120Manufacturing": 45214, "\u0120Rel": 5712, "\u0120stamps": 37946, "oglobin": 20491, "\u0120towels": 41204, "\u0120utmost": 34497, "ranial": 29379, "\u0120seventh": 20117, "ango": 13903, "arks": 7969, "\u0120601": 41649, "\u01201932": 30953, "\u0120Previous": 20676, "wm": 28386, "\u0120mystery": 16909, "\u0120449": 40201, "Diff": 27732, "ilogy": 38665, "Wu": 45055, "\u0120aura": 37468, "\u0120gef": 41817, "\u0120peroxide": 34288, "carbox": 38402, "values": 8858, "\u0120inviting": 31337, "\u0120Send": 23934, "\u0120elegans": 44984, "\u0120complained": 19375, "violent": 43115, "\u0120mas": 9425, "forest": 38250, "\u0120mining": 15067, "\u0120sealed": 18495, "\u00c3\u00a8": 3539, "\u0120Amended": 42173, "\u0120refuses": 29939, "\u0120applying": 9433, "Assert": 21659, "fter": 699, "irth": 12769, "orders": 6609, "\u00e0\u00a4": 2483, "mathfrak": 5577, "\u00e6\u012d": 23825, "\u0120compensatory": 36948, "Fin": 17398, "\u0120multim": 23390, "\u0120rhythms": 41176, "\u0120silicone": 35651, "\u0120governs": 42086, "\u0120viewer": 27025, "\u0120Figs": 29230, "\u00e3\u0125\u012d": 40352, "\u0120lacking": 14999, "olinergic": 48956, ")/((": 27673, "\u0120ejection": 34261, "\u0120bei": 24967, "\u0120doit": 41199, "\u0120Cream": 36305, "eless": 6134, "\u0120grabbing": 37301, "ili": 3093, "ppat": 18510, "\u0120misunderstanding": 40663, "\u0120peric": 35675, "ividual": 1958, "\u0120shout": 11557, "\u00e4\u00bc": 13127, "\u0120Setting": 32424, "\u0120sobre": 14822, "\u0120tangent": 28196, "setup": 23320, "<!--": 14219, "\u0120automation": 29885, "\u0120terribly": 30643, "\u0120propag": 8641, "\u0120resulted": 7369, "imuth": 37038, "\u0120\u00d8\u00aa": 20817, "Delta": 3442, "\u0120further": 2007, "\u0120Managing": 47651, "\u0120automotive": 33170, "\u0120encompassing": 46940, "\u0120typename": 7919, "\u0120neuropathy": 44268, "edge": 13057, "\u0120seemed": 4455, "\u0120Upper": 24120, "Cannot": 41909, "\u0120Sixty": 49954, "\u0120prevail": 30950, "\u0120and": 285, "\u0120grew": 8899, "\u0120preparing": 13828, "\u0120declar": 18600, "\u0120silicon": 14185, "\u0120deline": 30191, "\u0120builders": 44267, "\u0120\u00c2\u00a5": 43389, "alleg": 38653, "\u0120anch": 11886, "\u0120report": 1304, "\u0120Carter": 16863, "\u0120dd": 32765, "\u0120side": 1930, "\u0120uter": 22837, "\u0120affordable": 18261, "task": 14605, "\u0120insol": 27752, "200": 1518, "\u0120identity": 6489, "\u0120WARRANT": 11567, "pleasant": 26273, "OTH": 31407, "Num": 12753, "'.": 5983, "v": 87, "\u00e2\u013a": 31600, "export": 15035, "\u0120Perhaps": 11243, "\u0120Corinth": 41118, "\u0120faithful": 21738, "web": 7585, "\u0120Schr": 32164, "\u0120princes": 47776, "\u0120quasi": 15539, "\u0120jars": 40609, "\u0120seas": 26634, "ft": 649, "\u0120overlooked": 28849, "\u0120Lanc": 26763, "\u0120smiled": 11373, "adem": 4788, "\u0120IIS": 50122, "keys": 12305, "\u0120Virginia": 9385, "bab": 43658, "\u0120dissolved": 18224, "\u0120logging": 20893, "\u0120':": 48344, "\u0120draw": 3812, "\u0120son": 3347, "\u0120unhealthy": 36713, "\u0120accordance": 8956, "\u0120conferred": 35716, "berg": 4978, "printf": 13108, "\u0120Od": 18668, "ousse": 28583, "\u0120deference": 35880, "\u0120umbrella": 33265, "biamo": 46858, "iquity": 28780, "IDS": 15782, "\u0120silica": 26055, "\u0120transistors": 26488, "Govern": 47795, "\u0120pix": 8066, "\u0120occupying": 38648, "\u0120modulates": 49630, "AF": 9006, "moment": 25094, "\u0120preserve": 14003, "\u0120cre": 1424, "YA": 41239, "\u0120lang": 19457, "\u0120uk": 42487, "\u0120financed": 45311, "\u0120Ernest": 40879, "\u0120eller": 28688, "\u00e3\u0123\u00a7\u00e3\u0123\u00af": 29741, "Cy": 25385, "berry": 12840, "arium": 27601, "\u00e5\u012b\u012f": 22329, "223": 20360, "ENRON": 37425, "ajo": 23246, "\u00c2\u0143": 6319, "\u0120()": 6734, "\u0120diabetic": 17435, "Pixel": 36273, "inent": 14622, "instein": 14130, "creen": 8759, "ODUCT": 47965, "PEC": 41641, "sov": 46508, "\u00e1\u00bb": 6829, "\u0120NYC": 32880, "552": 39338, "Charl": 30419, "Directory": 20330, "anas": 24288, "eenth": 14860, "\u0120Laden": 40858, "\u0120Sacramento": 36405, "\u0120Sugar": 34073, "\u0120addiction": 22103, "528": 42949, "letcher": 34828, "\u00e9\u0129": 13499, "\u0120Ordin": 43795, "\u0120able": 2104, "\u0120localization": 14536, "\u0120masks": 25965, "\u0120perplex": 44229, "esh": 15897, "\u0120chefs": 49828, "\u0120pond": 24740, "CLC": 23839, "\u0120proximity": 18326, "\u0120soybean": 38810, "\u0120transfers": 21916, "\u0120veget": 8466, "\u0120commem": 29461, "\u0120imposes": 35979, "\u0120writ": 2416, "}}^\\": 28073, "\u0120Testament": 26529, "\u0120curtain": 31261, "\u0120^": 5042, "\u0120arthritis": 21781, "\u0120geographical": 25231, "andra": 17244, "isting": 9020, "\u0120ls": 35253, "\u0120mistress": 36285, "\u0120mushrooms": 31022, "\u0120rage": 22324, "\u0120todd": 35130, "\u00c2\u00ac": 23215, "\u0120Equations": 40242, "\u0120venom": 38222, "\u0120Ac": 5192, "\u0120\u00d0\u0136": 31989, "loat": 18113, "ubern": 23351, "remark": 39808, "isma": 46984, "azar": 25151, "\u0120Kenneth": 31270, "\u00c2\u0138": 25371, "\u0120chlorine": 42488, "\u0120simplify": 25636, "\u0120\u00d1\u0126": 21534, "\u0120molecule": 12570, "\u00e3\u0125\u00bc\u00e3\u0125\u012b": 44192, "ophag": 14479, "aur": 4411, "\u0120Transmission": 48578, "orange": 35270, "|}\\": 47715, "otions": 47839, "\u0120hospital": 4675, "187": 17306, "\u0120federal": 4400, "\u0120breakdown": 19501, "\u0120WARRANTIES": 15466, "\u00e0\u00b8\u0126": 37506, "00000000": 4226, "\u0120testimony": 6206, "abama": 13832, "\u0120bully": 48233, "heated": 49856, "\u0120schools": 6629, "\u01201892": 43589, "graph": 10580, "\u0120motiv": 15265, "\u0120shelves": 30058, "()[": 43144, "rapy": 3406, "\u0120barrel": 15474, "\u0120analysts": 26154, "\u0120Rog": 11445, "\u0120epile": 22815, "GAG": 27864, "\u0120Seth": 32393, "\u0120433": 38935, "\u00c3\u00bd": 10561, "=============": 18669, "\u0120Arabidopsis": 48665, "Latin": 46284, "error": 3775, "\u0120Legend": 29260, "ository": 21212, "\u0120lock": 5569, "\u0120improved": 5520, "Ord": 45435, "\u00e3\u0124\u00af": 16436, "\u0120lun": 19749, "\u0120pandas": 48340, "\u0120summ": 14568, "\u0120gen": 730, "section": 4674, "\u0120weeping": 47012, "\u0120flowed": 41115, "\u0120plex": 43239, "surgery": 49742, "\u00e7\u0142\u0123": 42697, "papers": 50004, "\u0120\")": 36660, "\u0120Knights": 36051, "\u0120recurrent": 18902, "\u0120regimen": 24020, "\u0120Clar": 23362, "Should": 18837, "\u0120sustaining": 38933, "\u0120endpoints": 29959, "arching": 50238, "\u0120iPod": 41020, "ford": 4379, "Mc": 11773, "\u0120activator": 35196, "\u0120scient": 4970, "\u0120VM": 20797, "largest": 45242, "\u0120Aw": 20352, "\u0120synth": 23234, "\u0120earning": 22915, "\u00e3\u0123\u00ae": 3917, "\u0120excellent": 7126, "\u0120plotted": 17944, "ensive": 3134, "\u0120radial": 14599, "ocols": 12862, "\u0120perman": 7867, "Materials": 22025, "\u0120econ\u00c3\u00b3": 46058, "\u0120DOC": 38909, "\u0120FS": 28109, "\u0120compression": 13800, "Segment": 44808, "\u0120youthful": 44098, "oslov": 50157, "Commun": 20294, "\u0120hydrocar": 37766, "\u0120teacher": 9732, "593": 43114, "\u0120over": 689, "ian": 757, "actually": 35264, "rais": 21269, "\u0120Gos": 48042, "ipel": 48189, "\u0120idol": 36123, "\u0120sacrifices": 38558, "\u0120Carp": 36468, "\u0120tends": 14280, "\u01201940": 16952, "\u0120Agu": 42535, "\u0120intern": 4184, "\u0120athe": 15389, "Four": 14039, "\u0120swings": 42534, "tees": 22425, "ivist": 45456, "\u0120proud": 9979, "Treat": 48940, "\u0120296": 33723, "\u0120abundances": 30374, "\u0120documentation": 10097, "\u0120hopping": 36939, "\u0120schematic": 32467, "\u0120appellees": 34443, "\u0120bid": 12246, "\u0120learned": 6311, "\u0120Zur": 41397, "\u0120migrant": 35816, "\u0120Template": 37987, "flux": 26364, "third": 19016, "\u0120Payne": 42073, "\u0120depiction": 48528, "\u0120university": 9835, "spec": 4157, "\u0120dry": 6079, "\u00d8": 148, "++,": 44653, "\u0120minimizing": 28699, "\u0120undesirable": 26016, "\u0120theatre": 20021, "]{}\\^": 33805, "CSF": 25827, "\u00d0\u00b8\u00d1\u0127": 21602, "uting": 9634, "\u0120Calculate": 6762, "Idx": 34345, "ubuntu": 5646, "\u0120dri": 2642, "smallcaps": 17318, "\u0120inconvenience": 40471, "\u0120Duration": 42334, "\u0120cosmological": 26166, ":)": 37731, "afa": 37124, "\u00e6\u0143": 14486, "periodic": 38847, "\u0120178": 24833,
[...]
