{
  "ĠCalgary": 37304,
  "Ġ1907": 39118,
  "Ġmeantime": 22849,
  "Ġnodal": 42645,
  "Ġssh": 32899,
  "Ġsupreme": 24555,
  "Ġwonder": 4282,
  "045": 21274,
  "Ġah": 21799,
  "Ġaggregate": 19737,
  "=='": 38100,
  "tele": 29777,
  "aley": 25406,
  "Ġsheriff": 25648,
  "Ġdeep": 3676,
  "Later": 24801,
  "pires": 31659,
  "ĠAn": 743,
  "Ġspontaneous": 17046,
  "Ġlocom": 23904,
  "OUTPUT": 38333,
  "Ġ615": 48210,
  "dma": 28278,
  "Ġ[@": 1008,
  "Ġsanction": 25162,
  "Ġsubsidiary": 30263,
  "Ġuneasy": 43025,
  "Ġkeyword": 23473,
  "HTML": 15597,
  "ĠFACS": 48457,
  "Ġneighbor": 6346,
  "Pop": 14918,
  "Ġstructurally": 38291,
  "Ġmarsh": 32341,
  "çĶ±": 44692,
  "Ġremains": 4558,
  "login": 20348,
  "dual": 34716,
  "mid": 7893,
  "omechanical": 45754,
  "ĠCaroline": 34655,
  "ĠSchrÃ¶dinger": 40598,
  "Ġbegin": 3135,
  "ens": 561,
  "An": 1145,
  "carbox": 38402,
  "meta": 13518,
  "Ġ1860": 36525,
  "Ġcorroborated": 47790,
  "Ġgestures": 35324,
  "ĠCarb": 45411,
  "Ġgreeted": 29919,
  "Ġheights": 27574,
  "Swift": 44756,
  "Ġantagon": 13878,
  "ĠFors": 45977,
  "Ġmph": 36772,
  "Ġsampling": 10491,
  "sampling": 48027,
  "hing": 2027,
  "áĢĢ": 48716,
  "Ġangel": 23087,
  "Ġinstallations": 36774,
  "Ġtrainers": 47366,
  "Ġreveal": 10313,
  "Behavior": 38066,
  "ctrine": 36149,
  "atz": 16859,
  "Ã³w": 18538,
  "Ġcoalition": 20706,
  "porter": 18845,
  "ĠLIFE": 49367,
  "ĠPhone": 26391,
  "etics": 11665,
  "Ġsuggestive": 32717,
  "Ġdenominator": 12619,
  "spark": 38325,
  "amble": 43927,
  "Jose": 27342,
  "ĠChang": 28926,
  "alling": 11822,
  "ĠMercedes": 35512,
  "ĠSubsequent": 41925,
  "Ġpremium": 15087,
  "Ġallev": 26353,
  "ĠPhilosophy": 27284,
  "Ġdissimilar": 43110,
  "amssymb": 8822,
  "19": 746,
  "bon": 4006,
  "reed": 22767,
  "ĠCur": 11579,
  "ĠLeigh": 49150,
  "ĠProvincial": 49850,
  "ĠTake": 11668,
  "Ġchaotic": 29784,
  "hatic": 47863,
  "Ġchurn": 43132,
  "density": 20425,
  "ygon": 37325,
  "Ġhat": 7856,
  "this": 2520,
  "Ġknives": 36014,
  "æłĩ": 42292,
  "ĠAndy": 21130,
  "Ġ131": 19593,
  "imento": 21035,
  "Ġcentr": 26297,
  "amping": 42956,
  "epi": 37332,
  "æ§": 43033,
  "ĠVenus": 36210,
  "Ġjewel": 22812,
  "ĠkÃ¶nn": 30290,
  "Ġunemploy": 16096,
  "ĠĠĠĠĠĠĠĠĠĠĠĠĠĠĠĠĠĠĠĠĠĠĠĠĠĠĠĠĠĠĠĠĠĠĠĠĠĠĠĠĠĠĠĠĠĠĠĠĠĠĠĠĠĠĠĠĠĠĠĠĠĠĠĠĠĠ": 36732,
  "Sportspeople": 43421,
  "Ġtackling": 46710,
  "Div": 15187,
  "opens": 25249,
  "Ġending": 12365,
  "Ġwieder": 46473,
  "ä¾Ľ": 47750,
  "ĠNSF": 42105,
  "ĠJacques": 36063,
  "Ġrenov": 30074,
  "ĠThor": 23077,
  ":{\\": 46186,
  "Ġdisciplines": 32870,
  "Ġacceler": 17308,
  "Respond": 41359,
  "ĠSteam": 28984,
  "bi": 4193,
  "Quote": 33711,
  "vette": 48359,
  "Ġlikes": 13052,
  "meaning": 30407,
  "afia": 41067,
  "oda": 17457,
  "637": 44260,
  "air": 1094,
  "ICU": 43007,
  "driver": 17440,
  "QC": 37556,
  "Ġoccasions": 15530,
  "1940": 38765,
  "Ġvacancy": 44719,
  "ĠOA": 29258,
  "Ġcement": 19165,
  "surface": 26555,
  "ĠDoctors": 48270,
  "Gr": 3594,
  "ely": 600,
  "Ġinexpensive": 27296,
  "Ġproximal": 19561,
  "ĠHK": 39827,
  "Ġchatting": 44096,
  "Ġdiffuse": 21858,
  "åĥı": 44314,
  "Ġembodiment": 14704,
  "value": 2877,
  "ferent": 5652,
  "elled": 5911,
  "Ġemph": 7013,
  "amination": 10899,
  "inical": 9641,
  "Ġtransparent": 13955,
  "ĠPatriots": 33668,
  "Ġrecognizes": 25153,
  "ĠCURL": 44422,
  "ĠHope": 15541,
  "ĠPressure": 45600,
  "Ġwerden": 19748,
  "ĠSERV": 21847,
  "Ġcrop": 17177,
  "ĠCampaign": 27069,
  "Ġpotency": 34604,
  "ĠKaplan": 30615,
  "TYPE": 10560,
  "Ġcharacterized": 7943,
  "ĠFB": 30284,
  "ĠOur": 3824,
  "ĠEsther": 41120,
  "vis": 4534,
  "Ġencoded": 16202,
  "Baby": 44480,
  "Ġlobbying": 40140,
  "ĠTaking": 21525,
  "Ġskill": 10861,
  "prison": 13094,
  "Fo": 48179,
  "illing": 3867,
  "atts": 24729,
  "Change": 13086,
  "Name": 2402,
  "wg": 46506,
  "Select": 10004,
  "mark": 4698,
  "Ġ\"-": 19479,
  "0": 17,
  "raft": 2694,
  "inals": 10529,
  "Applied": 41041,
  "ĠSPSS": 32500,
  "Ġadding": 6240,
  "Ġexaminer": 37981,
  "Ġoath": 25019,
  "Ġreviewing": 16725,
  "Ġhypnot": 45904,
  "187": 17306,
  "imedia": 41022,
  "akespeare": 20259,
  "Ġaug": 14688,
  "hill": 18610,
  "Ġsynthesis": 9066,
  "Ġverse": 23252,
  "usk": 24378,
  "Lemma": 35439,
  "acm": 50232,
  "Ġpeaked": 33404,
  "Ġconsiderably": 15455,
  "ĠEn": 3035,
  "ĠOrdin": 43795,
  "Ġangular": 12336,
  "ĠNut": 20473,
  "stdio": 43930,
  "394": 27463,
  "ĠSource": 12269,
  "Ġcapsule": 26661,
  "Ġdemographics": 35949,
  "Ġinjust": 26349,
  "Ġnational": 3872,
  "seen": 16564,
  "Ġcontrols": 5760,
  "implementation": 39595,
  "ĠAJ": 26060,
  "Ġstump": 48733,
  "ĠGill": 24465,
  "137": 15497,
  "Ġvel": 5828,
  "ĠLight": 10315,
  "Ġillustr": 7339,
  "Ġanalges": 28728,
  "vin": 8498,
  "Ġclonal": 47957,
  "ĠMate": 40758,
  "avy": 17157,
  "ĠChurchill": 27961,
  "Current": 10605,
  "Ġlethal": 25894,
  "pections": 44809,
  "Ġmethyl": 9758,
  "Ġrounds": 16334,
  "Ġmatched": 13373,
  "ĠOz": 31683,
  "ĠSet": 6618,
  "Ġprohibiting": 43987,
  "Ġtod": 15779,
  "ACP": 42263,
  "growth": 25869,
  "Ġvoted": 14285,
  "Ġcytok": 10815,
  "Wrapper": 27757,
  "ĠFront": 15808,
  "Ġmic": 8555,
  "final": 13017,
  "Ġpriced": 33449,
  "Ġguided": 18107,
  "Ġshots": 13768,
  "à¤¹": 30598,
  "Ġprivile": 10385,
  "Appellee": 28107,
  "ĠÄį": 23263,
  "287": 24117,
  "ĠVel": 22484,
  "Ġheterosexual": 45692,
  "Ġunlike": 12401,
  "Ġimpro": 1965,
  "-------------------------------------": 35000,
  "Australian": 35761,
  "WS": 10930,
  "Ġlower": 2406,
  "Ġwhispered": 18017,
  "jh": 34453,
  "yline": 36226,
  "oors": 37371,
  "Ġpopped": 32773,
  "insic": 12003,
  "1911": 49342,
  "Ġconnecting": 12873,
  "FET": 30516,
  "Soft": 38368,
  "Ġdeductions": 45131,
  "Ġhon": 4070,
  "mil": 22009,
  "ĠPeace": 20000,
  "Ġsmoking": 10470,
  "cover": 16484,
  "Ġperiod": 2180,
  "Ġdom": 2328,
  "Ġwasn": 3589,
  "Ġguys": 6068,
  "MSCs": 31412,
  "ĠSunday": 6926,
  "Ġvs": 4632,
  "Ġpromotion": 14892,
  "ĠĠĠĠĠĠĠĠĠĠĠĠĠĠĠĠĠĠĠĠĠĠĠĠĠĠĠĠĠĠĠĠĠĠĠĠĠĠĠĠĠĠĠĠĠĠĠĠĠĠĠĠĠĠĠ": 23913,
  "Ġcomo": 8733,
  "ĠJury": 41670,
  "olver": 14930,
  "ĠCarnegie": 48476,
  "Ġimmunoprecip": 36889,
  "Ġprefers": 41469,
  "Ġ\\<": 4398,
  "Â·": 6256,
  "Ġembodiments": 24898,
  "Ùī": 25378,
  "Ġholding": 5877,
  "Ġassassination": 34024,
  "ĠMarcel": 42430,
  "Ġmanipulations": 49373,
  "Ġversatile": 30708,
  "Ġnvidia": 47181,
  "vel": 652,
  "iple": 2113,
  "osecond": 41157,
  "imm": 12784,
  "pnt": 22137,
  "Ġwanna": 17341,
  "ĠRare": 44605,
  "ÏģÏĮ": 28832,
  "OTAL": 49385,
  "rick": 4662,
  "yg": 11550,
  "vec": 4642,
  "Ġreasons": 4606,
  "OF": 10327,
  "RNA": 3479,
  "ĠMarx": 19381,
  "rm": 1109,
  "ĠTs": 20613,
  "ĠTitle": 13927,
  "ĠWD": 40789,
  "Ġcompilation": 25234,
  "Ġdanced": 39860,
  "Ġanecd": 45697,
  "Ġdiplomat": 41318,
  "Ġtendency": 14955,
  "als": 932,
  ":=\\": 25942,
  "PG": 11070,
  "benef": 31891,
  "ĠArn": 21155,
  "ĠCoul": 24369,
  "Three": 11831,
  "ĠSomerset": 48244,
  "evidence": 22432,
  "USE": 17423,
  "born": 6448,
  "wx": 22358,
  "èĢ": 13180,
  "Observer": 42780,
  "ĠBooker": 45428,
  "Ġaerial": 31319,
  "claims": 28803,
  "logo": 29402,
  "ĠSTRICT": 47528,
  "Ġfarewell": 42076,
  "Global": 18590,
  "Ġincluded": 2908,
  "Ġlimited": 3710,
  "Ġmention": 3748,
  "Ġres": 501,
  "[_": 48701,
  "Ġmetres": 26156,
  "Ġresembles": 29217,
  "Gro": 38650,
  "avat": 47476,
  "lif": 6458,
  "iendo": 47102,
  "des": 3229,
  "urger": 44250,
  "Ġsavage": 40810,
  "inc": 1763,
  "ĠCharg": 36355,
  "ida": 4355,
  "Ġavailability": 11659,
  "Ġrigidity": 40350,
  "Ġtaxp": 15479,
  "nier": 36366,
  "ĠLINEAR": 48980,
  "Ġpress": 2315,
  "Ġvessels": 12671,
  "elligent": 46207,
  "Â´": 11679,
  "Ġconjugated": 33502,
  "Ġrented": 33437,
  "Ġaffordable": 18261,
  "Ġtexture": 14542,
  "Ġvalve": 11059,
  "Ġseem": 1646,
  "Ġpi": 12580,
  "ilinear": 40511,
  "Ġxml": 10366,
  "Book": 12323,
  "locked": 30730,
  "ounge": 27351,
  "Ġ\\}": 31858,
  "what": 5371,
  "ĠInstitute": 6516,
  "æĶ¹": 43316,
  "ĠPATH": 46536,
  "Ġanalogue": 28046,
  "Ġdata": 941,
  "Ġfinds": 9010,
  "Ġkw": 41291,
  "lique": 29265,
  "quant": 17149,
  "ĠQuarter": 29787,
  "Ġcurriculum": 24642,
  "ĠTEST": 31993,
  "Ġeighth": 23738,
  "ĠkDa": 30527,
  "129": 13482,
  "Ġparlament": 30252,
  "assertEqual": 34046,
  "INO": 48868,
  "escence": 34201,
  "ãĥ¼": 6996,
  "Ġdocker": 36191,
  "Ġpeaks": 13596,
  "Ġpussy": 35614,
  "ĠDaddy": 32398,
  "ĠjÃ¡": 36252,
  "Ġsynonymous": 39882,
  "æĢĿ": 35636,
  "/-/": 30754,
  "Ġprocessor": 13732,
  "Ġsummation": 36138,
  "inian": 34923,
  "agic": 12795,
  "inia": 41214,
  "ĠKit": 12418,
  "Neil": 41539,
  "Ġcanopy": 39625,
  "Ġcorps": 23493,
  "aution": 45384,
  "Ġarithmetic": 27844,
  "Ġcompression": 13800,
  "Ġexcused": 48504,
  "DT": 15580,
  "Measure": 30563,
  "ank": 1164,
  "ahoo": 20888,
  "ghan": 12608,
  "Street": 42992,
  "Columns": 32641,
  "pathetic": 46348,
  "Ġ194": 26771,
  "Ġdesirable": 11408,
  "Ġask": 1642,
  "Ġexploded": 31032,
  "Ġhack": 13908,
  "ĠCBS": 21946,
  "]{},": 3455,
  "emos": 20789,
  "Ġidentifies": 22649,
  "Ġplanning": 7219,
  "Ġpolym": 9871,
  "Ġincorporating": 24049,
  "Ġpos": 803,
  "Ġlegislation": 10843,
  "Ġbehaviours": 32536,
  "µ": 115,
  "Ġbounce": 31888,
  "Ġeng": 2209,
  "Ġentails": 36782,
  "swing": 34259,
  "icture": 14083,
  "Ġlions": 44536,
  "Ġathletic": 24122,
  "Ġthemes": 16876,
  "ĠKhal": 35667,
  "**,**": 44862,
  "ĠMIC": 29120,
  "strom": 27621,
  "Ġ554": 47053,
  "Construct": 49284,
  "Ġ73": 11087,
  "Bin": 38601,
  "ilot": 33236,
  "Ġbadly": 16426,
  "Ġfalse": 3221,
  "Ġnewcom": 38782,
  "Ġaltitude": 28036,
  "ĠCold": 20754,
  "Ġplasticity": 30535,
  "user": 4537,
  "Ġmediated": 14946,
  "->_": 24815,
  "might": 22732,
  "ÏĦÎ®": 43242,
  "rypted": 20814,
  "Ð¸": 1389,
  "åĢ¼": 40969,
  "ĠPAN": 41687,
  "ĠHicks": 41097,
  "Ġcigarettes": 25539,
  "Ġexplorer": 46041,
  "Ġrecited": 49064,
  "Ġspoken": 13452,
  "Ġstal": 32481,
  "876": 35432,
  "Ġtown": 3874,
  "Ġtransmembrane": 33809,
  "ractive": 36484,
  "Ġsalt": 7043,
  "Ġforeground": 35936,
  "Ġdistorted": 32408,
  "Chars": 45132,
  "anton": 27813,
  "Ãª": 5437,
  "ĠStack": 24544,
  "Ġdiscussing": 16585,
  "Ġincidence": 9364,
  "ĠCorrelation": 44541,
  "Ġ1903": 40937,
  "Permission": 38247,
  "ĠMum": 34701,
  "568": 48699,
  "\\%": 19182,
  "ĠBennett": 26853,
  "organization": 25590,
  "Ġthreaten": 29138,
  "ĠJenny": 36097,
  "ĠOTHER": 19359,
  "Ġwr": 1488,
  "Ġfavoured": 46680,
  "Ġfixture": 34188,
  "ĠFirm": 38541,
  "lla": 14797,
  "ĠKa": 15366,
  "DN": 29681,
  "ĠCitizens": 30299,
  "Ġleverage": 25057,
  "ĠWill": 7395,
  "ibly": 4360,
  "Ġencouragement": 31868,
  "riterion": 41634,
  "ĠHoward": 15197,
  "Ġpred": 2063,
  "Ġmeu": 48743,
  "Ġasym": 8285,
  "Ġquantitative": 11745,
  "Ġtask": 4836,
  "Ġvaluable": 9865,
  "Î¼": 3955,
  "CRIPTION": 33480,
  "Âļ": 20054,
  "ĠAntonio": 18089,
  "Ġconstructor": 16757,
  "Ġ1862": 45834,
  "ë¡ľ": 35296,
  "PL": 3859,
  "ĠLOSS": 45104,
  "Ġdi": 1073,
  "ĠØ£": 23207,
  "Ġbehaving": 50090,
  "ymp": 43768,
  "ĠNT": 20483,
  "Ġturning": 8577,
  "squ": 23600,
  "ĠRussia": 7422,
  "trained": 32927,
  "':'": 47499,
  "ĠRoy": 14655,
  "VE": 12695,
  "inafter": 21532,
  "Ġsparkling": 45531,
  "ĠState": 2418,
  "Ġphy": 39758,
  "ĠNorwegian": 25771,
  "ĠGas": 18644,
  "],": 1092,
  "SD": 3871,
  "Ġ444": 37688,
  "ĠVec": 43876,
  "ĠLock": 19989,
  "}}}}$": 35937,
  "Arm": 22552,
  "**--**": 35496,
  "Ġ777": 47136,
  "Ġscient": 4970,
  "Ġuterine": 33613,
  "Ġstitches": 46870,
  "ĠGibbs": 36641,
  "Ġflash": 10299,
  "Ġrecol": 28433,
  "ĠJazz": 33216,
  "crime": 44460,
  "ĠDar": 11128,
  "ĠScott": 7493,
  "*/": 8480,
  "end": 423,
  "Ġcephal": 48814,
  "633": 49754,
  "Ġbloggers": 41982,
  "olars": 10731,
  "057": 30768,
  "ĠShim": 41675,
  "Ġfingert": 41719,
  "Ġsporting": 28802,
  "Ġpivot": 26376,
  "nov": 30568,
  "Ġsequences": 6430,
  "ĠmiR": 9844,
  "Ġmoiety": 37772,
  "Ġredesign": 45755,
  "ienced": 33574,
  "detection": 49558,
  "ĠStrick": 40772,
  "reat": 675,
  "Ġcomparison": 5301,
  "Pages": 38496,
  "slow": 31200,
  "formation": 1248,
  "Ġelif": 29004,
  "Ġglad": 9995,
  "Ġpromot": 8760,
  "Ġspecs": 41135,
  "Ġsuccessor": 24193,
  "ĠShort": 14196,
  "Ġeffects": 2538,
  "Ġperceptions": 24789,
  "ĠMarcus": 24336,
  "vertisement": 27583,
  "ĠNetherlands": 16333,
  "ors": 641,
  "Ġexhausted": 20802,
  "ACC": 15804,
  "idge": 3526,
  "lessness": 23786,
  "Ġlinks": 4859,
  "asan": 46499,
  "Ġprosecutors": 27355,
  "Ġrebounds": 41531,
  "179": 17864,
  "enden": 27793,
  "Ġcomes": 3249,
  "Ġgard": 15934,
  "ulif": 49438,
  "Ġsuitability": 45984,
  "eless": 6134,
  "Ġ102": 12197,
  "Ġlament": 32981,
  "OW": 4290,
  "obic": 12789,
  "Ġrealization": 22786,
  "Ġspiked": 48649,
  "lessly": 13102,
  "osine": 22060,
  "ĠPeru": 31805,
  "Ġtablespoons": 18850,
  "June": 18948,
  "Ġtesting": 5175,
  "Ġnormalized": 12650,
  "Ġtokens": 21761,
  "Ġpoultry": 34664,
  "Ġfirefighters": 45399,
  "ĠKarn": 42948,
  "Ġgateway": 28894,
  "Ñĭ": 4141,
  "Ġprospective": 13893,
  "Ġtermed": 23776,
  "}{-": 8699,
  "855": 31013,
  "Alloc": 33715,
  "omorphic": 13468,
  "Submit": 38403,
  "okin": 25980,
  "Ġ01": 14805,
  "ĠIter": 29516,
  "ĠSquad": 26436,
  "Ġaddition": 1635,
  "Ġidiopathic": 46075,
  "Ġread": 1239,
  "ĠEconomics": 31015,
  "Ġ((-": 12374,
  "éł": 27661,
  "ines": 1100,
  "Ġaest": 18079,
  "Ġpuzzles": 43884,
  "Ġsighed": 21374,
  "Ġ=\\": 14680,
  "ãģ®": 3917,
  "TAB": 47015,
  "mart": 20707,
  "ĠCoach": 28466,
  "Ġspecializes": 46259,
  "Rand": 47495,
  "ĠSaul": 42009,
  "Ġsetup": 9978,
  "ĠìŀĪ": 44799,
  "ĠHollow": 40776,
  "ĠSEM": 18555,
  "Ġpupils": 30980,
  "ĠEnter": 10871,
  "textstyle": 36718,
  "ĠRec": 4568,
  "Ġcrystallization": 46129,
  "Ġporcine": 43320,
  "ĠXen": 40108,
  "izer": 6081,
  "Ġphenomena": 16958,
  "Ġexposures": 28012,
  "Ġraison": 48089,
  "cert": 15004,
  "ĠEve": 17363,
  "ĠScandin": 40261,
  "Ġaccessing": 24497,
  "uent": 25568,
  "Ġcombines": 24772,
  "Ġmay": 778,
  "Ġpaw": 44802,
  "Io": 38340,
  "float": 9599,
  "Sche": 12857,
  "okes": 7095,
  "LLOW": 47689,
  "vac": 28902,
  "æĶ¯": 45314,
  "atchewan": 46738,
  "Ġ****": 33684,
  "employed": 47749,
  "ĠRH": 32614,
  "ĠMental": 29077,
  "Ġdad": 12247,
  "Ġinfinity": 23579,
  "ĠInspector": 31881,
  "Ġinterpret": 4665,
  "statements": 48639,
  "Ġmessed": 43303,
  "Ġmobile": 6109,
  "Ġoc": 15715,
  "ĠSign": 8714,
  "ĠBrasil": 46253,
  "Ġranch": 34034,
  "Ġdisappe": 8321,
  "Ġorgans": 15384,
  "Ġsanit": 44368,
  "Ġwheelchair": 37962,
  "$^{-": 13668,
  "Raw": 24436,
  "ĠIrene": 47613,
  "Ġaut": 1125,
  "Ġpens": 17113,
  "Ġcomplainant": 47461,
  "Ġbounced": 45394,
  "umor": 15502,
  "Por": 30641,
  "eker": 44691,
  "Ġspiritual": 12435,
  "iles": 3205,
  "ĠSpirit": 14559,
  "mund": 27778,
  "Ġintercourse": 33755,
  "quered": 35551,
  "url": 6434,
  "usta": 38334,
  "Ġpestic": 27172,
  "Ġsolar": 9666,
  "Ġgrassroots": 46509,
  "cules": 4939,
  "ĠParadise": 40577,
  "ÂĪÂĳ": 46230,
  "Ġissues": 3374,
  "ĠWS": 31364,
  "Ġfaded": 28290,
  "iolet": 16900,
  "éĻ": 17783,
  "059": 30479,
  "VIS": 24375,
  "magnetic": 41947,
  "supset": 44188,
  "ĠKitchen": 31990,
  "ĠSey": 49015,
  "ĠJason": 16553,
  "ĠMah": 12828,
  "gester": 33935,
  "-*": 13023,
  "nost": 41752,
  "ogl": 11816,
  "ĠRabbi": 46005,
  "Ġbathing": 44547,
  "Ġinvariants": 38318,
  "Ġnod": 6913,
  "don": 9903,
  "Ġ273": 31282,
  "ĠAmericans": 7108,
  "ĠWant": 29430,
  "Ġcoe": 6161,
  "Ġdevoid": 36757,
  "Ġlicense": 7981,
  "Ġwal": 10250,
  "à¸µà¹Ī": 48016,
  "Ġhorm": 10101,
  "neider": 34629,
  "ĠAPPEALS": 24730,
  "movie": 46829,
  "Ġacuity": 43457,
  "ĠDevice": 27048,
  "ĠJust": 3771,
  "Ġdecorations": 45069,
  "Ġwhites": 19991,
  "itt": 770,
  "HV": 22984,
  "ilingual": 39661,
  "ILY": 37784,
  "FFIRMED": 28696,
  "bin": 4805,
  "Ġstorms": 33387,
  "Ġtestifying": 49190,
  "Ġaroused": 48247,
  "ilion": 39563,
  "ĠAllow": 32664,
  "Ġestablishing": 14631,
  "odont": 32430,
  "pg": 8159,
  "Ġvolumes": 14118,
  "eas": 19010,
  "ĠGallery": 21778,
  "Ġdangerous": 8312,
  "Ġ560": 37378,
  "Ġstroke": 9980,
  "ĠE": 444,
  "Mac": 13815,
  "seeing": 30546,
  "96": 4196,
  "Ġmanifestation": 30198,
  "93": 4590,
  "Exper": 18139,
  "Ġencounter": 13329,
  "Ġmankind": 28473,
  "1979": 18647,
  "Typ": 12117,
  "):=": 38132,
  "fall": 12615,
  "Ġpresentations": 27228,
  "Ġsymm": 6248,
  "ÂĤ": 8381,
  "Ð¸ÑĤÐµ": 21387,
  "ĠDj": 43050,
  "ĠAnnex": 45326,
  "Ġminors": 36973,
  "Ġmeetings": 12225,
  "sburg": 45570,
  "Ġgains": 15988,
  "ĠÃ¤n": 47203,
  "Ġdevil": 22144,
  "spi": 37640,
  "/'": 44670,
  "filled": 14653,
  "Ġ'+": 47526,
  "Ġfurther": 2007,
  "Ġimmunohistochemistry": 35311,
  "Ġmuy": 28309,
  "825": 44439,
  "Ġpatches": 20412,
  "Ġtissue": 4408,
  "Ġmediate": 28641,
  "æĿ¥": 24370,
  "theta": 3124,
  "ĠJerem": 21235,
  "Ð°Ð": 2467,
  "ĠQi": 44531,
  "ĠVitamin": 39944,
  "Ġupright": 24922,
  "ĠOF": 3481,
  "ibaba": 48748,
  "Ġpersisted": 32178,
  "Ġtrailing": 28417,
  "Ġphantom": 35698,
  "Ġexisted": 13164,
  "ĠUtil": 28218,
  "CPP": 39600,
  "Ġhast": 16579,
  "Ġcontiguous": 41248,
  "Ġpy": 7239,
  "Ġpoisoned": 47494,
  "ĠProl": 46484,
  "TW": 36584,
  "Ġepithelial": 13923,
  "ĠGonzales": 50112,
  "Ġsatisfying": 14127,
  "Ġ!!": 40040,
  "ĠScout": 42307,
  "Ġcleaning": 12478,
  "ĠÏĦÏīÎ½": 32681,
  "licts": 37693,
  "icol": 20917,
  "Ġevents": 3394,
  "Ale": 44163,
  "Ġfavorably": 49148,
  "icer": 35467,
  "ĠStir": 27131,
  "ĠThornton": 50087,
  "Ġils": 38934,
  "Ġobese": 21967,
  "Ġovary": 43735,
  "Ñĩ": 4435,
  "Ġsubtraction": 38171,
  "achment": 8941,
  "media": 8236,
  "ĠBre": 7528,
  "Ġspan": 13905,
  "sensor": 46103,
  "'''": 35033,
  "ĠConsc": 49143,
  "ĠMild": 49671,
  "Ġcer": 15733,
  "ode": 853,
  "ĠBarcelona": 24639,
  "ĠRobertson": 34405,
  "ĠRena": 30958,
  "ĠWellington": 42337,
  "String": 2776,
  "Ġincomp": 15321,
  "Ġjur": 5099,
  "vor": 19449,
  "Ġsat": 2206,
  "idian": 31517,
  "Ð¾Ð»": 7869,
  "Ġ11": 1903,
  "Ġcontrib": 43608,
  "International": 22817,
  "Ġaccording": 2556,
  "Ġoverhaul": 46626,
  "Ġá¼Ģ": 40171,
  "ocyte": 10833,
  "Sat": 20794,
  "Ġassembling": 44015,
  "Ġbacked": 17245,
  "Ġcompeted": 29177,
  "LIST": 23422,
  "Ġdetachment": 36832,
  "uar": 37502,
  "Ġduration": 7467,
  "Ġmun": 46131,
  "Ġbeloved": 21426,
  "Ġnear": 2822,
  "inher": 27040,
  "obs": 10600,
  "Ġcreatures": 17268,
  "WT": 16594,
  "Ġgeodes": 28600,
  "Playing": 49579,
  "ĠCastle": 18732,
  "ĠComissÃ£o": 48346,
  "Ġpylori": 35912,
  "icul": 10152,
  "gems": 36851,
  "ĠChad": 34884,
  "ĠCash": 27020,
  "Ġshredded": 46314,
  "Ġspelled": 43997,
  "iana": 8960,
  "ifax": 41653,
  "ocated": 30510,
  "Ø«": 37424,
  "ceptions": 14233,
  "icht": 11014,
  "ĠComedy": 44948,
  "ĠMUS": 46305,
  "Types": 15668,
  "ited": 959,
  "ĠFIR": 48288,
  "Ġactivation": 5743,
  "ĠKirk": 22579,
  "Ġheadquarters": 17929,
  "Ġincarceration": 38886,
  "corn": 30736,
  "Ġonwards": 39210,
  "ĠDeg": 30114,
  "Ġaccounted": 20184,
  "ĠElectronic": 31029,
  "absorption": 47119,
  "ampton": 32362,
  "ases": 1169,
  "five": 12071,
  "erge": 15811,
  "ãĤ¤": 13682,
  "20": 938,
  "MPL": 45590,
  "Ġmultic": 23559,
  "Ġweakly": 22112,
  "Ġinvention": 3688,
  "Ġlemon": 18616,
  "aches": 3844,
  "HG": 28658,
  "serial": 25836,
  "ĠInteger": 22008,
  "Ġcmd": 20390,
  "amphetamine": 35877,
  "ĠN": 427,
  "ORM": 25201,
  "hered": 23258,
  "Ð»ÑĮ": 39435,
  "ĠFarmers": 43614,
  "Ġdecisions": 7089,
  "Ġformulations": 26850,
  "626": 47059,
  "ste": 3241,
  "ĠRecent": 19863,
  "ĠSally": 32577,
  "Ġaccessible": 12482,
  "Ġillegally": 30060,
  "Ġprobable": 14051,
  "Guide": 48103,
  "993": 35410,
  "alm": 27507,
  "ĠOrche": 35075,
  "Ġentertainment": 14608,
  "inkle": 22064,
  "Ġform": 830,
  "Ġseriously": 10369,
  "Ġtrenches": 44297,
  "]": 62,
  "Ġconsistency": 15274,
  "Ġnecessary": 3309,
  "ĠAlic": 49350,
  "Ġcommittee": 9353,
  "Require": 42406,
  "ĠEth": 10570,
  "ĠStrategic": 40456,
  "Ġmysterious": 19796,
  "haps": 3556,
  "request": 9629,
  "474": 30413,
  "Ġbovine": 21963,
  "Performance": 35975,
  "scripts": 26804,
  "èĭ": 38672,
  "Ġds": 20505,
  "Ġcv": 30105,
  "Ġexperimental": 5661,
  "Ġhydro": 4101,
  "Ġmourn": 47680,
  "Ġoppose": 25437,
  "Ġresort": 17942,
  "Ġstarch": 31001,
  "Ġmug": 33222,
  "NF": 8016,
  "etra": 49434,
  "Ã¤m": 18453,
  "relim": 26827,
  "Ġwaking": 31582,
  "ĠCatal": 17684,
  "ĠBaseball": 27141,
  "Ġskepticism": 44730,
  "Ġan": 271,
  "geois": 33488,
  "atype": 39960,
  "Ġcommented": 20503,
  "ĠInfrastructure": 48429,
  "Ġcompartments": 31441,
  "Ġtutorial": 23647,
  "Ġwelcoming": 33398,
  "Ġhusband": 5938,
  "ificate": 10735,
  "aren": 6950,
  "Ġgrateful": 14442,
  "Ġscraping": 47232,
  "Ġtra": 1140,
  "Ġwebs": 3829,
  "redients": 46580,
  "čĊĠĠĠĠĠĠ": 41689,
  "HCl": 37499,
  "stroke": 26000,
  "Ġappe": 1393,
  "needs": 50234,
  "0019": 33416,
  "QP": 30570,
  "ediatric": 41816,
  "ĠJupiter": 34434,
  "ĠKub": 40407,
  "falls": 27366,
  "ĠFurther": 3840,
  "803": 28953,
  "ĠPok": 24323,
  "Ġclearing": 22980,
  "Ġremoval": 8570,
  "rese": 43038,
  "Ġbreathed": 39085,
  "foreign": 37380,
  "Ġpetitioner": 11810,
  "Ġtransit": 18622,
  "agonal": 21805,
  "Ġounces": 28409,
  "ĠÂ§Â§": 20485,
  "Ġuncovered": 27819,
  "Ġkinase": 11725,
  "Ġany": 667,
  "acebook": 6145,
  "Ġcoloured": 37220,
  "Ġnaj": 45520,
  "erialize": 44350,
  "Ġhelper": 25557,
  "Speaking": 28326,
  "Ġportable": 18001,
  "illy": 9352,
  "ĠYouTube": 15167,
  "ĠHAR": 48302,
  "ĠMcD": 30946,
  "Ġdesigners": 22507,
  "Ġmolar": 34085,
  "Ġexamination": 8368,
  "gorith": 4100,
  "ober": 2672,
  "Ġ387": 37516,
  "Ġinclination": 30388,
  "ĠWerner": 47050,
  "Runner": 34102,
  "äº": 5494,
  "Ġramp": 18556,
  "PSS": 21851,
  "Ġanticancer": 38360,
  "Ġligands": 22056,
  "Topic": 46167,
  "ĠWoman": 23724,
  "Ġfoi": 27052,
  "Ġmarker": 10705,
  "Ġmindset": 36231,
  "cycl": 12642,
  "Â¢": 23696,
  "Ġmissionary": 42938,
  "ÃĥÃĤÃĥÃĤ": 17030,
  "ĠBad": 15350,
  "ĠPig": 40274,
  "ĠPartners": 33556,
  "point": 3659,
  "Ġ25": 2030,
  "ĠThanksgiving": 32678,
  "Ġbulk": 10713,
  "eye": 30978,
  "pcm": 35521,
  "ĠZhang": 22114,
  "Ġmy": 619,
  "Ġrefugees": 19382,
  "Ġbun": 34258,
  "always": 25737,
  "098": 41345,
  "liter": 22478,
  "ook": 645,
  "Ġintends": 31901,
  "Ġname": 1416,
  "separator": 37734,
  "Ġ$^{": 19219,
  "ventional": 26743,
  "Ġregulation": 7248,
  "Ġspoil": 46164,
  "643": 31730,
  "xyz": 35609,
  "ĠFacility": 36503,
  "Ġbrilliant": 15925,
  "Ġdecomposed": 45765,
  "actory": 6697,
  "itel": 49311,
  "ĠKnowledge": 28003,
  "Ġgolden": 14072,
  "Ġpil": 7861,
  "Ġagenda": 15990,
  "Ġexplosions": 42554,
  "842": 41612,
  "oire": 33800,
  "eworthy": 32273,
  "case": 5045,
  "ĠChi": 18907,
  "avor": 15100,
  "erc": 2269,
  "Ax": 19820,
  "ÏħÏĦ": 30935,
  "Ġacclaimed": 42445,
  "Expected": 35481,
  "Ġdiastolic": 33767,
  "Ġmaking": 2403,
  "aterial": 1585,
  "Ġobligated": 37782,
  "Application": 12332,
  "ĠTibetan": 41592,
  "ĠVO": 34152,
  "$.[]{": 49021,
  "Coll": 19013,
  "aje": 32444,
  "Ġpleading": 26412,
  "Ġshe": 703,
  "ĠHenri": 33294,
  "romagnetic": 13957,
  "ĠKris": 37204,
  "My": 3220,
  "algia": 32836,
  "Ġpeoples": 22132,
  "Ġturbines": 48159,
  ":&": 44662,
  "rupt": 3787,
  "phony": 39901,
  "ira": 8432,
  "ĠKaw": 36288,
  "forcement": 19503,
  "ĠBass": 28219,
  "Ġpersons": 7732,
  "Ġrated": 20139,
  "ĠOregon": 15427,
  "ĠĊĠ": 4928,
  "ĠPenn": 24263,
  "ĠCd": 27565,
  "Ġstaging": 28727,
  "ĠEP": 16602,
  "ucl": 13340,
  "Å": 129,
  "Ġlocations": 8593,
  "hti": 45161,
  "mur": 29050,
  "Ġcarrot": 47215,
  "Ē": 195,
  "Ġattackers": 40567,
  "Ġfaces": 9365,
  "Ġrhetoric": 26527,
  "accum": 48925,
  "Ġthr": 7635,
  "],[@": 2947,
  "Ari": 44893,
  "ĠEducation": 10286,
  "Ġprovinces": 26020,
  "ĠCAS": 34710,
  "Ġquadratic": 21396,
  "Ġtape": 11173,
  "Ġvibe": 45700,
  "prom": 13382,
  "ĠJudith": 46389,
  "ĠMayor": 18308,
  "things": 28579,
  "Ġadditions": 30733,
  "udd": 7937,
  "ĠJe": 4591,
  "Ġpuis": 40711,
  "Ġtre": 2578,
  "Ġlook": 1007,
  "Ġinduct": 21782,
  "ĠSum": 7069,
  "STRING": 24458,
  "èĥ½": 20287,
  "fred": 17408,
  "Ġflow": 2685,
  "Ġmonthly": 13056,
  "Separ": 38830,
  "ubicin": 38632,
  "Ġscenarios": 15216,
  "lat": 13324,
  "Ġshould": 943,
  "Ġprecedent": 19440,
  "Ġbioactive": 45613,
  "velle": 45716,
  "vartheta": 23997,
  "ĠDr": 3196,
  "Ġ[<": 43521,
  "Ġmonet": 48938,
  "Î¯": 6450,
  "afen": 44585,
  "äºİ": 30329,
  "Ġrecon": 8756,
  "Ï": 139,
  "Ġsatisf": 3449,
  "Ġscanner": 25152,
  "_{+": 27860,
  "ï¼Ī": 14236,
  "JUST": 49594,
  "Ġdisabled": 13603,
  "Paths": 46333,
  "Theta": 12183,
  "elines": 25379,
  "ĠKnown": 41570,
  "ificial": 11232,
  "Ġ2013": 4072,
  "ĠBlog": 20299,
  "ĠVL": 26387,
  "Ġphotons": 20370,
  "Ġpools": 24283,
  "Ġhar": 4230,
  "ĠJudah": 49548,
  "Ġviolence": 7217,
  "Ġconsensus": 13969,
  "Ġauditory": 26618,
  "ĠGarcia": 26424,
  "ĠSeems": 50140,
  "Ġsegments": 13288,
  "antics": 28601,
  "ay": 333,
  "ilib": 9746,
  "ĠMaxwell": 28200,
  "Ġsolve": 8415,
  "Ġactivists": 18158,
  "rientation": 34515,
  "typen": 15224,
  "à¤²": 29903,
  "nant": 45886,
  "cans": 40786,
  "MRI": 22410,
  "Ġmerry": 49570,
  "ĠBuilder": 42489,
  "Ġsumm": 14568,
  "063": 37253,
  "FV": 42972,
  "Ġwritings": 25527,
  "park": 30844,
  "Ġintended": 6034,
  "Ġpounds": 12511,
  "umbles": 45143,
  "reign": 46219,
  "Ġ978": 34292,
  "âĢ¦": 2866,
  "Fn": 31766,
  "ĠSAS": 33918,
  "Ġdeve": 34344,
  "Ġexponents": 41025,
  "Ġptr": 27028,
  "ptions": 6372,
  "256": 9726,
  "572": 42763,
  "Ġcreepy": 43152,
  "ipers": 48412,
  "contains": 24634,
  "enron": 36898,
  "Ġaffected": 5876,
  "ĠHannah": 28518,
  "Match": 21008,
  "Ġunpublished": 27085,
  "ĠReviews": 31349,
  "Ġcared": 24782,
  "Ġsomatic": 28833,
  "oulder": 35233,
  "STAT": 11708,
  "Logger": 26428,
  "IBLE": 38274,
  "].\"": 47744,
  "Ġzomb": 29567,
  "ocytic": 25764,
  "ĠConsumer": 30549,
  "nut": 8712,
  "ĠAns": 42259,
  "Sort": 15462,
  "Ġgrandchildren": 38634,
  "ĠDeterm": 29739,
  "Ġpyro": 44993,
  "Days": 41430,
  "Fields": 24306,
  "aten": 15030,
  "Ġpleaded": 23383,
  "Ġoste": 10160,
  "citation": 26977,
  "inition": 10991,
  "verted": 13083,
  "à¬": 26601,
  "ĠWorkers": 24136,
  "ĠDS": 20807,
  "Ġcustod": 39513,
  "Mm": 32611,
  "Ġdocs": 27586,
  "Ġtransmits": 41785,
  "æĸ¹": 20005,
  "Ġhur": 7929,
  "Â©": 17737,
  "/(-": 5584,
  "Ġchim": 19114,
  "GA": 7283,
  "called": 8890,
  "1600": 34691,
  "âĢ²,": 37243,
  "ĠCare": 9776,
  "ĠChristina": 47831,
  "Ġcontributing": 15979,
  "ibase": 32119,
  "Ġinterrogation": 31197,
  "IRED": 44780,
  "ĠAu": 18940,
  "čĊĉ": 7951,
  "Ġmartial": 29731,
  "Ġredirect": 21124,
  "Ġtold": 2183,
  "imir": 23036,
  "Ġwait": 3343,
  "chini": 46635,
  "Hig": 34969,
  "Ġwounds": 19952,
  "Ald": 22088,
  "undefined": 31549,
  "Ġcausality": 46449,
  "Ġparticipates": 45347,
  "*~": 3853,
  "Ġandere": 40200,
  "Ġmeanwhile": 26614,
  "Ġenzym": 6085,
  ")));": 23090,
  "Aud": 18142,
  "Ġsoldiers": 9647,
  "Ġtowel": 29861,
  "claim": 7041,
  "ĠBedford": 47677,
  "OWN": 15122,
  "Ġvolcanic": 44091,
  "ĠCategory": 26891,
  "zÄħ": 41338,
  "ething": 1526,
  "ĠBorg": 39561,
  "were": 12796,
  "Ġkillings": 40139,
  "__.": 47977,
  "aient": 35493,
  "s": 84,
  "ĠSalvador": 39351,
  "ĠUsers": 28100,
  "Ġassemblies": 25502,
  "Ġig": 25477,
  "Ġshared": 6096,
  "raphic": 41507,
  "Ġtheatrical": 38882,
  "Ġwildly": 32251,
  "712": 48063,
  "Ġstructures": 5289,
  "706": 28166,
  "deck": 43677,
  "ĠChow": 49573,
  "ĠMechanical": 46523,
  "ĠPlato": 36353,
  "projects": 31224,
  "ruct": 957,
  "Ġglyc": 16067,
  "Ġlog": 2412,
  "Ġmsgid": 44579,
  "ĠProducts": 23910,
  "Ġhistone": 28410,
  "870": 49087,
  "Ġinstructor": 30498,
  "Ġdeclar": 18600,
  "Ġ{(": 48469,
  "Ġmalignancies": 36929,
  "1992": 13895,
  "adapt": 26672,
  "onsense": 49235,
  "rens": 25083,
  "ĠStatic": 48435,
  "41": 3156,
  "ĠSullivan": 26211,
  ",.": 23659,
  "Ġconsist": 2882,
  "Ġgroup": 1387,
  "åŁ": 26581,
  "correct": 28113,
  "HW": 24023,
  "718": 49909,
  "molecules": 10322,
  "ĠMinn": 12498,
  "Ġclearance": 17998,
  "Ġ*": 475,
  "ä»ĸ": 24446,
  "nw": 47938,
  "Ġdietary": 15048,
  "sever": 26219,
  "âĹ": 27739,
  "Ġdigging": 28063,
  "ĠMd": 31107,
  "dl": 11830,
  "Ġbanc": 30973,
  "Regex": 41445,
  "urns": 10029,
  "Ā": 177,
  "Queen": 38997,
  "plants": 26754,
  "čĊĠ": 4256,
  "ographically": 32414,
  "JS": 15253,
  "olar": 6062,
  "âĢľ[": 48392,
  "Ġ);": 5349,
  "ĠLOVE": 36996,
  "Ġfinale": 36454,
  "lm": 20347,
  "Ġfragmentation": 27159,
  "Ġinputs": 14800,
  "basic": 21705,
  "Ġmillenn": 24933,
  "Ġpercutaneous": 41715,
  "Ġethical": 16289,
  "Ġphotograp": 15536,
  "nl": 13307,
  "idel": 5735,
  "nose": 48848,
  "iary": 7855,
  "Ġ182": 25985,
  "Ġunsigned": 10698,
  "Ġ----": 18218,
  "YLE": 45429,
  "Ġoxidized": 37201,
  "Ġaccidentally": 26187,
  "gate": 15353,
  "ĠWang": 17868,
  "Ġcrystall": 14666,
  "Ġnonex": 44382,
  "Ġrecession": 29276,
  "ĠNe": 3532,
  "Ġreduct": 27556,
  "Ġfolk": 19365,
  "Ġstove": 33360,
  "ela": 7896,
  "Ġcoales": 40405,
  "Ġ335": 32575,
  "Ġ77": 10484,
  "ĠÃŃ": 37133,
  "Third": 25110,
  "Ġherbs": 27495,
  "ĠDub": 20065,
  "args": 8854,
  "Ġ*=": 38825,
  "Ġcolleagues": 11651,
  "mortem": 44307,
  "Ġbrackets": 26609,
  "ĠGraph": 15941,
  "Ġbeliever": 44715,
  "Resolver": 35964,
  "Ġcelebrate": 17019,
  "JJ": 39540,
  "counsel": 41308,
  "anguage": 2848,
  "Ġcrush": 30582,
  "Ġradiation": 7742,
  "ĠStra": 19967,
  "Ġscreaming": 22233,
  "ĠhÃ¶": 40109,
  "Ġ318": 33705,
  "-\"": 46241,
  "Ġunemployed": 35700,
  "Err": 3810,
  "ÎŃ": 9203,
  "Ð²ÐµÑĢ": 47659,
  "Ġautor": 26041,
  "shield": 32770,
  "eligible": 43851,
  "ODULE": 25517,
  "ĠEV": 9463,
  "Ġcoincides": 30150,
  "Ġparchment": 46391,
  "Ġproposes": 29328,
  "Ġrid": 8314,
  "cache": 12985,
  "Ġreliably": 27340,
  "ystems": 24926,
  "toc": 32387,
  "Ġsupposed": 6326,
  "odal": 26306,
  "Org": 43129,
  "315": 23580,
  "john": 34276,
  "Ryan": 38200,
  "android": 9152,
  "ĠIl": 11090,
  "Ġ----------": 16213,
  "ĠLilly": 46612,
  "ĠMunich": 32000,
  "Ġdemographic": 18825,
  "Ġ::": 12590,
  "Ġimmob": 24892,
  "Ġupgrad": 20682,
  "Ġsubjective": 17854,
  "YR": 18352,
  "Ġcircadian": 38261,
  "Ġpits": 40351,
  "Ġrear": 10581,
  "aving": 3292,
  "Ġdiscusses": 25339,
  "Ġtiene": 31918,
  "Ġhorizon": 16892,
  "succ": 45992,
  "ĠMaria": 17100,
  "Ġbalance": 6654,
  "Ġ124": 17294,
  "enu": 8309,
  "Ġ>": 2239,
  "Ġperhaps": 4931,
  "piration": 43011,
  "escent": 40513,
  "157": 15882,
  "ERR": 8015,
  "ithmic": 29229,
  "Touch": 29330,
  "sales": 44178,
  "Ġestar": 39434,
  "Ġcontamination": 17969,
  "ĠNeed": 20389,
  "rients": 11539,
  "orro": 38067,
  "LD": 9803,
  "Ġrecommending": 46705,
  "Ġcollaborative": 27549,
  "ALK": 31545,
  "Ġpreferential": 41637,
  "Ġhalf": 2716,
  "ĠEurop": 13124,
  "measure": 30238,
  "ringes": 45324,
  "amily": 6404,
  "á½Ĳ": 43182,
  "ĠProte": 8694,
  "ĠTi": 15984,
  "Ġripped": 30548,
  "IOException": 38487,
  "ĠHor": 12294,
  "Ġprovocative": 49317,
  ".),": 11507,
  "atican": 31725,
  "Ġ1925": 31610,
  "åĿ": 31902,
  "ovich": 23303,
  "ĠBengal": 37063,
  "ĠBl": 2071,
  "^-": 8011,
  "pro": 856,
  "ĠAIR": 49847,
  "ĠSafety": 18731,
  "aries": 3927,
  "à¸´": 39251,
  "ĠVirginia": 9385,
  "Layout": 9683,
  "charset": 49611,
  "Ġcon": 345,
  "Ġden": 1850,
  "Ġeconomics": 20701,
  "Ġspoke": 7560,
  "}-{\\": 47264,
  "Ġdestro": 20430,
  "_\\": 2253,
  "acetic": 39548,
  "306": 18950,
  "Ġatoms": 10917,
  ")|^": 33923,
  "Ġplat": 26588,
  "ĠHip": 45469,
  "677": 30311,
  "rary": 26257,
  "Ġassessed": 7515,
  "xmm": 27963,
  "ĠDickinson": 47185,
  "ĠPosts": 36304,
  "flu": 8501,
  "Ġops": 38322,
  "Ġstipulated": 36834,
  "Ġtorque": 20441,
  "Moving": 46081,
  "()->": 18331,
  "Lee": 26123,
  "Ġfields": 4910,
  "ě": 204,
  "Ġengra": 38683,
  "azed": 30981,
  "lets": 6639,
  "orig": 28474,
  "Ġmourning": 43841,
  "osition": 3450,
  "Ġclamp": 23722,
  "Ġloc": 1150,
  "efined": 37224,
  "Validator": 41205,
  "Ġoverhead": 18332,
  "ĉĉĉĉĉĉĉĉ": 36990,
  "00000": 9439,
  "emplo": 44309,
  "Scre": 37837,
  "Ġeastern": 14730,
  "stated": 33834,
  "Ġ$(\"#": 28543,
  "ĠDC": 9087,
  "ä¸Ń": 13609,
  "Ġcentrifug": 16195,
  "Ġtopics": 12989,
  "owell": 49710,
  "Ġunbelievable": 42798,
  "iden": 9226,
  "establish": 39961,
  "Ġbroke": 9377,
  "HAL": 33615,
  "charts": 45945,
  "Registration": 46563,
  "ĠPursuant": 37368,
  "=======": 6877,
  "amics": 47775,
  "breaking": 22071,
  "Ġcapabilities": 13789,
  "Ġelbow": 24784,
  "Ġreconsider": 24033,
  "integral": 49112,
  "Ġrecurs": 17910,
  "Ġtert": 24566,
  "Ġtools": 5657,
  "Ġbeams": 20435,
  "ãĤ¢": 17072,
  "aleb": 43705,
  "ĠPrinciples": 43655,
  "Ġexpended": 49976,
  "Ġfully": 4751,
  "ĠNap": 18593,
  "Ġgenu": 10822,
  "âĢĿ": 668,
  "Ġlia": 45652,
  "verter": 20043,
  "Ġmunicipalities": 34039,
  "Ġregardless": 10159,
  "ĠWorkshop": 40394,
  "Ġless": 1679,
  "MSC": 31014,
  "ãģĻ": 7149,
  "ISM": 41252,
  "ĠHiggs": 22361,
  "shown": 40831,
  "Ġattacks": 8104,
  "Ġlinkage": 24637,
  "Ġlush": 45788,
  "Ġsense": 3282,
  "Ġsplitting": 19860,
  "Ġvariables": 4903,
  "Ġwhere": 835,
  "Ġstretched": 20061,
  "Ġvortex": 25584,
  "è¨ĺ": 44330,
  "ĠMad": 6984,
  "Wang": 31061,
  "Ġ__": 4772,
  "ighbor": 25194,
  "Ġasking": 7004,
  "ouble": 4434,
  "acion": 33271,
  "track": 13712,
  "ĠMonday": 7216,
  "Ġraped": 34597,
  "herche": 48571,
  "ĠPray": 32543,
  "Location": 11930,
  "payload": 35704,
  "0013": 28059,
  "707": 26522,
  "onucle": 18135,
  "ĠGates": 27982,
  "Ġchi": 21477,
  "Ġhydrocarbons": 39409,
  "Ġdeals": 13330,
  "ĠÕ": 35257,
  "646": 25238,
  "Ġcopyright": 9451,
  "Ġjersey": 42896,
  "ahi": 42128,
  "Ġtrache": 32122,
  "communication": 35437,
  "ãĤ¸": 24149,
  "å¼Ģ": 35930,
  "<=": 44072,
  "ĠBarrett": 39457,
  "fts": 34010,
  "ĠmRNA": 7959,
  "Ġpurch": 4147,
  "Ġshadow": 12195,
  "Jess": 45976,
  "ematic": 24674,
  "folder": 26687,
  "ĠCauc": 25659,
  "ĠhÃ¤n": 39939,
  "ĠLouise": 35028,
  "0016": 29407,
  "RSA": 42903,
  "ĠRicky": 49557,
  "oshop": 34195,
  "ĠDig": 11568,
  "Ġdeparting": 48373,
  "Ġtuberculosis": 23669,
  "Ġwithdrawal": 18185,
  "Patrick": 45840,
  "Ġmaint": 2982,
  "ĠImpact": 29930,
  "Ġalk": 9348,
  "Ġplays": 7120,
  "Ġbag": 7351,
  "Ġentail": 46518,
  "Ġpreparations": 20724,
  "eredith": 46929,
  "male": 30165,
  "Ġtechnology": 4302,
  "ÏİÎ½": 26867,
  "ĠCRM": 47428,
  "Ġdeployment": 19007,
  "Ġrecognized": 7478,
  "Ġmonitor": 5724,
  "ĠFirstly": 35346,
  "Ġended": 7402,
  "¦": 101,
  "Ġrig": 8132,
  "Regarding": 36195,
  "reet": 3160,
  "105": 10655,
  "Ġdisgr": 30190,
  "Ġlets": 14935,
  "Ġtraverse": 42309,
  "commutative": 42253,
  "Ġscary": 24851,
  "Ent": 7580,
  "Mus": 13788,
  "stating": 44101,
  "threatening": 33897,
  "ĠRyan": 13114,
  "Ġtaller": 38165,
  "expl": 15083,
  "Ġfacilitated": 30199,
  "èĪ": 34372,
  "Ġkitchen": 8576,
  "arie": 49941,
  "ails": 5351,
  "Ġunavailable": 29356,
  "879": 34384,
  "Ċĉĉĉĉĉĉĉĉĉ": 33213,
  "Ġconnects": 23417,
  "brate": 32243,
  "enos": 32564,
  "ĠPent": 19464,
  "Ġfear": 4709,
  "bsite": 16709,
  "Ġruined": 27826,
  "concat": 35707,
  "gomery": 25256,
  "ĠWheel": 44362,
  "ĠCode": 6307,
  "âĢĶ.": 34624,
  "letes": 42176,
  "Ġcontroversy": 16305,
  "Definitions": 36235,
  "Â": 126,
  "Ġgoverning": 13200,
  "********************************": 7631,
  "person": 10816,
  "ĠHaven": 28093,
  "Ġmonkeys": 30552,
  "ĠCase": 10498,
  "ogs": 14175,
  "Ġinadequ": 16273,
  "aper": 6653,
  "Ġrest": 1551,
  "Ġsteroids": 34481,
  "oyo": 49155,
  "+^": 12765,
  "Ġgalaxy": 13649,
  "sec": 1704,
  "Ġlobe": 27317,
  ".[^": 35117,
  "2007": 8602,
  "rically": 16671,
  "Ġnecklace": 44256,
  "ĠTriton": 39776,
  "ĠUnfortunately": 12526,
  "Ġpu": 8429,
  "ruce": 33483,
  "Ġej": 22317,
  "Ġdialogue": 17414,
  "bg": 17424,
  "iken": 33027,
  "living": 22763,
  "rest": 1120,
  "ÐµÐ·": 20410,
  "Ġmetastases": 24738,
  "ATS": 43718,
  "Ġguarded": 39824,
  "Ġarthritis": 21781,
  "Ġ;)": 24457,
  "Ġrecently": 4102,
  "ITEM": 45129,
  "yster": 43441,
  "ĠFranz": 36373,
  "ĠMoscow": 16496,
  "ĠTobacco": 47786,
  "logging": 36193,
  "ructures": 38124,
  "nam": 6292,
  "Heart": 39430,
  "dust": 49476,
  "Ġmortal": 32144,
  "Occ": 26600,
  "Ġachie": 3143,
  "ITC": 43414,
  "Ġprophet": 33494,
  "Ġassumed": 8025,
  "Ġsepar": 2533,
  "ĠCAG": 47609,
  "ĠÂ¿": 25769,
  "ĠSox": 27705,
  "getInstance": 43616,
  "Ġsuppresses": 41033,
  "ptive": 20834,
  "}},$$": 42465,
  "Ġfinancing": 22599,
  "USD": 38169,
  "album": 31638,
  "psin": 25591,
  "ĠMerkel": 44669,
  "Ġenvelop": 29275,
  "Cx": 50093,
  "gia": 45795,
  "Ġ1300": 47822,
  "literal": 34943,
  "ĠCanad": 30401,
  "ĠFellowship": 37417,
  "ĠKosovo": 48863,
  "ĠTris": 27989,
  "ĠNSCLC": 33512,
  "Ġinterconnected": 36282,
  "Tick": 44249,
  "ĠStore": 16106,
  "Ġqueer": 38493,
  "Ġrecapt": 48928,
  "Bro": 19968,
  "ĊĠĠĠĠĠĠĠĠĠĠĠĠĠĠĠĠĠĠĠĠĠĠĠĠĠĠĠĠĠĠĠĠĠĠĠĠĠĠ": 29942,
  "Ġ62": 9743,
  "ĠTrek": 29024,
  "LT": 20072,
  "ĠLots": 40381,
  "Ġquestionnaire": 15126,
  "472": 32006,
  "Ġ$\\{": 10809,
  "Ġdagger": 45766,
  "ĠIndian": 5396,
  "Ġpatiently": 46606,
  "Ġreductions": 23082,
  "Ġintrodu": 3092,
  "Ġsymmetric": 13123,
  "Ġattended": 11612,
  "Dar": 28895,
  "ĠAPIs": 33261,
  "038": 22439,
  "eter": 1715,
  "ĠForms": 44017,
  "dated": 14151,
  "watch": 13060,
  "Ġdrilled": 46721,
  "Ġplatform": 5147,
  "Ġtextbook": 40554,
  "rots": 30353,
  "ĠAnglic": 44736,
  "ĠRoad": 8669,
  "ĠNBA": 19305,
  "Ġextrusion": 49936,
  "Ġorderly": 42062,
  "meric": 1446,
  "ĠFried": 17468,
  "Ġviz": 40027,
  "defaults": 42161,
  "Ġwhereabouts": 49924,
  "('#": 30932,
  "ec": 886,
  "ĠJune": 3978,
  "Ġfing": 8569,
  "Ġvirt": 4732,
  "ullary": 46909,
  "...](": 26635,
  "nings": 38045,
  "ĠEin": 34120,
  "Ġcomplaints": 14672,
  "Agg": 35619,
  "460": 32383,
  "ĠÐ¸Ð·": 19833,
  "history": 22328,
  "Ġdifferentiation": 9827,
  "=\"-": 24539,
  "Constant": 29080,
  "medium": 28672,
  "ĠPoland": 16795,
  "ĠWind": 17054,
  "Ġpresidente": 43297,
  "Ġratings": 17503,
  "Ġinsulator": 42415,
  "Ignore": 36142,
  "Ġ352": 35362,
  "IG": 2431,
  "ĠFortunately": 29471,
  "ĠAmsterdam": 26653,
  ",^[@": 30996,
  "ĠK": 611,
  "ĠLink": 13829,
  "omorphism": 11923,
  "Ġcho": 2093,
  "Ġobsession": 37238,
  "Ġpartition": 10883,
  "Ġculinary": 44604,
  "ĠMutual": 36797,
  "Ġrab": 28301,
  "Ġtoxicity": 14386,
  "ouring": 36934,
  "skirts": 44747,
  "Ġunique": 4451,
  "Ġwasted": 25262,
  "agland": 38324,
  "ĠTue": 40915,
  "Ġdreaming": 36515,
  "istas": 25448,
  "KB": 26498,
  "stan": 18549,
  "yahoo": 49269,
  "ĠGAPDH": 41610,
  "Ġcertificate": 14204,
  "Ġcoordinate": 13249,
  "ĊĠĠĠĠĠĠĠĠĠĠĠĠĠĠĠĠĠĠĠĠĠĠĠĠĠĠĠĠĠĠĠĠĠĠĠĠĠĠĠĠĠĠ": 37974,
  "Ġlibr": 40211,
  "ncia": 19003,
  "hands": 43442,
  "Ġphenotype": 13466,
  "Ġpressures": 19919,
  "Working": 32197,
  "Ġrevival": 36499,
  "None": 11336,
  "hentication": 23058,
  "ĠSpecies": 36983,
  "Ġvector": 4972,
  "Ġfarm": 6389,
  "fter": 699,
  "ĠÐ½Ðµ": 12880,
  "Ġprompts": 49887,
  "Ġtuned": 24251,
  "Ġdeepest": 34620,
  "Ġwestern": 10439,
  "ĠÏĦÎ·": 13810,
  "Luc": 22434,
  "ĠEffects": 24350,
  "ç¤": 21121,
  "Ġ265": 25905,
  "ĠMgCl": 49220,
  "Ġaddict": 26716,
  "Ġcrawling": 44922,
  "Ġtort": 9810,
  "Ġmathematics": 23065,
  "(){": 14574,
  "Ġcomfortable": 9848,
  "Ġnearly": 4829,
  "Ġcodon": 33442,
  "Component": 12118,
  "sectional": 20382,
  "533": 45153,
  "elect": 13467,
  "ĠPush": 36978,
  "oche": 13807,
  "ĠKr": 17145,
  "858": 31117,
  "cous": 32633,
  "nothing": 26142,
  "Ġabove": 1840,
  "askell": 34524,
  "Ġarrhythm": 38369,
  "Ġcredible": 24542,
  "Ġmosquitoes": 35995,
  "âĸĪ": 24177,
  "ĠMort": 16905,
  "ĠHad": 14136,
  "Ġaffiliation": 37846,
  "otts": 43285,
  "Ġtrop": 14404,
  "Ġvisualize": 31986,
  "Ġvanishing": 29199,
  "ĠEF": 24931,
  "ĠDead": 16631,
  "Ġcombinator": 32662,
  "Ġ------------------------------": 43090,
  "Ġadvocate": 21424,
  "ittings": 45083,
  "ake": 640,
  "1945": 36354,
  "IRE": 29349,
  "ovy": 35068,
  "Ġsteam": 15401,
  "Ġdell": 20889,
  "Ġclergy": 41082,
  "ĠView": 9182,
  "osyl": 39847,
  "Ġflatt": 30627,
  "Est": 20768,
  "given": 28821,
  "letcher": 34828,
  "ĠStanton": 47877,
  "åĥ": 32653,
  "Ġdiscrete": 13358,
  "Ġfals": 21649,
  "Ġreviewed": 9814,
  "hbox": 18452,
  "Ġroar": 40257,
  "EEP": 35447,
  "57": 3011,
  "Ġarmor": 25034,
  "Ġslaughter": 30814,
  "Ġtickets": 14997,
  "empt": 2187,
  "ĠkÃ¤": 27082,
  "rangian": 23623,
  "ĠSeeing": 41583,
  "Ġretreat": 19015,
  "Zone": 30989,
  "Ġgegen": 40362,
  "ĠClaud": 35662,
  "Ġtangent": 28196,
  "Ġslide": 14518,
  "ĠDB": 16025,
  "Ġmimics": 43341,
  "Ġadul": 23935,
  "Ġunsure": 31488,
  "Ã©tÃ©": 39929,
  "drive": 27190,
  "ham": 3964,
  "ĠHW": 44769,
  "Ġpyram": 25874,
  "ains": 1550,
  "someone": 48472,
  "Ġdevise": 45018,
  "ĠCE": 7956,
  "Many": 10195,
  "ĠColumn": 29085,
  "Ġhugged": 46486,
  "ayers": 8883,
  "Ġchampion": 16928,
  "ĠMegan": 45867,
  "sequences": 45997,
  "Ġ37": 5345,
  "fatal": 48901,
  "neb": 49980,
  "peptide": 42387,
  "hydroxy": 19304,
  "wend": 41753,
  "ama": 2902,
  "é«": 27712,
  "Ġ180": 12660,
  "2800": 43518,
  "account": 15793,
  "focused": 34821,
  "ARY": 11164,
  "ippers": 39698,
  "ĠCliff": 29214,
  "ĠLions": 31143,
  "Ġanimate": 49129,
  "Ġdub": 19155,
  "Spin": 38115,
  "parent": 5598,
  "Ġ364": 35585,
  "Ġreward": 10921,
  "Ġspectrom": 17606,
  "Ġtad": 46868,
  "jamin": 16935,
  "pixel": 29206,
  "ĠClin": 35412,
  "ĠĠĠĠĠĠĠĠĠĠĠĠĠĠĠĠĠĠĠĠĠĠĠĠĠĠĠĠĠĠĠĠĠĠĠĠĠĠĠĠĠĠĠĠĠĠĠĠĠĠĠĠĠĠĠĠĠĠĠĠĠĠĠĠĠĠĠĠĠĠĠĠĠĠĠĠĠĠ": 49051,
  "ĊĠĠĠĠĊĠĠĠ": 15398,
  "ĠDennis": 26062,
  "-\\": 2249,
  "forth": 28287,
  "aja": 22779,
  "ordered": 16586,
  "×¨": 21062,
  "âĢĿ?": 43820,
  "Choice": 48279,
  "Ġfigur": 43888,
  "Ġfriend": 3331,
  "Ġrecycling": 28604,
  "Ġdiaphragm": 34622,
  "Ġseismic": 44967,
  "Ġsuperintendent": 45480,
  "Ġvo": 3273,
  "Ġwaited": 13308,
  "čĊĠĠĠ": 3568,
  "Ġillustrations": 33954,
  "Ġrange": 2491,
  "Ġholders": 26160,
  "Ġpowdered": 43462,
  "Ġdr": 1837,
  "btn": 15581,
  "ĠHyper": 25411,
  "Ġchan": 47853,
  "Ġinad": 23436,
  "Ġobjet": 40954,
  "weed": 31108,
  "ĠNine": 26789,
  "1961": 34493,
  "Ġamid": 17421,
  "Ġsubstances": 15991,
  "Ġvarchar": 38021,
  "Ġhorn": 17081,
  "ĠComparing": 42438,
  "Ġrecycl": 18490,
  "ãĥ³ãĥĪ": 46357,
  "ĠCensus": 31188,
  "tabs": 33754,
  "ĊĠĠĠĠĠĠĠĠĠĠĠĠĠĠĠĠĠĠĠĠĠĠĠĠĠĠĠĠĠ": 18774,
  "166": 17962,
  "stick": 19982,
  "uring": 981,
  "Listen": 19577,
  "ĠMart": 5794,
  "ĠLinked": 29743,
  "Ġdenote": 9173,
  "Ġnesting": 47847,
  "Ġpractical": 8542,
  "MOESM": 13270,
  "itudinal": 13315,
  "hee": 31622,
  "åľ": 9504,
  "cool": 26175,
  "ĠACTION": 37457,
  "ĠAssuming": 27234,
  "ĠBritt": 37601,
  "ĠHole": 46386,
  "ĠSa": 10388,
  "Ġappoint": 6544,
  "Ġassessment": 6803,
  "IES": 9785,
  "ĠBRCA": 40624,
  "Ġbuoy": 42172,
  "Ġaument": 46850,
  "Ġcerebro": 34879,
  "Portuguese": 48236,
  "rinos": 34573,
  "ĠKindle": 43252,
  "itter": 4069,
  "ĠPercentage": 46171,
  "Ġcliff": 28900,
  "Ġ361": 38520,
  "renched": 34455,
  "Ġcompensation": 10963,
  "Ġgenomes": 21885,
  "Ġinmates": 26538,
  "Santa": 39356,
  "Ġmeanings": 30460,
  "Ġrope": 20762,
  "Ġth": 289,
  "opl": 4488,
  "Ġtraps": 30678,
  "icum": 45745,
  "ĠAmend": 44518,
  "Ġdir": 14035,
  "Ġtroop": 34883,
  "ling": 1981,
  "ĠDart": 39967,
  "ĠÂł": 17345,
  "ĠHCC": 20272,
  "horse": 33647,
  "Ġappetite": 27690,
  "ĠEleanor": 35099,
  "Ġstrategies": 8130,
  "ĠMend": 30521,
  "Ġmillions": 9790,
  "ĠØ§ÙĦÙħ": 30331,
  "Ant": 24657,
  "ocker": 14119,
  "activation": 18166,
  "Ġcorneal": 33477,
  "ĠÐĴ": 21615,
  "Ġreticulum": 47622,
  "mkdir": 50202,
  "Ġamelior": 35977,
  "Ġaveraged": 17522,
  "Ġneut": 5205,
  "ĠMb": 48681,
  "Ġnicely": 23395,
  "Mapping": 27220,
  "Ġshout": 11557,
  "Ġenrich": 15655,
  "ermost": 32848,
  "Error": 4756,
  "ĠXi": 36852,
  "ĠSignaling": 41144,
  "opropyl": 39059,
  "Ġcrazy": 10412,
  "Ġsupposedly": 24628,
  "Ġphe": 39720,
  "ĠGram": 22197,
  "[": 60,
  "Ġly": 12865,
  "ellular": 7383,
  "Ġoption": 4500,
  "OL": 3271,
  "ĠNPC": 37662,
  "Official": 38023,
  "SUPPORT": 35316,
  "ĠTea": 29464,
  "Ġimmunodef": 40519,
  "ero": 2771,
  "handle": 13393,
  "ARA": 40107,
  "ĠPor": 20510,
  "Ġrepressed": 47960,
  "Ġml": 13361,
  ".'\"": 18574,
  "ĠÄ": 11437,
  "Ð¾Ð»ÑĮ": 18584,
  "Ġparted": 39301,
  "orientation": 31756,
  "oxacin": 38060,
  "ele": 11177,
  "Ġbinds": 22294,
  "Ġtele": 4014,
  "Dark": 29285,
  "Lit": 32401,
  "varpi": 33996,
  "poser": 38253,
  "Ã¤r": 9608,
  ":)": 37731,
  "ĠLithuan": 40115,
  "Ġentry": 5857,
  "Ġcoal": 10089,
  "Img": 40148,
  "dom": 3335,
  "'=": 33794,
  "ĠNCAA": 26865,
  "Ġfoc": 41685,
  "Ġà¤®": 37500,
  "applied": 46188,
  "hetized": 41722,
  "Ġacadem": 8371,
  "Ġraces": 15820,
  "Ġ09": 15630,
  "Ġamph": 29555,
  "Ġprophecy": 45368,
  "laws": 33530,
  "477": 45475,
  "Ġexotic": 26015,
  "cl": 498,
  "}_{\\": 4689,
  "custom": 13994,
  "ĠMind": 18296,
  "Ġextremities": 47964,
  "Ġintellectual": 12720,
  "Ġchap": 13885,
  "Ġoverlapping": 21481,
  "ãĥī": 32935,
  "Ġquantified": 18755,
  "ĠMae": 40793,
  "Syntax": 44981,
  "lung": 40205,
  "uum": 8343,
  "ĠEGFR": 26720,
  "Ġforgot": 18298,
  "-,": 15770,
  "ĠALT": 39346,
  "ĠNCBI": 47222,
  "Ġflaps": 49910,
  "ressional": 28370,
  "ĠEgyptian": 22437,
  "ĠImm": 17573,
  "630": 38280,
  "potential": 33177,
  "Maybe": 11175,
  "{},": 37237,
  "Ġcel": 17155,
  "Ġslug": 44031,
  "Ġfever": 15198,
  "Ġcivilization": 23749,
  "eing": 21228,
  "eman": 11155,
  "Ġsadly": 30018,
  "alted": 36545,
  "Ġunhappy": 26442,
  "Ġtraditionally": 21533,
  "Ġbt": 37989,
  "eston": 25103,
  "Ġ1940": 16952,
  "è¾": 21365,
  "population": 30957,
  "Ġacrylic": 40485,
  "Ġmam": 28346,
  "Ġoverwhel": 12357,
  "ĠVPN": 38146,
  "Ġlingu": 20365,
  "Ġjudicata": 40052,
  "VERTIS": 35326,
  "Ġphysicians": 14975,
  "ĠRescue": 44150,
  "Ġrent": 8845,
  "Ġunidentified": 39255,
  "Ġsingles": 21864,
  "ĠAd": 2006,
  "ĠPerm": 22689,
  "Ġbattling": 41453,
  "ĠUsing": 6915,
  "([": 8850,
  "ĠSTATE": 26090,
  "Ġjournalists": 18680,
  "Ġped": 7690,
  "Ġdz": 33425,
  "iliated": 31689,
  "ĠChal": 39293,
  "ĠOthers": 19810,
  "Ġpeople": 952,
  "Ġroll": 4533,
  "Ġvitamins": 35347,
  "geqslant": 32291,
  "Ġconstructs": 21031,
  "Ġtimer": 21626,
  "]-": 12977,
  "bling": 8036,
  "ĠFourteenth": 39056,
  "349": 21095,
  "SP": 4350,
  "idea": 36665,
  "0035": 32559,
  "sleep": 28850,
  "shirt": 23565,
  "ĠHSV": 40799,
  "ĠWI": 39279,
  "animation": 36047,
  "ilage": 22775,
  "Ġ(Â£": 36397,
  "holes": 34998,
  "Ġleading": 4283,
  "Ġsad": 8872,
  "endants": 8817,
  "Ġposit": 10538,
  "ĠCorbyn": 41538,
  "ĠEstado": 43188,
  "Ġinvolving": 7668,
  "Ġnont": 25450,
  "occur": 30714,
  "liked": 44939,
  "Ġimperial": 21474,
  "values": 8858,
  "Ġmentioned": 5393,
  "RL": 6587,
  "Ġfa": 4195,
  "ĠPCI": 22447,
  "vim": 35676,
  "Ġneurom": 39650,
  "ÐµÐ¹": 15290,
  "vehicle": 42536,
  "hest": 3957,
  "ĠJavaScript": 16872,
  "Ġclut": 26986,
  "periodic": 38847,
  "Ġcooled": 27336,
  "yk": 25073,
  "ĠFlu": 21106,
  "wyn": 36422,
  "Ġdistinguishes": 44587,
  "OPER": 43724,
  "ĠVALUES": 20436,
  "Ġhugely": 40704,
  "Ġpilgr": 31514,
  "Ġsneak": 36129,
  "Ġchild": 1429,
  "Ġstruck": 10903,
  "ĠfÃ¶rs": 41974,
  "}})$,": 45251,
  "Ġthird": 2626,
  "Ġ\\(": 24829,
  "Ġvaguely": 39559,
  "ĠCoffee": 33753,
  "aturday": 7023,
  "focus": 16651,
  "Ġappointed": 11162,
  "garten": 40122,
  "Ġ64": 6705,
  "Proc": 29319,
  "uuid": 36268,
  "ĠGround": 29822,
  "Ġbillion": 6494,
  "Ġgoddess": 33764,
  "Ġincarcer": 25793,
  "Ġfeud": 40157,
  "190": 16129,
  "rail": 38017,
  "ĠVictory": 44071,
  "Ġimpairment": 15151,
  "Ð³Ð¾": 41623,
  "Visual": 25889,
  "Ġlion": 27405,
  "ANNEL": 41500,
  "Ġ495": 40191,
  "Ġfederal": 4400,
  "sources": 33491,
  "Ġkern": 29932,
  "ĠSHE": 36722,
  "Ġmarried": 7028,
  "23": 1508,
  "307": 21645,
  "fg": 16054,
  "Ġrebels": 28550,
  "Ġtanto": 30670,
  "aky": 22560,
  "itage": 13638,
  "ĠSPR": 46624,
  "York": 46225,
  "Ġestates": 42183,
  "Ġshoved": 38570,
  "]$": 8795,
  "ĠAnimal": 18630,
  "Ġinstr": 5923,
  "itty": 38491,
  "Ġguilty": 8106,
  "ĠHardy": 29944,
  "odb": 36570,
  "ont": 834,
  "cery": 19534,
  "ÐµÑģÑĤ": 24860,
  "Ġmerch": 12736,
  "Ġsuch": 824,
  "Ġasleep": 17390,
  "Ġactivator": 35196,
  "Ġintr": 4996,
  "ept": 35931,
  "ĠUTC": 38040,
  "ĠDuc": 29241,
  "']);": 34419,
  "ĠSchw": 34347,
  "AUC": 42080,
  "Ġeh": 25685,
  "Ġnurt": 33242,
  "674": 29327,
  "Zoom": 46780,
  "Ġ----------------------------": 38759,
  "dan": 21329,
  "ĠStat": 6515,
  "Ġdise": 2215,
  "Ġnoble": 17874,
  "ĠTribe": 42421,
  "ĠSure": 15594,
  "Ġclustering": 17524,
  "Ġparentheses": 41616,
  "etric": 6853,
  "Ġ***": 14244,
  "Ġwisely": 46529,
  "leans": 19472,
  "Ġknights": 44773,
  "Ġore": 29900,
  "Ġdisappearing": 42689,
  "Ġresolved": 11512,
  "ĠAnna": 16543,
  "oven": 13606,
  "Ġyouth": 8920,
  "Ġvaccinated": 42721,
  "ĠDale": 28710,
  "Ġcreep": 25461,
  "Ġmedic": 4912,
  "516": 42420,
  "358": 26422,
  "aceut": 11698,
  "Ġbasil": 40683,
  "Ġcite": 26542,
  "lew": 47989,
  "SING": 47307,
  "Ġimplies": 8018,
  "ĠĠĠĠĠĠĠĠĠĠĠĠĠĠĠĠĠĠĠĠĠĠĠĠĠĠĠĠĠĠĠĠĠĠĠĠĠĠĠĠĠĠĠĠĠĠĠĠĠĠĠĠĠĠĠĠ": 5980,
  "857": 31416,
  "ĠOper": 9704,
  "terbury": 46585,
  "Ġ\\|\\": 33401,
  "('/": 28199,
  "notes": 21377,
  "ebook": 20328,
  "Ġ${{": 35953,
  "judge": 47075,
  "ried": 2200,
  "nh": 23713,
  "ortun": 2665,
  "tech": 17556,
  "ixon": 17707,
  "vendor": 33247,
  "rift": 35885,
  "wegian": 22601,
  "bar": 2009,
  "Ġ(:": 48372,
  "ĠGenerally": 21910,
  "orns": 35546,
  "ĠChrys": 37117,
  "ĠECG": 36958,
  "Pane": 32118,
  "Ni": 24534,
  "ĠGreen": 6115,
  "ĠIGF": 23591,
  "ĠNotice": 17766,
  "ĠAug": 3747,
  "ĠRig": 34382,
  ".\"[": 31830,
  "IENT": 31093,
  "ãģ«ãģª": 33403,
  "ä¾": 16800,
  "ĠPri": 13558,
  "ially": 1365,
  "elesc": 16785,
  "regulated": 10088,
  "ĠHipp": 38025,
  "Identifier": 18483,
  "Ġarom": 16367,
  "Ġascending": 20474,
  "Ġashamed": 29170,
  "Ġbenefici": 32684,
  "Ġcitrus": 47321,
  "456": 25133,
  "Date": 6958,
  "Ġcure": 16498,
  "Ġellip": 36809,
  "Ġexpressive": 43541,
  "Ġbundles": 25663,
  "ĠStatistics": 23363,
  "Ġnar": 39016,
  "Ġrooted": 26415,
  "Ġlun": 19749,
  "Ġfinance": 15065,
  "Ġattendees": 36994,
  "Ġdescribed": 2529,
  "Ġabdomen": 30781,
  "Ġexcav": 27960,
  "Ġdomination": 38767,
  "Ġigual": 45862,
  "Co": 6869,
  "'^": 46628,
  "Ġfollowed": 3560,
  "datas": 46906,
  "ĠPlanning": 26722,
  "Ġobjective": 8103,
  "ĠLogic": 41224,
  "ĠÃ³": 49216,
  "Ġburned": 15676,
  "In": 688,
  "Ġcompares": 26662,
  "Ġstd": 6268,
  "Ġopaque": 34350,
  "Sources": 28752,
  "Ġnost": 19063,
  "Ġnotions": 27367,
  "Ġuntil": 1919,
  "æŁ¥": 48950,
  "Population": 48705,
  "ĠAmber": 41131,
  "==========": 6428,
  "stdout": 43885,
  "Ã¤n": 6841,
  "heast": 12283,
  "ĠContents": 40604,
  "ĠRodriguez": 27051,
  "Ġrivals": 28851,
  "aliana": 48108,
  "Ġanalog": 7370,
  "Ġrotates": 45933,
  "Ġsequ": 2160,
  "ĠLynn": 33603,
  "æ¨": 26487,
  "ĠHOLDERS": 43227,
  "feature": 24594,
  "Ġshocked": 19961,
  "etime": 7816,
  "ĠRefs": 41966,
  "ides": 1487,
  "ĠBoat": 44522,
  "BG": 21279,
  "Ġfluid": 6514,
  "reason": 10752,
  "Ġshrinkage": 47100,
  "readonly": 48719,
  "oco": 16856,
  "ÈĽ": 15478,
  "ãģŁãĤģ": 44912,
  "Ġskeletal": 20847,
  "olite": 46431,
  "Were": 41192,
  "Ġslows": 49133,
  "             ": 50265,
  "ĠExt": 9052,
  "ĠXavier": 49365,
  "Ġsoccer": 20391,
  "ĠJobs": 32254,
  "Ġ529": 40355,
  "Ġstirred": 29087,
  "Ġstressful": 33674,
  "Ġbinomial": 47585,
  "ĠAX": 41279,
  "ĊĊĠĠĠĠĠĠĠĠĠĠĠĠ": 32972,
  "uish": 37043,
  "Ġfirearm": 22657,
  "ĠGott": 39131,
  "Ġhomework": 32110,
  "Ġampl": 5457,
  ")^{-": 14607,
  "avi": 23096,
  "DK": 49462,
  "ophosph": 25982,
  "rz": 38852,
  "Ð½ÑĭÑħ": 28167,
  "ĠCost": 12805,
  "ĠCraw": 27688,
  "Ġku": 35978,
  "timeout": 23896,
  "Ġlookup": 31994,
  "Ġtaxpayers": 27551,
  "gres": 29878,
  "wt": 17118,
  "ĠSwan": 35359,
  "Ġproviding": 5277,
  "Tube": 13813,
  "Ġtunn": 11552,
  "Ġreplies": 32114,
  "ĊĠĠĠĠĠĠĠĠĠĠĠĠĠĠĠĠĠĠĠĠĠĠĠĠĠĠĠĠĠĠĠĠĠĠĠ": 14222,
  "Ġvisitation": 41820,
  "ĠChocolate": 41992,
  "library": 17921,
  "ĠBlu": 40524,
  "Ġinforms": 46210,
  "Ġpaused": 19925,
  "edu": 13808,
  "onet": 47956,
  "ĠSpons": 49329,
  "ĠMoving": 39207,
  "develop": 16714,
  "ĠERISA": 39601,
  "Ġannotated": 28267,
  "Ġartists": 10846,
  "438": 40848,
  "Ġbits": 9886,
  "ĠVision": 29770,
  "hour": 11964,
  "ĠEMT": 33566,
  "Ġarbe": 48835,
  "Ġframing": 39926,
  "Ġship": 6215,
  "Ø§Ø¨": 47931,
  "Ġstacking": 37444,
  "Ġtomb": 26908,
  "ĠÏĢÎ¿Ïħ": 32309,
  "yon": 22267,
  "403": 25208,
  "println": 16684,
  "orphic": 41050,
  "configuration": 24693,
  "ĠElli": 34221,
  "Force": 30579,
  "340": 23695,
  "HECK": 12181,
  "itures": 30153,
  "Ġartific": 37842,
  "ĠTravel": 20816,
  "Ġconverted": 11516,
  "Ġgrants": 16311,
  "ĠXml": 43209,
  "Ġphen": 4188,
  "ller": 22999,
  "riched": 16278,
  "life": 8206,
  "Ġchecked": 10141,
  "Ġ×ľ": 32017,
  "Ġyounger": 9243,
  "Photo": 16227,
  "drv": 35805,
  "å¤ĸ": 35489,
  "xon": 49111,
  "ĠByte": 24128,
  "Ġplates": 10855,
  "Ġsweating": 47425,
  "Ġdwarfs": 46203,
  "Ġcommissions": 36662,
  "Ġreception": 16112,
  "ĠGalile": 46087,
  "Ġaccepts": 25026,
  "ĠJensen": 42054,
  "Step": 13996,
  "appointed": 40364,
  "uled": 8263,
  "Cross": 22708,
  "Ġwhist": 37031,
  ":@\"": 25731,
  "Ġhomolog": 26663,
  "Launch": 41803,
  "Ġreadout": 49914,
  "0020": 20515,
  "Ġsensitivity": 7340,
  "Ġbra": 6513,
  "Ġdescription": 5740,
  "issued": 47401,
  "unn": 4462,
  "Ġ$<$": 43736,
  "ĠChrom": 26595,
  "ĠCurrently": 19728,
  "Graph": 15499,
  "Ġ-,": 48568,
  "ĠFrontier": 48688,
  "ĠCarpenter": 43855,
  "Ġadaptation": 15644,
  "Ġdecade": 9976,
  "Ġminimal": 8723,
  "Ġrevers": 7661,
  "camera": 32499,
  "Ġcurvature": 16841,
  "present": 15068,
  "Ġheterozygous": 37754,
  "ĠWatkins": 48077,
  "Ġkilograms": 44068,
  "ĠFalls": 24618,
  "ĠGr": 1997,
  "ĠPe": 3586,
  "ĠIntegration": 43309,
  "ĠDisk": 44088,
  "bow": 11939,
  "anned": 5442,
  "apters": 49872,
  "Ge": 7559,
  "ĠAdvanced": 21798,
  "ĠHass": 30815,
  "sing": 4093,
  "Ġgenes": 3608,
  "Ġwelding": 34329,
  "Ġconductor": 23998,
  "azines": 20532,
  "Ġregular": 3963,
  "Ġweaken": 20171,
  "genome": 39956,
  "ĠTheo": 48511,
  "Ġcleavage": 21725,
  "intr": 40150,
  "ĠHelsinki": 34159,
  "ances": 1972,
  "ĠRF": 15371,
  "Ġcab": 7674,
  "Ġhover": 26445,
  "Ġincredibly": 16088,
  "Ġprincip": 6980,
  "Ġculmin": 27798,
  "endix": 11519,
  "Ġcrops": 19492,
  "mother": 13875,
  "ogonal": 17397,
  "Ġ147": 20825,
  "ĠWheeler": 38918,
  "Ġtransporters": 38461,
  "Usually": 48588,
  "Ġaward": 5722,
  "ĠMiami": 16146,
  "Ġconcessions": 44488,
  "Break": 30389,
  "fragment": 36136,
  "Adam": 33467,
  "Ġcountries": 4343,
  "Ġhal": 7905,
  "Ġmount": 4205,
  "Ġsubstantially": 9619,
  "ĠMary": 6393,
  "Ġlibraries": 13747,
  "Fi": 15723,
  "adores": 29213,
  "Qiagen": 47738,
  "Ġnearest": 5275,
  "Ġcustody": 13555,
  "ak": 518,
  "ographics": 24959,
  "liament": 8782,
  "ĠPalace": 21632,
  "Ġmp": 23542,
  "ĠHank": 34533,
  "Ġparece": 49267,
  "Ġpreempt": 36588,
  "ĠUse": 7890,
  "Ġthrown": 13044,
  "_;": 17540,
  "real": 6549,
  "ĠUK": 5591,
  "ĠRecovery": 34882,
  "Ġscreams": 39783,
  "Northern": 49107,
  ")$.": 3822,
  "1943": 47868,
  "ampa": 24079,
  "Ġgazing": 44520,
  "Ð»Ð¸": 11378,
  "Ġgrac": 40763,
  "Ġhanded": 14048,
  "ĠTherapy": 34294,
  "Ġadjo": 38319,
  "Was": 18412,
  "Ġpersuasive": 34593,
  "ocyt": 5221,
  ":**]{}": 48471,
  "canvas": 32688,
  "langle": 4841,
  "665": 48204,
  "Ġglucose": 8383,
  "ĠArmen": 37801,
  "Ġamplitudes": 22652,
  "Different": 21956,
  "grat": 25923,
  "iner": 7068,
  "Ġdrill": 21353,
  "Ġgathering": 16778,
  "Ġrud": 30514,
  "Ġoperating": 6498,
  "Player": 19998,
  "Ġlodge": 40486,
  "recated": 18115,
  "ĠYellow": 25056,
  "Ġdistinguished": 15622,
  "Ġmindfulness": 49922,
  "Ġolig": 13081,
  "Ġseed": 8357,
  "ometric": 7480,
  "Ġminister": 9843,
  "}(-": 33873,
  "ĠLenin": 49444,
  "}&": 21316,
  "Reading": 38905,
  "Ġcoffin": 44596,
  "ãģĤãĤĭ": 27098,
  "Ġemotional": 8991,
  "Ġprotection": 6055,
  "Ġstaring": 17303,
  "Turn": 22529,
  "Auto": 22156,
  "Ġgrooves": 41339,
  "astics": 26245,
  "clean": 16437,
  "onald": 6540,
  "ront": 47610,
  "Ġdeleterious": 42019,
  "Ġmarriage": 7875,
  "Ġmodule": 6333,
  "Ġpri": 2235,
  "Ġshelf": 22826,
  "Ġtrench": 32775,
  "rolled": 9095,
  "Ð¾Ð·": 19245,
  "Ġherbal": 34952,
  "fere": 16957,
  "Ġ2003": 6469,
  "von": 29997,
  "Ġbas": 1666,
  "Ġpointless": 41690,
  "ĠIO": 19698,
  "ĠSurve": 38056,
  "ĠHood": 33831,
  "Ġghost": 14972,
  "Ġignoring": 23111,
  "Ã§Ã£o": 7014,
  "Ġdisclosure": 13911,
  "ĠMarvin": 47246,
  "Ġbless": 11736,
  "ĠActs": 34013,
  "Ġ427": 37955,
  "EU": 30476,
  "Ġplain": 8342,
  "ĠQuestionnaire": 38536,
  "Ġhepatocellular": 43727,
  "Ġcaps": 12839,
  "reported": 20527,
  "microsoft": 22730,
  "ĠWalker": 16156,
  "Ġkits": 28049,
  "Map": 6648,
  "ob": 706,
  "Roll": 43956,
  "Ø": 148,
  "647": 25953,
  "Â£": 14775,
  "LAB": 29317,
  "ĠCo": 2434,
  "ĠNorthern": 11442,
  "pd": 19875,
  "ĠWaters": 34184,
  "Ġactu": 22664,
  "Ġjob": 2628,
  "Ġmetap": 21543,
  "KING": 47339,
  "Ġresem": 16188,
  "noting": 43507,
  "truth": 33024,
  "Ġsuburban": 33963,
  "Ġtar": 13586,
  "pute": 48334,
  "verte": 31861,
  "ĠUnable": 48706,
  "ĠCly": 41158,
  "Ġlistening": 11298,
  "Hi": 12764,
  "Tuesday": 28266,
  "meth": 20912,
  "Ġrepetitive": 29104,
  "ĠLIABILITY": 27255,
  "Uk": 42399,
  "Ġju": 7166,
  "Ġedges": 9297,
  "Ġtargeted": 10522,
  "ĠDallas": 16700,
  "Drive": 39780,
  "aired": 12260,
  "Ġsurjective": 44664,
  "ĠKeys": 38793,
  "Ġpasses": 11999,
  "ĠMSCs": 32220,
  "Ġtidy": 49031,
  "Ġemperor": 26390,
  "TRODUCTION": 32585,
  "Ġ\\\\": 3202,
  "Ġembodied": 36080,
  "Ġ@@": 34346,
  "Ġdiffusion": 12393,
  "Ġlib": 5135,
  "Î¯Î±": 18184,
  "Ġlocks": 24811,
  "INF": 42101,
  "Web": 9770,
  "decor": 29284,
  "taient": 47234,
  "ular": 792,
  "var": 2044,
  "ĠStudies": 11709,
  "Ġbrush": 16463,
  "Ġcumbersome": 41049,
  "tw": 7553,
  "JP": 20198,
  "ĠBlair": 28585,
  "Derived": 48300,
  "uve": 48132,
  "Ġadvis": 15237,
  "Ġinter": 734,
  "Ġlayouts": 50107,
  "Ġmother": 3101,
  "ĠWilcoxon": 48824,
  "Ġprostitution": 43881,
  "Ġrouting": 24749,
  "Ġwrite": 3630,
  "illian": 42622,
  "ful": 1020,
  "https": 3614,
  "CHANNEL": 48197,
  "Ġchase": 24577,
  "yet": 28948,
  "Ġinherited": 20265,
  "Ġgenerals": 39091,
  "ĠKrist": 24131,
  "Ġlived": 6940,
  "ĠKin": 24574,
  "Ġpertinent": 21452,
  "Ġbeneficiaries": 35029,
  "Ġsignatures": 20076,
  "ĠVa": 21894,
  "246": 23260,
  "ĠTan": 22188,
  "Ð°Ð¶": 22079,
  "ĠThai": 28191,
  "packages": 24166,
  "ä¸ª": 16401,
  "Ġtechnician": 40048,
  "Ġextr": 15534,
  "Ġwrap": 16384,
  ")âĪĴ": 48885,
  "iline": 25178,
  "Ġ0": 470,
  "Ġimplication": 27570,
  "Ġnarciss": 47852,
  "à¹Ħ": 40366,
  "Ġtrials": 7587,
  "ĠICC": 32207,
  "ences": 2979,
  "Ġ1896": 43843,
  "Ġcontours": 33183,
  ".'": 2464,
  "Ġ128": 12842,
  "Ġstem": 8424,
  "inny": 23819,
  "Ġultrasound": 18533,
  "Ġarguments": 7125,
  "AL": 1556,
  "Ġdubbed": 33690,
  "amples": 10240,
  "ctic": 10010,
  "Ġsys": 11876,
  "ong": 543,
  "ile": 587,
  "soon": 38753,
  "se": 339,
  "sub": 2377,
  "Ġfellowship": 37421,
  "ĠBel": 6512,
  "Ġhacer": 29634,
  "Ġruling": 10362,
  "ĠGur": 33514,
  "Ġtrends": 13554,
  "Ġtentative": 43095,
  "^+\\": 37578,
  "Ġparcel": 32975,
  "Ġfertile": 38681,
  "agus": 38252,
  "Ġsyll": 29977,
  "Ġcomputes": 48169,
  "Nil": 37490,
  "members": 25011,
  "á¼": 12272,
  "ä½ľ": 21275,
  "Ġwings": 15926,
  "ourt": 950,
  "LICENSE": 17821,
  "Iowa": 46917,
  "ethoxy": 45873,
  "Jean": 36751,
  "ecal": 45808,
  "ĠAudi": 49368,
  "nice": 40199,
  "âĢ¯": 14808,
  "iencies": 19053,
  "ous": 528,
  "momentum": 42647,
  "ãĥĥãĤ¯": 37988,
  "ãĥķ": 24119,
  "Ġ[\"": 15640,
  "Ġbash": 29826,
  "Ġcarried": 4824,
  "Ġanhydr": 44927,
  "Ġeighty": 32571,
  "bearing": 26201,
  "ologically": 11220,
  "Ġfast": 3809,
  "Ġgaz": 20001,
  "fen": 25947,
  "Ġorbital": 18290,
  "Ġbou": 29909,
  "Ġreligions": 31194,
  "ĠSpark": 33308,
  "Ġforming": 9046,
  "versible": 31675,
  "Ġpostoperatively": 49449,
  "Ġinfused": 43861,
  "forcing": 22958,
  "Ġsque": 12774,
  "ĠĠĠĠĠĠĠĠĠĠĠĠĠĠ": 3380,
  "Ġquand": 37639,
  "Jos": 49733,
  "418": 35833,
  "Ġsecurely": 37370,
  "autions": 36336,
  "EEEE": 48919,
  "demonstr": 48387,
  "ijerph": 11763,
  "ĠGos": 48042,
  "Ġaccompany": 13920,
  "ftime": 48937,
  "Ġembedded": 12691,
  "Card": 18497,
  "qquad": 9315,
  "amers": 46118,
  "Ġexplain": 5513,
  "Ġdoubtful": 38342,
  "Ġhero": 8080,
  "Ġswept": 22007,
  "Ġfanc": 43126,
  "Aye": 50195,
  "Ġtw": 2500,
  "Ġyoung": 2872,
  "\\\",": 31875,
  "offe": 44356,
  "Ġaccumulate": 29010,
  "iaz": 13306,
  "corp": 49017,
  "ocent": 40420,
  "Ġspacer": 38590,
  ",\\\\": 24303,
  "CACHE": 49877,
  "viruses": 19351,
  "ĠHan": 13594,
  "He": 1328,
  "Ġcondemned": 26212,
  "head": 2522,
  "Ġ379": 36351,
  "Ġepidermal": 35371,
  "Ġadministering": 41572,
  "Ġfills": 32113,
  "Ġhurt": 8513,
  "circum": 36752,
  "ĠÑĩÑĤÐ¾": 18716,
  "ĠDragons": 49583,
  "ccording": 3421,
  "ĠIm": 3173,
  "Ġcentres": 23221,
  "ãĢİ": 45863,
  "beit": 15932,
  "535": 42980,
  "Ġpromoter": 12634,
  "Ġimmobilized": 41559,
  "Tan": 45621,
  "pr": 1087,
  "ucker": 18141,
  "Ġ$(-": 49960,
  "scale": 7527,
  "hÃ¤": 46276,
  "kins": 7232,
  "letters": 29076,
  "manif": 21338,
  "ĠSexual": 40448,
  "deploy": 45552,
  "cases": 12866,
  "Ġbloom": 30601,
  "Ġclusters": 9959,
  "ĠSI": 17862,
  "Ġdebate": 8881,
  "Ġdegraded": 30853,
  "Ġdelay": 5778,
  "Ġequations": 7424,
  "ĠSer": 4165,
  "Ġacknowled": 9555,
  "coin": 9669,
  "Ġhoney": 14795,
  "Ġliteracy": 31520,
  "Ġpicks": 21460,
  "Ġplasm": 12733,
  "Whole": 49744,
  "eras": 11987,
  "Ġgoto": 28357,
  "aleigh": 44005,
  "å°±": 29297,
  "ĠPrivacy": 24471,
  "Ġhospital": 4675,
  "Ġpressing": 17178,
  "Ġreflected": 11392,
  "iliary": 15434,
  "Ġbooked": 32346,
  "Ġinjustice": 31427,
  "Ġkicked": 19301,
  "Ġhome": 1728,
  "Ġmarking": 26099,
  "Ġproductions": 36367,
  "Ġprompt": 8959,
  "Ġspars": 37139,
  "Ġtaxation": 34871,
  "ature": 1177,
  "eleration": 41563,
  "Ġtrat": 48428,
  "auth": 14399,
  "Ġplacement": 14663,
  "Ġwashing": 17392,
  "onda": 18782,
  "Ġlitig": 42024,
  "Ġtaste": 9075,
  "Ġmurine": 24599,
  "Ġthieves": 42727,
  "109": 12852,
  "Ġtxt": 40377,
  "Ġremotely": 27938,
  "Ġàª": 31828,
  "rez": 14852,
  "1900": 37044,
  "ras": 6230,
  "resa": 21769,
  "Ġrall": 33934,
  "News": 19537,
  "clerosis": 18320,
  "mw": 50198,
  "ĠCup": 9167,
  "ĠHodge": 45746,
  "Ġhybridization": 24389,
  "ĠOften": 24503,
  "Ġfirst": 806,
  "cium": 44185,
  "Ġ((": 6048,
  "ĠBond": 19760,
  "ĠERA": 38233,
  "ĠPrest": 31291,
  "ĠSimply": 29574,
  "Ġviolates": 28096,
  "854": 36208,
  "').": 8539,
  "563": 42310,
  "830": 35400,
  "ULAR": 17983,
  "pin": 9852,
  "Ġframeworks": 31225,
  "ĠRib": 31641,
  "Ġmirac": 40926,
  "Ġoccup": 5573,
  "ĠApost": 38254,
  "Ġhottest": 43526,
  "Ġ$%": 40401,
  "ĠAst": 15123,
  "Ġexecuting": 24364,
  "Ġtruths": 35086,
  "Ġtimes": 2069,
  "bill": 38584,
  "iban": 27546,
  "Ġcritical": 4619,
  "Ġfell": 6497,
  "ĠFootball": 15794,
  "ĠZar": 41379,
  "Ġhydration": 48129,
  "Ġstemming": 45030,
  "ĠMusic": 11412,
  "Ġimported": 21117,
  "friend": 8471,
  "Ġcorridors": 47406,
  "ĠDy": 31787,
  "Ġ/**": 6401,
  "Ġresembling": 37427,
  "Ġ420": 30642,
  "Ġgour": 49992,
  "Ġscant": 43721,
  "Ġbutt": 11566,
  "Cs": 6072,
  "ird": 1817,
  "Ġclaimant": 23529,
  "ĠBurton": 33718,
  "Ġseldom": 28277,
  "others": 39658,
  "Ġfoolish": 24924,
  "sem": 6017,
  "Score": 29064,
  "Ġjuices": 44253,
  "Ġ503": 36629,
  "below": 27490,
  "idents": 9274,
  "tawa": 26629,
  "Ġfistula": 49214,
  "Ġschema": 20824,
  "._": 3333,
  "Ġprobabil": 32343,
  "vergence": 41801,
  "ansen": 35714,
  "MG": 24580,
  "prec": 17995,
  "Ð¾Ð¶": 14706,
  "Ġmighty": 25427,
  "Ġfictional": 29934,
  "ĠDH": 22886,
  "Ġfinishing": 19083,
  "ivariable": 39366,
  "Crypt": 33862,
  "ĠRow": 15784,
  "Ġconverse": 42810,
  "Iter": 15628,
  "paration": 27489,
  "Ġloop": 6287,
  "ĠLOL": 49321,
  "ĠDise": 15094,
  "jn": 33126,
  "platform": 19161,
  "elihood": 10202,
  "Ġlanguages": 11515,
  "ĠPython": 13814,
  "buntu": 12313,
  "prisingly": 28761,
  "Loc": 16395,
  "955": 31722,
  "ĠAnswer": 37741,
  "ĠBoulevard": 38715,
  "ĠConcept": 38298,
  "Ġmacrophages": 15431,
  "Ġnec": 15136,
  "Mic": 28184,
  "ĠMick": 42735,
  "yu": 30838,
  "Ġsupports": 8525,
  "ĠĠĠĠĠĠĠĠĠĠĠĠĠĠĠĠĠĠĠĠĠĠĠĠĠĠĠĠĠĠĠĠĠĠĠĠĠĠĠĠĠĠĠĠĠĠĠĠĠĠĠĠĠĠĠĠĠĠĠĠĠĠĠĠĠĠĠĠĠĠĠĠĠĠĠĠĠĠĠĠĠĠĠĠĠĠĠĠĠĠĠĠĠĠĠĠĠĠĠĠĠĠĠĠĠĠĠĠĠĠĠĠĠĠĠĠĠĠĠĠĠĠĠĠĠĠĠĠĠĠĠĠĠĠĠĠĠĠĠĠĠĠĠĠĠĠĠĠĠĠĠĠĠĠĠĠĠĠĠĠĠĠĠĠĠĠĠĠĠĠĠĠĠĠĠĠĠĠĠĠĠĠĠĠĠĠĠĠĠĠĠĠ": 20170,
  "tp": 17394,
  "Ġproviders": 11967,
  "     ": 50273,
  "cci": 46668,
  "Ġfail": 1891,
  "ÐµÐ¼": 10077,
  "Ġsign": 861,
  "imental": 11471,
  "kel": 18790,
  "Ġestimation": 13418,
  "alties": 17511,
  "Ġhopeful": 29874,
  "Ġbere": 29958,
  "Endpoint": 36997,
  "ĠRic": 19580,
  "Ġinvade": 42879,
  "Ġ119": 12035,
  "Ġsmug": 39817,
  "Ġsulfate": 25649,
  "lated": 16148,
  "ulfide": 41602,
  "æĶ¾": 45882,
  "Ġovarian": 18984,
  "uez": 17761,
  "Ah": 13924,
  "enties": 47798,
  "antha": 36412,
  "Ġsouthern": 11053,
  "Len": 18378,
  "Ġneurons": 8512,
  "Ul": 40026,
  "ĠĠĠĠĠĠĠĠĠĠ": 2674,
  "ĠSplit": 43531,
  "Ġforemost": 31971,
  "ĠCes": 44533,
  "2500": 47227,
  "ariance": 14417,
  "vention": 4053,
  "Ġcryptocur": 22394,
  "Ġfavorites": 30740,
  "Ġaims": 13698,
  "Ġheavier": 27953,
  "Ġparticipate": 10078,
  "Ġsimplicial": 45666,
  "Ġsusp": 5167,
  "aty": 37968,
  "viral": 46476,
  "Ġherds": 47862,
  "ĠShared": 38480,
  "plic": 1860,
  "ime": 553,
  "rake": 47081,
  "----------------------------------------": 36960,
  "AMP": 12437,
  "xz": 39344,
  "oter": 31387,
  "ĠDil": 37723,
  "ĠMarch": 3919,
  "HE": 1922,
  "Ġrolling": 14572,
  "3000": 26990,
  "Lead": 28749,
  "isecond": 26054,
  "Bat": 42818,
  "Ġinscription": 45676,
  "Ġ<%=": 48074,
  ")*(-": 11050,
  "Include": 25644,
  "Ġrearrang": 33289,
  "Ġ1890": 32789,
  "Ġese": 38044,
  "highlight": 30703,
  "do": 3088,
  "ĠDialog": 36623,
  "iben": 42181,
  "ĠER": 7220,
  "Lev": 35438,
  "Ġgeneralize": 39970,
  "Enumerable": 38936,
  "Ġtortured": 37274,
  "Ġvegg": 43697,
  "Ġentrusted": 49979,
  "Ġolive": 17972,
  "Ġ1864": 44956,
  "Ġxe": 12762,
  "Ġbrains": 19795,
  "ĠExperimental": 25632,
  "ĠEz": 39054,
  "Ġdurch": 29854,
  "Ġthin": 6906,
  "ĠBrief": 16404,
  "ĠPoss": 23443,
  "command": 12467,
  "ogg": 19613,
  "ĠTheod": 29884,
  "Ġobservables": 34658,
  "Ġtargets": 8571,
  "Ġdirectory": 9617,
  "Sk": 15992,
  "clesiast": 49431,
  "Ġchased": 40754,
  "Ġhypothes": 6482,
  "ĠItems": 33938,
  "ĠPHP": 14741,
  "Ġbenefit": 5649,
  "ĠHundred": 35942,
  "Ġwherever": 20312,
  "ĠÐ¾Ð´": 36547,
  "ÄĽ": 11738,
  "Ġcler": 31557,
  "Ġfission": 46094,
  "ĠAdditionally": 9157,
  "ijo": 32187,
  "Mexico": 48273,
  "DEP": 32568,
  "ĠFor": 1198,
  "ĠCPR": 47316,
  "Ġperfection": 26835,
  "component": 15658,
  "Pat": 9147,
  "Ġinterpol": 20670,
  "Sah": 40606,
  "aÃ§Ã£o": 14291,
  "Ġfits": 13840,
  "073": 40991,
  "PRESS": 22400,
  "ĠMeet": 35404,
  "imal": 1983,
  "minute": 15505,
  "arer": 12287,
  "ĠCass": 16211,
  "enÃŃ": 48921,
  "ifies": 7790,
  "ĠAE": 29946,
  "THE": 9707,
  "âĨ": 33089,
  "ĠLesser": 32425,
  "Ġbeds": 20534,
  "Ġihn": 49690,
  "ĠCas": 12000,
  "Ġnum": 930,
  "331": 27385,
  "Ġpolymorphism": 24848,
  "Ġsummit": 21948,
  "kw": 20168,
  "ESH": 45514,
  "Ġargc": 46090,
  "AT": 1194,
  "ĠOL": 42587,
  "Ġintraven": 20368,
  "Pan": 12309,
  "Ġclenched": 48264,
  "Ġlaunch": 8027,
  "Ġmetastasis": 16200,
  "Ġstayed": 11791,
  "oking": 6856,
  "opsies": 30495,
  "spr": 27375,
  "750": 22330,
  "Î¼l": 31550,
  "ertain": 1695,
  "èµ": 23692,
  "ĠPred": 18271,
  "gery": 5158,
  "Ġ68": 9934,
  "aways": 42287,
  "ĠRailroad": 31606,
  "rek": 18415,
  "ĠSandra": 43785,
  "Ġlargest": 6253,
  "Ġreg": 810,
  "Ġdanger": 5434,
  "Ġenumerated": 41671,
  "Ġeff": 3098,
  "RTC": 46490,
  "etically": 17859,
  "ĠCertificate": 39711,
  "ĠPhysical": 22606,
  "Ð½Ð¾Ð³Ð¾": 27328,
  "Ġpassenger": 15828,
  "umble": 19493,
  "Ġretard": 31832,
  "Ġrich": 6793,
  "_{\\": 1126,
  "ighb": 47295,
  "Ġprosecution": 14079,
  "Ġtie": 13898,
  "ÄŁ": 14437,
  "Ġsays": 2296,
  "Ġeigenvalue": 25023,
  "ĠĠĠĠĠĠĠĠĠĠĠĠĠĠĠĠĠĠĠĠĠĠĠ": 5640,
  "Ġ(/": 46633,
  "Lord": 27537,
  "Ġdispos": 13867,
  "ĠLith": 31976,
  "Camera": 31962,
  ".....": 20340,
  "choose": 27271,
  "ĠPearl": 29169,
  "typename": 15295,
  "artments": 25545,
  "Ġracial": 15066,
  "ĠMarxist": 48641,
  "Game": 18237,
  "slave": 39629,
  "ĠBP": 17641,
  "Ġinertia": 41299,
  "Geography": 46263,
  "ĠWho": 8452,
  "ĠTyp": 13666,
  "Ġwishing": 30685,
  "syscall": 47380,
  "Ġwithout": 1293,
  "Ġlegisl": 8269,
  "290": 22308,
  "Ġprimer": 16086,
  "liance": 38114,
  "Ġok": 8718,
  "Ġresponsiveness": 36281,
  "ĠĠĠĠĠĠĠĠĠĠĠĠĊĠ": 44782,
  "END": 8112,
  "$,": 1366,
  "Ġbuy": 4489,
  "Ġinsights": 16039,
  "bz": 38841,
  "anger": 3751,
  "ĠUnion": 6398,
  "Ohio": 30779,
  "Ġstars": 6114,
  "ĠSound": 18874,
  "Ġser": 1151,
  "Ġanomalous": 31946,
  "Ġmemorandum": 29745,
  "ĠLONG": 43078,
  "omon": 16142,
  "iam": 16726,
  "Ġcases": 2219,
  "Ġbull": 12156,
  "urbed": 16193,
  "odds": 8421,
  "dead": 26928,
  "992": 34363,
  "80211": 44277,
  "wic": 24116,
  "cco": 42037,
  "ĠEleven": 49075,
  "Ġeval": 2777,
  "Ġmenstrual": 46182,
  "Ġsus": 2817,
  "éľ": 32790,
  "Ġtranscription": 9464,
  "Ġministry": 20454,
  "ivil": 3823,
  "Ġ_________________": 27103,
  "ĠOutput": 24882,
  "Ġcardiovascular": 13440,
  "mathb": 1324,
  "Ġphilanth": 40174,
  "Ġdoor": 3369,
  "Ġinterven": 16070,
  "755": 27496,
  "oppy": 45695,
  "Ġchemotherapy": 13215,
  "Ġ378": 38316,
  "ĠG": 443,
  "Ġtraitor": 50136,
  "<?": 14277,
  "Ġtraject": 13310,
  "BM": 8417,
  "Ġfather": 3392,
  "Ġu": 1484,
  "kid": 49934,
  "Ġpolitique": 42557,
  "ĠTeaching": 45287,
  "ĊČĠĠĠĠĠĠ": 37682,
  "ĠParlamento": 33463,
  "Ġeconom": 2895,
  "Ġsaturated": 23543,
  "Ġstar": 4177,
  "ĠJamie": 27283,
  ")}_{": 20669,
  "Ġthrowing": 15950,
  "ĠCarn": 33334,
  "ĠDesert": 36274,
  "ĠCrown": 23392,
  "ĠGABA": 26676,
  "479": 28757,
  "ĠRC": 20461,
  "Ġaltar": 30099,
  "eb": 2275,
  "reek": 7209,
  "delay": 29000,
  "during": 32674,
  "ĠBroad": 13796,
  "Ġ[[*": 44965,
  "Ġ$('#": 24918,
  "XR": 31576,
  "Ġinfectious": 18023,
  "Brien": 29400,
  "Ġbrane": 43168,
  "1954": 39511,
  "864": 46014,
  "Ġcorrectness": 36594,
  "379": 24880,
  "Ġnov": 22458,
  "ĠRNAi": 36880,
  "Still": 16812,
  "ĠContest": 46911,
  "ĠHeat": 22512,
  "plify": 6644,
  "Ġfinanc": 4083,
  "Ġoriginated": 23923,
  "Ġbadge": 32741,
  "218": 22981,
  "Ġ428": 40008,
  "ĠPatterson": 36105,
  "forming": 14692,
  "ĠDJ": 22533,
  "Ġalphabet": 30156,
  "Ġimpurities": 36286,
  "ĠAthletic": 39749,
  "Ġautopsy": 37563,
  "Ġcoin": 18011,
  "Git": 43612,
  "Ġadverse": 10021,
  "NN": 8504,
  "Ġaddressing": 15974,
  "===============": 19557,
  "Ġoptimism": 36970,
  "ĠNort": 19536,
  "Ġconsequ": 4823,
  "ĠIntra": 39836,
  "Ġpredictor": 23403,
  "Ġremanded": 27013,
  "ctomy": 20755,
  "ĠLymph": 49684,
  "anc": 1377,
  "chool": 1651,
  "avia": 25183,
  "number": 9133,
  "president": 39140,
  "lections": 9889,
  "ĠGPL": 32506,
  "ensely": 42373,
  "Ġdated": 15483,
  "Ġdraws": 21354,
  "Ġloading": 10935,
  "Ġsmarter": 38144,
  "Ġboyfriend": 22273,
  "Ġsurg": 8622,
  "873": 43847,
  "Ġtil": 10751,
  "Ġvendor": 23906,
  "Ġventil": 39825,
  "Inc": 29228,
  "Ġvinyl": 27179,
  "Side": 28541,
  "cyl": 32990,
  "ĠHack": 34999,
  "ply": 2881,
  "yor": 47196,
  "Basically": 37565,
  "ĠSubsequently": 24083,
  "ĠARM": 32394,
  "ĠBody": 18456,
  "ĠWow": 42340,
  "Ġfamously": 39316,
  "Ġfollicles": 44535,
  "Ġkol": 38301,
  "Ġreson": 8146,
  "Ġinspect": 16030,
  "Ġpaid": 5087,
  "Ġsentencing": 14625,
  "Ġconsegu": 48113,
  "liers": 19139,
  "Ġcouch": 21985,
  "Ġserialized": 32145,
  "corresponding": 47771,
  "ĠBal": 11960,
  "Ġelaborated": 50221,
  "Ġshot": 5103,
  "Apart": 41618,
  "ĠSU": 9242,
  "Ġunve": 24973,
  "Ġplay": 1132,
  "Ġhurricane": 37705,
  "Ġnut": 5825,
  "asac": 44572,
  "alia": 25431,
  "auto": 15149,
  "Ġgraphics": 15896,
  "tg": 32304,
  "oge": 32275,
  "lems": 44778,
  "æĸ¹æ³ķ": 44301,
  "Ġsensory": 17872,
  "Ġconfig": 3596,
  "Ġstatutes": 19195,
  "dotted": 46774,
  "logic": 46786,
  "Ġ422": 38429,
  "bootstrap": 24884,
  "Ġemissions": 14839,
  "Ġ:(": 34977,
  "Ġ562": 49820,
  "liv": 23642,
  "ĠBa": 11086,
  "Ġ_________": 38834,
  "Ġauto": 6753,
  "Go": 6826,
  "Ġcreature": 15906,
  "Ġ$-": 9929,
  "Ġache": 49652,
  "Ġapprehens": 36792,
  "distance": 19893,
  "Ġesc": 6262,
  "ĠEW": 45118,
  "UTE": 23638,
  "ĠSymposium": 48478,
  "challenge": 48781,
  "mental": 30132,
  "ĠSimpson": 29480,
  "Ġemerges": 32361,
  "Exception": 5330,
  "amond": 10525,
  "template": 8547,
  "Ġglor": 41070,
  "Ġmembr": 5287,
  "ĠCol": 2065,
  "Ġshr": 11111,
  "Ġsingle": 2014,
  "light": 3243,
  "Ġ1996": 8441,
  "LE": 1843,
  "ĠJagu": 46174,
  "ĠVince": 42135,
  "aced": 2575,
  "ĠDNS": 29446,
  "Ġconclusions": 11815,
  "ĠettÃ¤": 20463,
  "Ġoffline": 28841,
  "*\"": 35797,
  "Ġplan": 2098,
  "Ġoutdoors": 32321,
  "Ġrides": 28742,
  "Ġscientists": 10950,
  "ĠNissan": 48432,
  "Ġsubcellular": 47625,
  "phabet": 24656,
  "Ġtattoo": 31720,
  "izi": 37694,
  "Gest": 47155,
  "Ġtopography": 48865,
  "xrightarrow": 37826,
  "-------------------------------------------------": 44136,
  "combe": 49766,
  "arna": 25523,
  "incorporated": 39558,
  "illa": 6077,
  "cb": 11316,
  "essages": 23282,
  "Ġpatience": 22450,
  "Ġpresses": 39145,
  "Ġseedlings": 37002,
  "\":[": 29925,
  "Ġcurt": 25846,
  "rowave": 20601,
  "ĠEpic": 39688,
  "Ġwk": 47178,
  "spots": 46781,
  "ĠMAT": 26572,
  "Ġdoubles": 33478,
  "Ġlosses": 11655,
  "ikes": 13972,
  "Ġcreat": 2833,
  "avery": 19754,
  "imus": 24439,
  "zitter": 45609,
  "Ġanalyzing": 18918,
  "saved": 36421,
  "Ġproximate": 42002,
  "Ġtest": 1071,
  "ĠWeek": 12664,
  "Ġligation": 43854,
  "ĠPablo": 46482,
  "Ġjurisdictional": 26244,
  "Ġspectrometer": 36254,
  "Ġabnormal": 10969,
  "Ġasymmet": 40736,
  "Multiply": 44058,
  "Pierre": 47576,
  "clic": 33783,
  "gall": 28117,
  "ĠIU": 34618,
  "Ġinsecurity": 45583,
  "Ġhand": 1133,
  "Ġsupplemental": 25702,
  "ĠCowboys": 40863,
  "MATCH": 45293,
  "Ġcloset": 26348,
  "Ġintense": 12680,
  "Ġstatic": 4228,
  "ĠÐº": 6467,
  "ĠFocus": 27529,
  "Ġmushroom": 41983,
  "ãģĵãĤĮ": 41162,
  "ancel": 18721,
  "ĠNewark": 35699,
  "Ġrewarding": 34975,
  "IPE": 36066,
  "FO": 8768,
  "entity": 21294,
  "ĠBeijing": 18496,
  "ĠFil": 9074,
  "1932": 48184,
  "asy": 7077,
  "ĠFH": 48953,
  "INGS": 19212,
  "ĠGunn": 46511,
  "Ġanalgesic": 49885,
  "Hep": 49749,
  "éķ·": 44989,
  "Ġequally": 9696,
  "Ġguess": 5476,
  "Ġinventor": 37131,
  "Texas": 36179,
  "vart": 21531,
  "thereum": 36376,
  "Ġfide": 45732,
  "ĊĠĠĠĠĠĠĠĠĠĠĠĠĠĠĠĠĠĠĠĠĠĠĠĠĠĠĠĠĠĠĠĠĠĠĠĠĠĠĠĠĠĠĠ": 22672,
  "Ġlymphocyte": 36329,
  "ĠmRNAs": 34033,
  "ĠStud": 4472,
  "Ġdaunting": 47216,
  "ĠAppeals": 9892,
  "ilde": 6227,
  "string": 2703,
  "ĠPoint": 11149,
  "Ġobedience": 40138,
  "!=": 35495,
  "brevi": 25214,
  "supplementary": 6962,
  "Ġ../../": 35955,
  "ĠUCLA": 41742,
  "ĠBudget": 31706,
  "Ġimplications": 12739,
  "ĠCyber": 33591,
  "Thursday": 28549,
  "Ġappend": 14801,
  "Ġprogrammable": 45062,
  "dialog": 25679,
  "064": 36717,
  "tools": 16885,
  "ĠRepresentatives": 25574,
  "era": 3525,
  "ÎĶ": 12507,
  "ĠSSH": 41728,
  "ĠWarsaw": 40431,
  "Ġeinem": 29840,
  "1964": 29639,
  "Ġdoctrines": 40785,
  "astric": 42925,
  "trip": 39816,
  "ĠOptional": 38016,
  "Ġcareful": 10182,
  "Ġmore": 625,
  "Ġnor": 4543,
  "Ġobtaining": 13546,
  "Ġtotal": 2264,
  "Ġboys": 8290,
  "illon": 24632,
  "991": 39405,
  "ÐºÑĥ": 34366,
  "ĠSER": 38802,
  "Ġ232": 26972,
  "Ġmurm": 23189,
  "ĠContin": 12329,
  "138": 15148,
  "ĠBr": 2652,
  "ĠME": 10616,
  "Ġmasters": 26616,
  "particip": 44475,
  "Ġmasc": 43796,
  "ÃĲÂµ": 18251,
  "ĠEight": 16244,
  "ĠCum": 37887,
  "MAR": 35938,
  ".\\\"": 48124,
  "Ġadrenal": 33903,
  "ĠCAM": 33547,
  "Ġ164": 17601,
  "Ġenhance": 7278,
  "aped": 7760,
  "fc": 12964,
  "perse": 43292,
  "Ġavenues": 44201,
  "æŃ": 14486,
  "Ġdependence": 10096,
  "ickets": 26195,
  "Ġemission": 8295,
  "Ġhandc": 41993,
  "ĠSO": 8717,
  "&&\\": 25984,
  "Ġlocker": 33703,
  "Ġweakening": 49060,
  "START": 20525,
  "apply": 18788,
  "ĠChampion": 31575,
  "ĠSome": 3808,
  "ountain": 24726,
  "rogen": 12991,
  "ĠCre": 13501,
  "}}^{-": 34273,
  "Ġfactions": 41850,
  "Ġincreasingly": 9592,
  "Ren": 29099,
  "Ġqualifying": 28661,
  "Ġtrough": 39445,
  "atively": 3146,
  "Ġl": 298,
  "ucked": 20044,
  "ĠCarr": 31247,
  "Ġattached": 7660,
  "Amount": 35277,
  "onna": 5860,
  "Prior": 20108,
  "all": 455,
  "ĠVict": 27699,
  "Ġopp": 1937,
  "singular": 48750,
  "kin": 5914,
  "Ġcater": 28335,
  "ãĤº": 46649,
  "ungal": 29457,
  "ĠAdvance": 36808,
  "Ġ123": 15567,
  "Ġgreens": 35599,
  "Ġterribly": 30643,
  "ĠHeidegger": 49419,
  "Ġtranscribed": 34348,
  "ĠSri": 24206,
  "Ġhistories": 29892,
  "Ġofficial": 3565,
  "Ġprey": 21794,
  "science": 21559,
  "Ġcharity": 19489,
  "ĠSchool": 4726,
  "Ġaddresses": 12453,
  "ferential": 21870,
  "nea": 21254,
  "ĠAustrian": 29535,
  "Ġbios": 15666,
  "Ġclk": 49362,
  "DAY": 29807,
  "rifug": 15294,
  "iar": 11158,
  "Ġadviser": 28051,
  "Lines": 34320,
  "XM": 45057,
  "ĠNW": 26622,
  "CAST": 37744,
  "ĠNick": 13104,
  "links": 23053,
  "Ġdeze": 33117,
  "ãĤ¦": 35643,
  "Ġfier": 16797,
  "Ġstratified": 31539,
  "87": 2597,
  "096": 36539,
  "Answer": 32869,
  "FFIR": 25862,
  "jor": 15188,
  "Tr": 2290,
  "tracking": 40111,
  "callback": 20104,
  "Ã¥r": 18481,
  "othes": 4521,
  "Ġ441": 40657,
  "068": 41796,
  "Warning": 24979,
  "atte": 34015,
  "cling": 36537,
  "fat": 19397,
  "onom": 11168,
  "Ġ48": 5693,
  "ĠANN": 41401,
  "applic": 33751,
  "ĠAdminist": 10051,
  "ĠJim": 8438,
  "ATION": 6570,
  "ĠMoreover": 5076,
  "emann": 39480,
  "ĠREL": 37954,
  "ĠSecond": 6347,
  "ĠBudapest": 50086,
  "ĠAddress": 22483,
  "Ġcultiv": 19324,
  "Ġdst": 24334,
  "Sta": 31673,
  ".[@": 6334,
  "wr": 10641,
  "ĠFlor": 7230,
  "ĠXL": 35974,
  "Ġdv": 43857,
  "Ġevenly": 25356,
  "ĠSloven": 43372,
  "Ġhead": 1481,
  "Gab": 46565,
  "Ġheirs": 46834,
  "Ġconcer": 2782,
  "Ġhematopoietic": 37537,
  "ither": 1622,
  "piratory": 48208,
  "ĠIRC": 48674,
  "month": 7791,
  "ĠMeans": 46062,
  "uti": 32616,
  "ĠClayton": 40998,
  "Ġimitation": 45738,
  "rew": 2663,
  "Ð¸Ð½": 10961,
  "Ġimmunoglobulin": 40523,
  "graduate": 22703,
  "ined": 967,
  "those": 21808,
  "Ã©es": 14330,
  "ĠCal": 2263,
  "ĠFinally": 6610,
  "Ġlegitimacy": 37978,
  "ĠYork": 2816,
  "Ġlines": 3104,
  "Ġadmitted": 8176,
  "Ġmenstru": 36513,
  "Ġny": 31804,
  "Ġlysis": 33148,
  "otta": 31797,
  "Ġnewspapers": 18930,
  "Ġpropagation": 18634,
  "Input": 8982,
  "990": 28001,
  "Ġprost": 17248,
  "buffered": 45168,
  "ishment": 8922,
  "çĶ¨": 12335,
  "ĉĉ": 623,
  "ĠSavage": 38942,
  "Ġbeacon": 45592,
  "Ġbree": 20831,
  "umber": 2764,
  "Ol": 33319,
  "Ġcommence": 25301,
  "?": 32,
  "fur": 37323,
  "phalt": 45302,
  "walker": 49679,
  "ĠLegislature": 22891,
  "Ġheir": 33961,
  "single": 20199,
  "Ġlarge": 1781,
  "Ġoriginal": 3236,
  "Ġperforming": 9591,
  "Ġpurity": 24410,
  "Ġrespondents": 15102,
  "Ġrs": 14208,
  "ĠDisease": 18742,
  "Ġdetained": 28952,
  "Ġ??": 38199,
  "lsen": 49990,
  "ĠNutrition": 32212,
  "!!!!!!!!": 45939,
  "arma": 21401,
  "beck": 28298,
  "cyclop": 30120,
  "ocese": 32143,
  "Ġ207": 25589,
  "Ġ'{": 39846,
  "ĠPeninsula": 33489,
  "ĠOm": 30542,
  ")}$,": 29119,
  "CBS": 42866,
  "ĠRein": 35013,
  "Ġelevate": 50181,
  "SCs": 15190,
  "odynamic": 17083,
  "Ġcareer": 5249,
  "Ġpositives": 37865,
  "Ġbucket": 22205,
  "Ġprocurement": 42932,
  "Ġprospect": 11091,
  "Ġmotel": 48551,
  "ches": 2706,
  "oscal": 44709,
  "ĠDue": 12571,
  "ĠLanc": 26763,
  "AAAA": 7246,
  "Ġgr": 650,
  "Ġdeity": 47498,
  "Ġdroplets": 30244,
  "Ġindict": 15825,
  "Ġlett": 34848,
  "Ġpresenting": 15250,
  "Ġreciprocal": 33561,
  "Ġrestrictive": 29190,
  "mium": 45779,
  "Ġsailor": 45758,
  "encing": 5537,
  "HU": 26809,
  "Ġstagger": 36668,
  "ĠLac": 27910,
  "arn": 1596,
  "134": 15468,
  "Ġpict": 3705,
  "Ġprecursors": 31744,
  "Ġsummer": 5768,
  "Ġthwart": 41027,
  "#####": 22002,
  "Ġsage": 35855,
  "antic": 6484,
  "ĠSpeaking": 41547,
  "osexuality": 34427,
  "vol": 8625,
  "Ġfetus": 36866,
  "ĠGauss": 46111,
  "Ġjoking": 43707,
  "ĠĠĠĠĠĠĠĠĠĠĠ": 1932,
  "For": 2214,
  "stituting": 46306,
  "Õ¥": 48451,
  "omas": 4921,
  "ÙĬ": 6463,
  "cell": 3992,
  "å¹": 12462,
  "Ġbeat": 7171,
  "ikipedia": 15170,
  "Ġleaves": 6505,
  "Ġpiss": 24329,
  "Ġzoom": 21282,
  "yll": 21767,
  "==========================": 48666,
  "Ġgenerating": 11365,
  "ĠÐ¾": 6099,
  "Ġproblema": 33991,
  "mittee": 6614,
  "Ġdictators": 39710,
  "ĠÑģ": 4189,
  "vous": 30571,
  "Ġelectricity": 13978,
  "Ġmoeten": 37876,
  "anor": 29984,
  "ĠInteractive": 47875,
  "Ġmultiply": 30247,
  "Generate": 40731,
  "pherd": 29359,
  "ĠZend": 43844,
  "Ġadditionally": 23000,
  "Ġencrypt": 42347,
  "Ġintro": 26432,
  "ĠChrist": 2828,
  "TIME": 18318,
  "ĠAppellee": 22706,
  "onical": 12076,
  "uple": 13932,
  "ĠAugust": 4223,
  "ĠVit": 24198,
  "Ġpredictive": 15970,
  "oprop": 27403,
  "dates": 24275,
  "icher": 30373,
  "nets": 47301,
  "ĠVertical": 43632,
  "Ġcans": 34208,
  "Ġcarriage": 21614,
  "/_": 29987,
  "buk": 41554,
  "Ġpores": 36331,
  "Ġwon": 1912,
  "Ġglycoprotein": 44377,
  "ky": 4742,
  "Ġintegrating": 24399,
  "Ġadequacy": 50172,
  "Ġcytosol": 48986,
  "Ġacademy": 35893,
  "Ġsorts": 16308,
  "Ġ\"@": 34683,
  "Ġhormonal": 37085,
  "&=\\": 24060,
  "chos": 40173,
  "spheres": 46051,
  "ĠYard": 43767,
  "})\\": 8395,
  "Ġbytes": 11061,
  "Ġfingertips": 48803,
  "Ġoccurrences": 37102,
  "assisted": 27310,
  "[(": 15830,
  "Next": 9301,
  "Updated": 30760,
  "king": 4351,
  "-----------------------": 25916,
  "prop": 8560,
  "sep": 33032,
  "zone": 13634,
  "rede": 42634,
  "Ġ^\\": 25492,
  "ilty": 7443,
  "controll": 35019,
  "Sequence": 26102,
  "iper": 24277,
  "maybe": 28489,
  "ĠLibrary": 11397,
  "ĠWife": 40223,
  "Ġamused": 41024,
  "ĠSYSTEM": 47095,
  "Ġarmed": 12360,
  "Ġhyste": 38732,
  "Ġpredators": 36207,
  "Ġprogram": 2086,
  "ĠrÃ©p": 45448,
  "Ġmesenchymal": 35984,
  "Ã¤sident": 49560,
  "phantom": 21921,
  "Ġbob": 33131,
  "Ġrash": 35511,
  "plicity": 12986,
  "ograph": 2047,
  "DEF": 18800,
  "âĦ¢": 14313,
  "ĠWn": 48909,
  "run": 6321,
  "oproteins": 34022,
  "Ġactress": 20453,
  "Ġcoping": 30963,
  "Ġpurported": 28751,
  "ĠRas": 28377,
  "Ġheard": 3735,
  "Ġfb": 49962,
  "`)": 27362,
  "ĠÙģÙĬ": 37710,
  "TY": 25090,
  "vell": 39702,
  "Ġreduce": 4796,
  "ĠSwedish": 19688,
  "imum": 2751,
  "PSC": 37612,
  "Ã²": 17090,
  "Ġgrowled": 49994,
  "Ġrefract": 20124,
  "ĠWit": 43060,
  "ĠKubernetes": 49073,
  "ĠNeut": 44889,
  "ring": 804,
  "Ġhood": 21613,
  "810": 36016,
  "Mas": 35147,
  "essment": 18114,
  "surgery": 49742,
  "Ġ550": 28564,
  "detect": 33492,
  "Ġpronounced": 17088,
  "Ġphysical": 3520,
  "ĊĠĠĠĠĠĠĠĠĠĠĠĠĠĠĠĠĠĠĠĠĠĠĠĠĠĠĠĠĠĠĠĠĠĠĠĠĠĠĠĠĠĠĠĠĠĠĠĠĠĠ": 47464,
  "ĠGa": 12146,
  "Ġvictim": 5487,
  "Ġproposing": 36636,
  "600": 10487,
  "cout": 28644,
  "pmatrix": 14336,
  "ĠVe": 19716,
  "Ġintolerance": 45458,
  "rende": 40827,
  "Ġinsol": 27752,
  "ĠÐ¿ÑĢÐµÐ´": 29929,
  "ĠWriter": 40671,
  "apps": 28047,
  "rists": 48221,
  "strong": 9072,
  "described": 25598,
  "ĠSE": 6725,
  "ĠSiO": 45614,
  "Ġcars": 8458,
  "violent": 43115,
  ")\",": 22719,
  "terson": 30964,
  "ulsions": 40005,
  "Lem": 25533,
  "Ð¾Ð±Ñĭ": 44298,
  "ĠONE": 21252,
  "iction": 2474,
  "Ste": 6812,
  "Ġepitope": 40548,
  "ĠConstitution": 10350,
  "Ġnicht": 13014,
  "Ġpatterning": 47149,
  "Ġ12": 1249,
  "Ġdrafting": 34318,
  "Mode": 10715,
  "osto": 39337,
  "Figures": 18877,
  "Ġpend": 32752,
  "Ġroutine": 10934,
  "ĠOffic": 8853,
  "Ġhed": 21867,
  "Ġsurgery": 5869,
  "ograft": 23152,
  "ĠRut": 33538,
  "ĠScore": 27292,
  "inberg": 37722,
  "ĠDeveloper": 37305,
  "Ġenrol": 47132,
  "Ġjoints": 22136,
  "Ġpirate": 42404,
  "ĠTER": 44886,
  "Ġplant": 4444,
  "Ġcann": 13066,
  "Should": 18837,
  "ropolis": 37489,
  "Ġtin": 20596,
  "Ġlead": 1421,
  "ĠCompl": 17878,
  "Ġuna": 5940,
  "ĠÎķ": 29830,
  "Ġquadr": 13284,
  "Ġmodifications": 14586,
  "Ġhighways": 40459,
  "ĠBund": 26079,
  "ĠLakers": 47374,
  "Ġincidental": 40514,
  "Ġwhipped": 37914,
  "ĠMercury": 36091,
  "ĠEnvironmental": 20316,
  "Ġshowing": 4645,
  "ĠKnow": 13665,
  "ipzig": 47265,
  "Ġkg": 15841,
  "Ġsuites": 49130,
  "nas": 27109,
  "ĠMuse": 10176,
  "Ġcharged": 6636,
  "Ġ----,": 49869,
  "Ġsurname": 38213,
  "Ġuprising": 47930,
  "ĠMrs": 6827,
  "VF": 49645,
  "Span": 18821,
  "butyl": 37476,
  "Ġjewelry": 28226,
  "Ġcommanding": 36174,
  "Ġhim": 779,
  "grass": 34495,
  "Ġconnectivity": 17769,
  "No": 2302,
  "Ġredistribution": 44461,
  "Ġsteer": 37434,
  "Ã«": 10093,
  "lightly": 46711,
  "yel": 44447,
  "ĠDad": 16522,
  "Ġpitched": 33517,
  "whe": 18432,
  "ĠFi": 33813,
  "ĠWoods": 26496,
  "Ġdisproportion": 30839,
  "ĠSynd": 31181,
  "retched": 29635,
  "24": 1348,
  "CLAIM": 35772,
  "æīĢ": 25276,
  "Ġinvolvement": 10171,
  "XL": 31823,
  "ĠRespondents": 43607,
  "Ġarms": 6174,
  "Ġvoting": 13423,
  "ffield": 39211,
  "Ġelephants": 42322,
  "Ġhundreds": 8307,
  "ĠRou": 25952,
  "¿½": 19675,
  "ĠJour": 30089,
  "Ġ225": 19956,
  "ĠMLS": 33894,
  "ĠMead": 31662,
  "erguson": 28210,
  "Ġemployment": 8410,
  "Opp": 42153,
  "Ġdaar": 48720,
  "ÃŃses": 37294,
  "ĠSant": 18056,
  "Ġmant": 18006,
  "LINK": 26679,
  "oids": 9448,
  "ĠWin": 12932,
  "Ġmicrol": 48661,
  "ĠPierce": 32042,
  "gian": 15287,
  "Ġplanetary": 33600,
  "ĠOK": 10826,
  "Ġrevision": 18520,
  "Ġtending": 43981,
  "door": 11806,
  "DEN": 42917,
  "*(-": 14361,
  "Ġ324": 32479,
  "Ġestud": 47101,
  "Ġpaired": 18433,
  "CAM": 34508,
  "ĠLt": 34146,
  "Ġinspector": 34771,
  "Getty": 24051,
  "iser": 9141,
  "Ġsequentially": 32627,
  "ĠPI": 14328,
  "Ġvacant": 33997,
  "olly": 10378,
  "ĠProt": 37319,
  "ĠLips": 37089,
  "Ġ303": 29980,
  "126": 13381,
  "Ġadvoc": 9695,
  "electro": 39782,
  "Pair": 31826,
  "ĠBundes": 42442,
  "ĠInf": 13160,
  "ĠSurviv": 49693,
  "Ġbecame": 3395,
  "Ġchanging": 6890,
  "Ġcocoa": 41621,
  "Ġentered": 5966,
  "Ġgover": 1726,
  "Ġinsufficient": 12497,
  "ĠEmergency": 28060,
  "Ġfashion": 8142,
  "Ġfeelings": 10450,
  "inge": 18909,
  "bw": 39220,
  "IH": 20042,
  "Disclaimer": 43963,
  "OOGLE": 29367,
  "Ġ1981": 13402,
  "ambled": 30691,
  "otal": 5359,
  "CU": 18094,
  "Ġ74": 10677,
  "Mapper": 37479,
  "ĠATCC": 48745,
  "ĠCCD": 33169,
  "Priv": 36234,
  "ĠPod": 20361,
  "ĠPay": 12286,
  "ĠRodrig": 22709,
  "placed": 26248,
  "Ġforefront": 43213,
  "imab": 36270,
  "Ġneonatal": 25239,
  "Ġoffseason": 42346,
  "Ġparietal": 44203,
  "Ġpatio": 42801,
  "ackets": 24231,
  "Ġpen": 4331,
  "fit": 8491,
  "`": 65,
  "details": 23454,
  "Ġshootings": 42509,
  "Ġsten": 24950,
  "Ġsunny": 32650,
  "ĠvÃ¤": 28574,
  "Ġz": 1182,
  "006": 7174,
  "hen": 864,
  "OTO": 21667,
  "ĠMERCHANTABILITY": 20863,
  "ĠMack": 23302,
  "ubotu": 40743,
  "utations": 35294,
  "ĠWild": 13303,
  "Ġinnocent": 15377,
  "ĠÐĺ": 35256,
  "ActivityThread": 44369,
  "ason": 1187,
  "320": 18911,
  "cat": 8076,
  "pher": 20640,
  "Ġ355": 26033,
  "Ġidentifiable": 38640,
  "elike": 44549,
  "PES": 42143,
  "orient": 13981,
  "Ġreforms": 23809,
  "Ġwreck": 24028,
  "Ġflights": 20818,
  "¼": 122,
  "Ġexploited": 28734,
  "tie": 37678,
  "ĠHand": 10535,
  "}}}}\\": 39272,
  "Ġworry": 7664,
  "Ġorganizers": 37630,
  "Ġdesde": 28947,
  "Ã±o": 21000,
  "Ġhippocampus": 26382,
  "Ġpain": 3075,
  "commun": 11713,
  "nest": 48050,
  "Ġ%}": 23791,
  "ĠSalt": 23790,
  "Ġhippocampal": 30348,
  "ĠApplied": 29236,
  "ĠAce": 37667,
  "ĠTom": 6270,
  "Ġseparate": 4858,
  "Ġdeline": 30191,
  "Ð¸Ð½Ð°": 43495,
  "ĠDalton": 46262,
  "Ġrestructuring": 48090,
  "Ġweaving": 49840,
  "Ġprobative": 42192,
  "Ġtiters": 41876,
  "innings": 32599,
  "Ġamp": 32263,
  "disc": 12722,
  "æ±": 24545,
  "Ġbond": 5533,
  "ederal": 3224,
  "Ġdataset": 10895,
  "itta": 40426,
  "Ġowns": 21186,
  "Ġsniff": 31505,
  "endez": 46869,
  "Ð¾Ðº": 15647,
  "Ġfinger": 9185,
  "Ġreported": 2361,
  "Ġsax": 44392,
  "ĠDonna": 35436,
  "ĠMoh": 15493,
  "Ġbio": 9015,
  "Ġaden": 12067,
  "Ġsubsidies": 34371,
  "Ġunions": 21324,
  "Ġaston": 21278,
  "Ġville": 43887,
  "YN": 43092,
  "Ġnombre": 31168,
  "Ġep": 2563,
  "Cert": 23940,
  "WARD": 48941,
  "bbe": 49472,
  "Sales": 43819,
  "ĠSide": 19942,
  "adr": 35658,
  "Ġmonoton": 41907,
  "Ġned": 44370,
  "iforn": 4599,
  "ĠBoston": 9693,
  "obuf": 23605,
  "Ġovercoming": 40845,
  "åĪĹ": 44157,
  "Remember": 21914,
  "osh": 6934,
  "Ġprism": 49615,
  "Ã¤Ã¤n": 21964,
  "hljs": 43145,
  "Ġcabinets": 47545,
  "ĠWARN": 47303,
  "EMPT": 47913,
  "Ġrecursive": 33037,
  "At": 3404,
  "Risk": 44751,
  "rop": 1658,
  "Ġfaz": 42361,
  "ĠÑī": 42823,
  "å°Ĩ": 37373,
  "tn": 14543,
  "ÏĢÎ±": 42044,
  "Ġamorphous": 30831,
  "Ġdeputies": 41108,
  "Ġfish": 6773,
  "ĠReason": 29382,
  "\"}\\].": 38475,
  "402": 24948,
  "hte": 28993,
  "ĠBobby": 24707,
  "Ġmess": 4840,
  "Ġtheaters": 37807,
  "Ġyielding": 27012,
  "Ar": 2906,
  "orectal": 21073,
  "ÃŃv": 49099,
  "ĠSharp": 36540,
  "Ġexport": 13474,
  "animals": 30887,
  "Ġsystematic": 12082,
  "SOL": 45136,
  "Ġvary": 6889,
  "75": 1976,
  "ĠDb": 46688,
  "fv": 38379,
  "Ġdownside": 42719,
  "Ġexamine": 9186,
  "Ġfunction": 1159,
  ",{{\\": 35768,
  "Conclusions": 22807,
  "enin": 27112,
  "Ġprosper": 20464,
  "ack": 471,
  "ĊĠĠ": 1772,
  "posing": 28163,
  "rei": 31586,
  "ĠAES": 47423,
  "Ġcollecting": 17055,
  "atur": 4953,
  "Ġphospholip": 31939,
  "Ġachieving": 17170,
  "microm": 36132,
  "âĪ": 1853,
  "è": 164,
  "Ġassum": 3112,
  "Ġpraise": 19916,
  "Ġcout": 31374,
  "Ġsomeone": 3095,
  "Ġcrank": 33852,
  "dynamics": 41546,
  "amed": 3163,
  "diss": 36884,
  "ĠKurdish": 41340,
  "ĠLady": 12688,
  "Ġstock": 5739,
  "plays": 42241,
  "](#": 1084,
  "iverse": 7708,
  "æį®": 32130,
  "ĠSchmidt": 31400,
  "Ġevoked": 32338,
  "Ġtesticular": 49734,
  "Ġsuppressor": 34224,
  "ĠAll": 1876,
  "'));": 26811,
  "Ġnausea": 33706,
  "INDEX": 34558,
  "Ġvanish": 29259,
  "èĻ": 46982,
  "Ġsnaps": 48569,
  "Ġsquarely": 48859,
  "Ġteachers": 10954,
  "Ġabsent": 12125,
  "Ġconstitution": 7410,
  "Ġmoment": 2774,
  "Ġannounced": 6138,
  "Ġsmash": 45905,
  "Ġpatents": 21410,
  "415": 30977,
  "ideos": 31686,
  "acs": 18944,
  "cca": 18442,
  "ĠCB": 17933,
  "Ġbone": 5961,
  "ĠĠĠĠĠĠĠĠĠĠĠĠĠĠĠĠĠĠĠĠ": 5121,
  "ĠPo": 8081,
  "ega": 3604,
  "ĠSelected": 38580,
  "compile": 26032,
  "engo": 38434,
  "Ġadolescents": 20292,
  "Ġeventual": 27585,
  "Ġhous": 4987,
  "ramble": 45110,
  "Ġmucosal": 30617,
  "Ġprojection": 12378,
  "assign": 28704,
  "reements": 36559,
  "Ġspec": 946,
  "Ġpreclude": 31423,
  "arse": 10788,
  "ĠShape": 42668,
  "Ïİ": 13913,
  "Ġthorough": 11080,
  "Ġdream": 7156,
  "Ġmast": 20971,
  "annels": 7059,
  "Ġstudent": 5974,
  "ĠKavanaugh": 47598,
  "Ġestim": 3311,
  "ĠCreative": 28283,
  "åİŁ": 39673,
  "ĠFact": 22481,
  "Ġgeared": 48526,
  "Prefab": 43472,
  "verts": 31332,
  "uno": 26162,
  "Ġham": 10546,
  "Ġschedules": 28631,
  "0017": 31202,
  "idium": 29455,
  "alt": 2711,
  "ĠBrandon": 29040,
  "Ġundermine": 29614,
  "Ġcollar": 23966,
  "ĠIch": 32185,
  "commend": 27167,
  "cyclopedia": 34132,
  "Ġothers": 2571,
  "Ġquietly": 16092,
  "CAN": 40555,
  "Ġpartnered": 47199,
  "Nob": 25372,
  "openh": 32610,
  "Ġnav": 6563,
  "Ġprecision": 12320,
  "Ġzal": 47148,
  "ISON": 48278,
  "Ġblade": 15096,
  "Ġshipped": 24610,
  "ĠPy": 8462,
  "Ġrecommendation": 17401,
  "oxin": 32747,
  "gly": 13233,
  "Monitor": 43691,
  "Ġhttps": 5987,
  "396": 24698,
  "width": 3429,
  "Ġgrey": 14370,
  "Ġoverwrite": 50029,
  "ĠJill": 36253,
  "Ġpick": 2619,
  "Ġimaged": 35014,
  "aste": 4740,
  "Ġcelebrations": 41044,
  "working": 21107,
  "Ġattorney": 6834,
  "ogel": 40836,
  "Ġbuck": 12433,
  "Ġcooking": 12398,
  "Ġcrashes": 29212,
  "ĠMotion": 16066,
  "mv": 36386,
  "ĠtÃ©": 36953,
  "ĠGovernor": 15636,
  "Ġgraduated": 20981,
  "Ġweary": 35725,
  "throughput": 41416,
  "hael": 49707,
  "ILL": 10592,
  "ĊĠĠĠĠĠĠĠĠĠĠĠĠĠĠĠĠĠĠĠĠĠĠĠĠĠĠĠĠĠĠ": 22597,
  "imos": 29058,
  "thening": 25230,
  "uties": 47407,
  "ĠArab": 8365,
  "ĠUniv": 34599,
  "085": 41532,
  "Ġpainful": 16592,
  "ĠPers": 10400,
  "Ġowners": 9891,
  "Ġinfinitely": 29556,
  "shaped": 13824,
  "Additionally": 28144,
  "HEAD": 22225,
  "ĠAuthority": 17907,
  "Ġbottle": 11996,
  "Parameter": 15402,
  "olds": 3502,
  "Ġduty": 7143,
  "ifice": 33095,
  "rk": 33716,
  "Ġent": 994,
  "Ġparental": 17087,
  "arcia": 20966,
  "Ġ/\\": 43933,
  "Ġphilosopher": 29875,
  "atorial": 25922,
  "ĠMage": 45851,
  "ĠĠĠĠĠĠĠĠĠĠĠĠĠĠĠĠĠĠĠĠĠĠĠĠĠĠĠĠĠĠĠĠĠĠĠĠĠĠĠĠĠĠĠĠĠĠĠĠĠĠĠĠĠĠĠĠĠĠĠĠĠĠĠĠĠĠĠĠĠĠĠĠĠĠĠĠĠĠĠ": 48303,
  "ĠFIN": 36121,
  "ĠImages": 13478,
  "ĠApps": 44429,
  "Ġabsorbing": 33121,
  "earth": 29500,
  "Ġsubstit": 10829,
  "Guest": 38537,
  "Write": 10639,
  "consuming": 33136,
  "master": 11717,
  "dup": 34856,
  "ãĢĤ": 4340,
  "adam": 43089,
  "asures": 16997,
  "mac": 12432,
  "ĠShin": 33655,
  "Ġjurors": 25710,
  "tle": 22924,
  "Ġsupr": 32909,
  "glycer": 38575,
  "Ġact": 769,
  "023": 13269,
  "ĠConnecticut": 20973,
  "Ġremarks": 16157,
  "another": 23955,
  "oka": 20531,
  "roup": 47700,
  "Ġ1894": 46470,
  "Ġarchive": 21429,
  "ised": 1701,
  "North": 19846,
  "ocre": 49636,
  "Ġnpm": 44258,
  "agua": 45877,
  "Ġsper": 14413,
  "ĠFormat": 31512,
  "Ġincorrectly": 30833,
  "Ġindirectly": 21719,
  "Ġcar": 1113,
  "ield": 1001,
  "Ġtravelling": 22710,
  "ĠFX": 36775,
  "àµį": 33695,
  "ĠLieutenant": 22389,
  "ĠNFL": 13946,
  "izarre": 25944,
  "Ġruin": 23737,
  "Ġexhib": 4813,
  "Ġfeatured": 12819,
  "iscus": 48218,
  "Ġcohes": 28901,
  "Ġincorporation": 24319,
  "Ð±": 8787,
  "Ġ313": 31389,
  "Ġoverexpression": 19911,
  "Ġsoll": 36959,
  "yna": 45955,
  "Ġ.\\": 30412,
  "POST": 15743,
  "Ġreflections": 24233,
  "Ġdesarroll": 50158,
  "Ġcommitting": 26841,
  "Ġinhabited": 41477,
  "Ġshocking": 29103,
  "Ġtelescopes": 49997,
  "ĠvÃ¦re": 46249,
  "g": 72,
  "osit": 41479,
  "Ġdoubts": 24626,
  "krit": 41134,
  "Ġcustomary": 35629,
  "Ġol": 8919,
  "Ġprincipally": 39288,
  "ĠFine": 25913,
  "ukes": 41757,
  "ĠthÃ©": 44134,
  "Hidden": 37828,
  "ÂłÂł": 2519,
  "Ġmorphine": 37464,
  "rapped": 28016,
  "eon": 33453,
  "Ġhing": 34865,
  "Ġorganisation": 19156,
  "Ġsufficient": 4209,
  "function": 3701,
  "tfrac": 21103,
  "Ġ}^{": 47260,
  "ĠLP": 20590,
  "Ġcompress": 19477,
  "Ġwrestling": 28508,
  "406": 24854,
  "Ġemp": 41534,
  "gated": 27189,
  "ophysical": 40947,
  "Ġaltogether": 17965,
  "ĠPhilippine": 43783,
  "Ġgrav": 7462,
  "Ġshred": 28347,
  "ome": 485,
  "ieux": 34750,
  "ĠBorough": 45663,
  "igue": 14406,
  "Ġcoating": 14037,
  "ollywood": 41265,
  "èĩ": 16787,
  "nes": 5210,
  "âĢĥ": 3930,
  "ĠManchester": 17427,
  "717": 46043,
  "Ġaesthetics": 47326,
  "ä¸»": 34204,
  "Ġaccelerating": 38757,
  "Ġmacro": 14823,
  "Mu": 31425,
  "]*": 23741,
  "ge": 463,
  "Ġenduring": 36543,
  "Ġfri": 2054,
  "Met": 12442,
  "Ġsteadily": 25060,
  "Ġexams": 34666,
  "ĠBiomed": 48465,
  "materials": 11310,
  "Ġinstructive": 49664,
  "count": 5560,
  "Ġ321": 33251,
  "Ġ\"~": 43720,
  "Ġcancelled": 26224,
  "ĠPCs": 36164,
  "Ġimproved": 5520,
  "ĠAPP": 28878,
  "ĠIr": 7854,
  "atisf": 16412,
  "Ġobj": 10928,
  "Ġpregn": 6632,
  "Ġrecipients": 20841,
  "ĠLHC": 35864,
  "Ġwonderful": 9386,
  "RT": 4708,
  "socket": 25328,
  "ĠTorres": 38295,
  "Ġgameplay": 30355,
  "Ġfortun": 22972,
  "Ġjelly": 39018,
  "Ġflic": 44061,
  "Ġcompensate": 23514,
  "Ġparticul": 46596,
  "Ġphot": 2359,
  "oria": 20130,
  "ĠNHS": 28530,
  "forum": 39061,
  "inted": 26082,
  "Ġinitially": 8523,
  "technology": 48786,
  "FM": 18278,
  "music": 30911,
  "877": 47220,
  "ĠAsia": 10497,
  "ĠDifferences": 33968,
  "proportion": 26894,
  "force": 4774,
  "istan": 7399,
  "aying": 16948,
  "ĠGO": 11488,
  "IFF": 42130,
  "ĠLatino": 36180,
  "ĠMetropolitan": 28634,
  "ĠRomanian": 45575,
  "Â¸": 11466,
  "ĠSNPs": 19208,
  "Ġcheap": 11142,
  "ĠHab": 25181,
  "Ġfarms": 21976,
  "Ġfain": 46947,
  "ĠKar": 12604,
  "Ġ./": 27479,
  "ĠUltimate": 37648,
  "Ġassembl": 19308,
  "Ġevac": 21019,
  "Ġhosp": 45304,
  "OTT": 31219,
  "devices": 49242,
  "Ġmejor": 43587,
  "Ġlleg": 37568,
  "Ġrepetition": 22563,
  "uba": 25642,
  "æĸ°": 24308,
  "                        ": 50254,
  "ãĥĨ": 28656,
  "ĠJudge": 6798,
  "Ġ04": 16703,
  "Ġplas": 26507,
  "Ã¼ss": 33880,
  "mock": 24568,
  "Ġty": 963,
  "Ids": 33922,
  "ĠBefore": 9613,
  "Ġadvising": 44083,
  "Ġhonesty": 33773,
  "Ġputative": 20009,
  "(?": 47928,
  "ĠERR": 22535,
  "ĠMunicip": 26117,
  "lying": 2943,
  "ĠAF": 11854,
  "ITH": 7176,
  "Ġplag": 32929,
  "Ġrandomly": 12421,
  "Split": 33720,
  "ef": 832,
  "Ġunreal": 32638,
  "ogly": 19644,
  "ostomy": 50089,
  "cemic": 33863,
  "Prec": 40675,
  "ctor": 1870,
  "ĠCRP": 35146,
  "Ġassumption": 9376,
  "Ġdiversity": 9991,
  "Ġ/>": 4725,
  "Ġfmt": 21081,
  "Ġlooks": 4453,
  "ashion": 6823,
  "Ġmobilization": 42976,
  "Ven": 39685,
  "asury": 19659,
  "BR": 7941,
  "comput": 16777,
  "ptide": 18238,
  "Ġim": 516,
  "ĠEasy": 28127,
  "Ġconstitute": 12647,
  "Infl": 33675,
  "Ġlengthy": 24585,
  "ĠsiRNA": 20271,
  "==": 381,
  "Ġloro": 37938,
  "ĠMining": 44102,
  "Ġkeyboards": 45640,
  "Ġafraid": 9202,
  "ĠSimple": 19743,
  "Ġbackwards": 24291,
  "203": 17490,
  "Ġprocess": 1232,
  "igm": 15379,
  "Serial": 17299,
  "ĠAC": 11940,
  "oufl": 48821,
  "ĠCDC": 29538,
  "SZ": 48700,
  "Ġpatient": 3110,
  "Ġshaping": 29209,
  "Ġshowc": 44762,
  "TestCase": 40595,
  "ĠJustin": 20839,
  "Ġdifferentiate": 22629,
  "Ġinteractive": 18366,
  "Check": 9063,
  "Ġopts": 32659,
  "}}/": 29465,
  "etus": 37275,
  "NotNull": 41419,
  "Ġdynamic": 7870,
  "Relative": 29030,
  "Ġalert": 10028,
  "Ġcomparable": 10870,
  "áĥĺáĥ": 42490,
  "Build": 10987,
  "ĠKamp": 46882,
  "Ġaide": 35200,
  "Ġburger": 42463,
  "Ġits": 697,
  "Ġpatterned": 40749,
  "Ġdisclaimer": 27578,
  "Ġoutcomes": 6973,
  "Ġroz": 33971,
  "ãĥ¼ãĤ¸": 49030,
  "widetilde": 6796,
  "arshall": 44565,
  "020": 9992,
  "Ġsponsored": 24834,
  "Ġsqu": 3896,
  "Ġdivides": 37141,
  "Ġtempting": 39189,
  "Ġwhilst": 16682,
  "Ġwow": 39361,
  "ĠFletcher": 38711,
  "Kenn": 45395,
  "Ġvoy": 21554,
  "ĠCircle": 29572,
  "ĊĊĠĠĠĠĠĠĠĠĠĠĠĠĠĠĠ": 11475,
  "Ġeducate": 31150,
  "Btn": 46307,
  "ĠHall": 6696,
  "Ġtranscriptome": 38552,
  "Ġdisse": 15062,
  "âĶĢâĶĢ": 13526,
  "Ġshrinking": 39443,
  "Ġwaved": 27194,
  "decision": 33642,
  "Ġneutralizing": 50130,
  "ĠPrison": 31083,
  "`.": 16433,
  "dp": 12132,
  "ishing": 3647,
  "Marc": 31900,
  "ĠGPU": 24720,
  "pq": 33426,
  "okers": 20972,
  "ĠHon": 10916,
  "ractice": 15503,
  "Ġ802": 32440,
  "ĠPO": 19784,
  "ĠNMR": 19790,
  "Ġangiotensin": 41600,
  "Ġcarcinoma": 12382,
  "League": 43174,
  "lege": 3792,
  "Ġgn": 18976,
  "Ġlemma": 18057,
  "Ġacceleration": 17680,
  "javascript": 14606,
  "ĠExped": 45626,
  "yrs": 41939,
  "ĠEvent": 11846,
  "Ħ": 215,
  "fect": 738,
  "Ġcancers": 15110,
  "è¦ģ": 18764,
  "Ġsidebar": 46078,
  "Ġwhisper": 24476,
  "161": 20664,
  "ossa": 30797,
  "Ġ$+": 49938,
  "ĠProposition": 11506,
  "GAL": 33044,
  "ighter": 8532,
  "imps": 39830,
  "Ġswinging": 34535,
  "ral": 1544,
  "right": 918,
  "Ġforeign": 5639,
  "Consumer": 43473,
  "Ġeclipse": 36697,
  ">$": 24576,
  "viously": 11529,
  "Ġmystical": 47955,
  "Gar": 31352,
  "Ġdengue": 41336,
  "ĠLittle": 11573,
  "ĠReserved": 32997,
  "Ġindent": 26234,
  "ĠRichard": 7727,
  "Ġscholarship": 26104,
  "Ġmethodology": 16182,
  "ogo": 24912,
  "Ġseniors": 36710,
  "Ġ\\!": 21846,
  "andel": 34634,
  "Ġburied": 14205,
  "ĠCycl": 25053,
  "Techn": 31019,
  "Ġlongest": 20088,
  "449": 29185,
  "\\}$.": 19562,
  "èĦ": 43641,
  "Ġmusic": 3440,
  "ĠCody": 48545,
  "Ġknees": 15746,
  "ĠSta": 30416,
  "Ġangiography": 36398,
  "KS": 14007,
  "quisite": 37917,
  "Ġchemically": 34663,
  "Ġdebe": 47643,
  "Ġviability": 17036,
  "documents": 47878,
  "hspace": 12887,
  "hub": 39981,
  "Ġaureus": 26494,
  "Ġstrlen": 47287,
  "olute": 18046,
  "./": 11379,
  "Ġclause": 13604,
  "Ġphosphorylated": 31232,
  "Medium": 46374,
  "ĠMichel": 16833,
  "ulating": 8287,
  "Ġfootball": 5842,
  "Ġmolding": 32828,
  "Ġpa": 1349,
  "{(": 11065,
  "Ġbreaks": 13471,
  "Maria": 44906,
  "Ġcommerce": 19938,
  "Ġmer": 4285,
  "ustomed": 28048,
  "ĠMuslims": 16492,
  "Ġbron": 13605,
  "ilevel": 48268,
  "ĠJar": 24064,
  "Ð¸Ñĩ": 18565,
  "Ġfluctuation": 31608,
  "Ġwish": 5730,
  "ĠInstruction": 41959,
  "Ġtriangles": 30102,
  "Ġbosses": 39682,
  "Ġlogger": 28822,
  "plement": 3018,
  "monitor": 46905,
  "ismatic": 43307,
  "ĠAÎ²": 28381,
  "Ġhistory": 2892,
  "ĠHBO": 41069,
  "Ġleague": 9728,
  "CTX": 36882,
  "ĠStatutes": 47654,
  "Ġattractive": 12994,
  "Ġappearing": 15602,
  "Ġpsori": 38573,
  "Ġwives": 26283,
  "orders": 6609,
  "Ġdeleter": 40272,
  "enge": 4703,
  "ittest": 44713,
  "oblast": 16827,
  "inks": 3106,
  "ĠIRS": 20484,
  "pop": 9576,
  "ĠHamburg": 38343,
  "ĠVul": 34820,
  "Ġground": 3216,
  "Tal": 41520,
  "Ġunrealistic": 46521,
  "ĠMaggie": 34327,
  "Ġsettle": 16359,
  "ĠGonzalez": 36800,
  "Ġsubgroup": 14632,
  "ppa": 34043,
  "ĠCOPD": 27079,
  "Ġcd": 22942,
  "ĠPU": 16315,
  "dash": 27207,
  "istine": 36886,
  "upal": 33020,
  "670": 44647,
  "Def": 4612,
  "ĠVari": 19988,
  "ĠZealand": 12123,
  "Ġ40": 3387,
  "anse": 46679,
  "ĠHb": 24777,
  "Ġanalogues": 41222,
  "ryption": 18008,
  "ĠRespond": 16546,
  "552": 39338,
  "ĠKum": 47833,
  "Ġmitt": 50075,
  "Ġresulted": 7369,
  "Ġfrontier": 34642,
  "Ġspine": 17201,
  "ł": 243,
  "Ġsuite": 18880,
  "jek": 32374,
  "ijk": 16392,
  "ĠPA": 8010,
  "orting": 12655,
  "Ġone": 581,
  "ĠCharacteristics": 38626,
  "ĠPercent": 31396,
  "statement": 25322,
  "Ġ1929": 29063,
  "Ġfloats": 48158,
  "Ġtreating": 12767,
  "aside": 45529,
  "Ġpure": 6313,
  "lette": 26137,
  "Ġscared": 16060,
  "maven": 32075,
  "Year": 18085,
  "fn": 4174,
  "Ġ117": 12387,
  "Ġdeter": 25615,
  "ĠLT": 26124,
  "Ġsunt": 43098,
  "753": 38464,
  "Ġreasonably": 12054,
  "ĠBG": 40126,
  "foods": 36632,
  "Ġvectors": 11390,
  "æ³¨": 44712,
  "Ġshaft": 13755,
  "Ġsooner": 19473,
  "Ġspor": 24188,
  "Ġthen": 840,
  "Ġ];": 25896,
  "ãģĿãĤĮ": 39984,
  "Ġsentido": 45174,
  "ĠVictorian": 27794,
  "Ġstool": 32217,
  "swers": 45823,
  "ĠITS": 37879,
  "Ġforced": 6726,
  "Ã¤Âº": 31782,
  "ĠRab": 21385,
  "Ġsmells": 34247,
  "dict": 8102,
  "acterial": 24097,
  "Ġcharacters": 5810,
  "serious": 47396,
  "stitution": 5379,
  "Ġprice": 4376,
  "Ġ@\"": 27508,
  "strength": 45563,
  "]{}\\^[": 44162,
  "ĠALS": 38410,
  "Ġconj": 7862,
  "Ġcolle": 7755,
  "ĠWyn": 48596,
  "Ġserving": 9417,
  "uitary": 32419,
  "ĠMinistry": 13421,
  "Ġprocedural": 19993,
  "Simple": 21595,
  "Ġd": 277,
  "'d": 1871,
  "152": 17472,
  "ĠKirby": 48555,
  "Ġellos": 47204,
  "Ġtr": 492,
  "ĠOrleans": 20159,
  "ĠÐ´Ð°": 23204,
  "controller": 19879,
  "ĊĠĠĠĠĠĠĠĠĠĠĠĠĠĠĠĠĠĠĠĠĠĠ": 17482,
  "Ġamaz": 7001,
  "ĠEgypt": 10253,
  "uffix": 31941,
  "Ġasync": 20605,
  "ITED": 12663,
  "diff": 13437,
  "Ġchemical": 5793,
  "Ġcontin": 1558,
  "Ġforeach": 21495,
  "Ġinteractions": 6355,
  "Ġduly": 38597,
  "ytics": 27944,
  "Ġeller": 28688,
  "Ġleptin": 37751,
  "roz": 44706,
  "zig": 29899,
  "post": 5996,
  "1977": 20087,
  "ĠSgt": 48653,
  "ĠNewcastle": 35459,
  "Ġfunc": 11632,
  "Ġgit": 19421,
  "Ġtrademark": 26014,
  "350": 16552,
  "Ev": 12018,
  "ĠsÃ¤": 31051,
  "Ġexplains": 11424,
  "lords": 42730,
  "Ġbo": 1766,
  "atsu": 34055,
  "ĠGle": 36747,
  "ĠExcel": 24252,
  "Ġpreventing": 13538,
  "Thom": 42299,
  "Ġimprisonment": 19841,
  "with": 3113,
  "347": 23568,
  "Ġappellee": 21113,
  "Ġbiodegrad": 48913,
  "ĠPride": 39523,
  "Ġ710": 47889,
  "Ġprogressing": 49163,
  "Ġdeco": 47188,
  "Ġquantization": 36643,
  "ĠReform": 27828,
  "ĠSil": 7949,
  "ĠCTC": 45736,
  "Ġhostility": 37429,
  "ĠLEDs": 41712,
  "immun": 13111,
  "Container": 15226,
  "orth": 2156,
  "columnwidth": 33237,
  "glut": 23897,
  "Ġtolerate": 31259,
  "Ko": 40849,
  "Joseph": 32618,
  "ĠPROVIDED": 33278,
  "a": 66,
  "ĠPolymer": 49978,
  "Ġsculptures": 48106,
  "Ġ$('.": 40288,
  "iano": 10356,
  "Âĩ": 18994,
  "çŃī": 38563,
  "Ġeasier": 6927,
  "Ġdiagn": 3457,
  "Ġflexibility": 15840,
  "Ġgastric": 16418,
  "webpack": 48437,
  "771": 40379,
  "589": 49025,
  "Loss": 43228,
  "acho": 49072,
  "ĠLib": 9271,
  "Ġdisposed": 15432,
  "Ġgained": 12103,
  "Ġmarginally": 42876,
  "Ġpersonally": 11697,
  "Ġsurvives": 46046,
  "ĠHIS": 38164,
  "Ġmild": 11134,
  "Ġâ": 3384,
  "'ve": 1849,
  "ĠMAG": 40070,
  "Ġcomplied": 35037,
  "enc": 2083,
  "Ġreader": 9414,
  "ĠBMI": 15481,
  "RE": 1848,
  "ĠScripture": 39447,
  "Ġqu": 572,
  "ĠArkansas": 21618,
  "Ġdesired": 6799,
  "ĠAlbany": 38752,
  "ancock": 47453,
  "resolved": 20918,
  "ĠIMP": 37401,
  "Ġ519": 45502,
  "Ġprogenitors": 42388,
  "Ġused": 908,
  "Ð°Ð¼Ð¸": 35411,
  "ĠRM": 25607,
  "Ġsalvage": 40811,
  "Ġvehicles": 9411,
  "Ġvoor": 13513,
  "Ġwrongful": 32288,
  "Such": 18869,
  "repository": 37498,
  "ĠGem": 28540,
  "ĠPresidential": 37029,
  "Ġcoupled": 9904,
  "Ġastrocytes": 35622,
  "Ġ323": 32597,
  "terness": 42673,
  "Ġ509": 42400,
  "ĠSolution": 33521,
  "Ġarranged": 10912,
  "čĊĉĉ": 11459,
  "Ġacts": 6993,
  "jours": 38151,
  ";\"><": 30863,
  "Ġirrit": 17339,
  "Ġmood": 12315,
  "Ġtradem": 20033,
  "Ġsiempre": 48092,
  "Defendants": 38421,
  "Ġangrily": 48834,
  "criptor": 16364,
  "iÄĩ": 23287,
  "expand": 28834,
  "icar": 23864,
  "ĠMight": 35284,
  "ĠNorway": 20341,
  "ĠDEFAULT": 29339,
  "ĠPle": 21231,
  "ĠRidge": 28188,
  "Ġbombs": 24401,
  "ilia": 21829,
  "Ġhilarious": 37750,
  "Ġhunting": 16121,
  "Ġterminate": 24174,
  "OUN": 32671,
  "Ġwriting": 4028,
  "ĠKeep": 16600,
  "ĠErin": 46604,
  "olean": 7451,
  "Ġimprovements": 11701,
  "ĠCountry": 17241,
  "Ð°Ð³": 27404,
  "ĠNev": 16393,
  "iked": 33457,
  "ilic": 24479,
  "adic": 18535,
  "ows": 5811,
  "lish": 3742,
  "oclast": 38293,
  "ĠNorm": 13531,
  "Ġpublisher": 19600,
  "Ġ498": 42872,
  "Ġresidency": 37647,
  "LEV": 25684,
  "Autom": 40531,
  "size": 3281,
  "Ġthereafter": 17096,
  "Ther": 24305,
  "958": 34240,
  "esc": 20039,
  "Process": 12919,
  "»¿": 24384,
  "ĠCharlotte": 21438,
  "Ġpredicate": 29524,
  "Ġtrap": 15464,
  "ĠKel": 22821,
  "Ġbg": 15826,
  "Open": 9807,
  "Ġpredefined": 41364,
  "ĠaprÃ¨s": 40797,
  "ÑĥÑİ": 26199,
  "Ġhighest": 4585,
  "beth": 47240,
  "Ġescapes": 44716,
  "Ġjealousy": 44170,
  "Ġmotives": 29613,
  "Ġsailed": 33497,
  "Ġtraumatic": 27784,
  "Site": 27327,
  "ĠJenkins": 29306,
  "arest": 4885,
  "ĠSand": 7889,
  "Ġpunch": 18750,
  "Ġair": 2329,
  "Ġdecide": 7617,
  "------------------------------": 28693,
  "634": 48419,
  "atches": 32358,
  "Ġblends": 43709,
  "Ġinv": 828,
  "Ġai": 23105,
  "**(": 8703,
  "Ġsurreal": 46172,
  "Ġë§": 46927,
  "memcpy": 47962,
  "prises": 21264,
  "ĠColomb": 24607,
  "ĠEs": 9615,
  "emb": 16697,
  "ĠTest": 6004,
  "Ġconfusion": 13775,
  "Ġfolders": 32160,
  "Ġmediator": 37190,
  "Ġtransitions": 16307,
  "orio": 44940,
  "Learn": 36599,
  "ĠTwenty": 19388,
  "Ġdet": 843,
  "Ġbaby": 6858,
  "Ġcircum": 4493,
  "quiet": 40748,
  "uspended": 30233,
  "uppose": 2384,
  "Â¯": 15500,
  "Ġdistinguish": 12129,
  "ĠSyrac": 46578,
  "WIN": 25079,
  "Ġlate": 3563,
  "constraint": 30995,
  "Ġfoss": 17122,
  "Ġlact": 16184,
  "*.,": 29432,
  "Guy": 46963,
  "Ġchoke": 45266,
  "Ġinhom": 34951,
  "Assume": 39418,
  "wl": 24966,
  "ÃĥÃĤ": 16990,
  "oyd": 15860,
  "SID": 49491,
  "Ma": 16490,
  "IO": 6527,
  "Ġfluorescent": 16094,
  "SOD": 44609,
  "ENG": 40861,
  "atible": 20497,
  "ÑĮ": 4169,
  "ĠAvailable": 26006,
  "call": 4065,
  "Ġthrone": 23399,
  "cpu": 19411,
  "Ġ1976": 14828,
  "Ġella": 43746,
  "Ġfinest": 23476,
  "ĠReturn": 16140,
  "ĠPho": 18096,
  "ĠUP": 20653,
  "ĠWat": 11327,
  "Ġhatch": 32732,
  "Ġbear": 8800,
  "ppo": 31244,
  "img": 8428,
  "Ġultraviolet": 31763,
  "Ġparole": 22640,
  "Values": 15888,
  "addEventListener": 44364,
  "worked": 45260,
  "ĠSection": 5238,
  "NR": 10189,
  "ĠOak": 17026,
  "untary": 26900,
  "ĠLiberal": 21739,
  "Ġtactical": 31532,
  "lab": 13068,
  "Ġ218": 26578,
  "Ġstuff": 5017,
  "ĠErik": 40537,
  "ĠVerizon": 39790,
  "lene": 28740,
  "ĠSag": 43509,
  "pha": 1494,
  "Ġsurgeons": 30208,
  "ĠsÃŃ": 36185,
  "ĠExcell": 36345,
  "Ġjamais": 46109,
  "Ġ=>": 3001,
  "Ġmounts": 47001,
  "feld": 25281,
  "ĠBurns": 32574,
  "Ġcomprom": 10953,
  "Ġhemisphere": 32660,
  "Ġperitoneal": 35948,
  "ĠBenefits": 43648,
  "Ġnewspaper": 11547,
  "isti": 49356,
  "uda": 14776,
  "Î¸Îµ": 38377,
  "ĠOwens": 44248,
  "Ġchaos": 20142,
  "Ġgranules": 39216,
  "Ġpieces": 7437,
  "Ġ521": 44817,
  "Ġstipulation": 41626,
  "ÑıÑĤ": 24248,
  "Ġtill": 7357,
  "ĠTheodore": 40424,
  "mak": 45879,
  "iotensin": 33721,
  "ĠCapitol": 27314,
  "Ġcasually": 42708,
  "Ġcrime": 6617,
  "Ġcraft": 11072,
  "Ġclassification": 9162,
  "Ġaccompanies": 43604,
  "ĠSOC": 31909,
  "pression": 10862,
  "Holder": 27046,
  "ĠBCE": 46730,
  "BV": 13152,
  "Ġhilar": 31157,
  "Ġnozzle": 28181,
  "incing": 19163,
  "Ġnumerous": 7418,
  "ĠRoll": 21508,
  "Ġzombie": 42120,
  "818": 49172,
  "facial": 36101,
  "ç¾": 30255,
  "ises": 3013,
  "ĠSAN": 47061,
  "1007": 31182,
  "Never": 15751,
  ".*]{},": 27720,
  "alous": 19357,
  "furt": 34783,
  "ĠBulletin": 48805,
  "ĠHE": 10197,
  "ĠImportant": 46741,
  "Ġantagonist": 25166,
  "ĠRochester": 39528,
  "Ġarticles": 7774,
  "changed": 11950,
  "str": 1344,
  "ĠVeteran": 44117,
  "Ġairline": 27776,
  "Ġassembly": 7796,
  "bit": 2713,
  "Light": 19258,
  "NAP": 42032,
  "qp": 39541,
  "ĠAT": 4915,
  "ximate": 13954,
  "ĠEar": 40627,
  "ĠReds": 48660,
  "grey": 35579,
  "Ġautonomous": 26279,
  "ilt": 2878,
  "atura": 42582,
  "ĠTransportation": 26593,
  "Ġdoll": 6135,
  "Ġforts": 46805,
  "quare": 8974,
  "Ġsustainability": 32435,
  "Ġunacceptable": 28536,
  "Ġvenues": 28966,
  "Ġrenormal": 26749,
  "textwidth": 35673,
  "âĢĬ": 6250,
  "ANY": 22026,
  "OTHER": 39835,
  "Ra": 21328,
  "pll": 50153,
  "Associ": 36597,
  "athing": 31816,
  "ĊĉĊ": 22417,
  "Tot": 49471,
  "norm": 12850,
  "ova": 8947,
  "ĠAnc": 49546,
  "Flash": 45327,
  "toolbar": 44338,
  "ĠEngineering": 17388,
  "ĠMixed": 45126,
  "Ġcandy": 26996,
  "Ġcapacitance": 30026,
  "ple": 713,
  "ACS": 22897,
  "SPE": 22395,
  "Ġcorrecting": 35827,
  "Ġfootage": 20541,
  "Ġknee": 12267,
  "eration": 3328,
  "ĠParis": 7785,
  "Ġlowered": 17892,
  "ĠMA": 6908,
  "ĠSignal": 31616,
  "minimum": 35674,
  "Ġjaws": 43567,
  "alis": 21728,
  "ticket": 42186,
  "Ġ_{": 8454,
  "Ġlas": 4358,
  "equals": 22297,
  "Ġspawn": 30163,
  "Ġcontraction": 22170,
  "ĠDawn": 32962,
  "Ġstatist": 5227,
  "Ġsegregated": 50049,
  "ofs": 46627,
  "Ġ1936": 27386,
  "bian": 13564,
  "ertainly": 20427,
  "running": 24220,
  "Ġindul": 24509,
  "Ġintimate": 21383,
  "arts": 12863,
  "ĠInformation": 8339,
  ":\"": 5136,
  "Ġrotational": 22090,
  "Ġslim": 27973,
  "Ġspinning": 24428,
  "Ġunm": 23355,
  "Ġdiplom": 27242,
  "è¶": 34138,
  "alf": 2103,
  "Iron": 41331,
  "ĠSport": 21483,
  "Ġtracts": 40784,
  "awed": 36221,
  "Ġcalcul": 2661,
  "*/*": 26439,
  "Ġsegment": 8223,
  "Ġwrapping": 31705,
  "Ġjustices": 50236,
  "apse": 8023,
  "Ġperspectives": 24302,
  "Ġentirely": 7094,
  "-------------------------": 24702,
  "Ġgalaxies": 11123,
  "Ġyours": 13298,
  "Ġclimbed": 21863,
  "Ð½Ð¾Ðµ": 41627,
  "itiveness": 48826,
  "Ġbutton": 6409,
  "ĠSomal": 31874,
  "Ġventilation": 23815,
  "Ġcheaper": 20182,
  "Ġperturbation": 20452,
  "ocaust": 29542,
  "Ġthroughput": 28519,
  "color": 4897,
  "ĠHarper": 22663,
  "Ġeuropea": 42685,
  "cap": 4421,
  "Ġwilderness": 31654,
  "multi": 23939,
  "Ġstabilizing": 41427,
  "ĠHuman": 8801,
  "Ġcategorized": 27948,
  "waves": 47003,
  "ĠEnc": 35506,
  "Ġthink": 1158,
  "Ġ${\\": 2367,
  "Ġbrow": 6479,
  "Lim": 36469,
  "Ġvanilla": 26724,
  "ogan": 19356,
  "ĠKingston": 47706,
  "ĠÏĥÏĦÎ¿": 42191,
  "Ġfibrous": 39751,
  "ãģ«": 5444,
  "ĠGM": 15509,
  "ĠHer": 4058,
  "Ġsqueezing": 43464,
  "ĠAlexa": 31717,
  "ĠJerusalem": 17913,
  "cleanup": 47049,
  "ĠSydney": 17361,
  "Ġdoctor": 7345,
  "isiÃ³n": 32320,
  "Ġnucleus": 13787,
  "idyl": 26790,
  "ĠEST": 29511,
  "Ġdownloads": 38661,
  "simple": 19583,
  "++)": 9234,
  "Ġcapacitor": 23596,
  "January": 22423,
  "Console": 35184,
  "Ġsingular": 11098,
  "abstract": 15834,
  "342": 27222,
  "Und": 37544,
  "ÅĤ": 7679,
  "ĠHartford": 43839,
  "amar": 33830,
  "ĠÃºn": 49574,
  "Ġhonestly": 20509,
  "ĠĠĠĠĠĠĠĠĠĠĠĠĠĠĠĠĠĠĠĠĠĠĠĠĠĠĠĠĠĠĠĠĠĠĠĠĠĠĠĠĠĠĠĠĠĠĠĠĠĠĠĠĠĠĠĠĠĠĠĠĠĠĠĠĠĠĠĠĠĠ": 31617,
  "iele": 38853,
  "Ġreason": 1921,
  "Ġcrystal": 9266,
  "Ð°ÑĤ": 7065,
  "Ġaddictive": 49458,
  "Ġ71": 11102,
  "igt": 17496,
  "Ġimply": 16084,
  "leine": 44431,
  "esome": 10462,
  "ĠLawson": 48126,
  "Upsilon": 34674,
  "amazon": 32687,
  "lical": 25675,
  "oston": 8735,
  "ĠNZ": 40986,
  "Ġdispense": 47564,
  "Ġleaders": 7038,
  "ĠPetition": 13786,
  "Ġpredictions": 13650,
  "Ġfinals": 34482,
  "Ġ------": 16081,
  "Ġdiagnosed": 11245,
  "Ġprodig": 48864,
  "ĠBrexit": 22845,
  "VII": 48818,
  "ĠLyon": 42268,
  "Ġllam": 42078,
  "Ġretaining": 26179,
  "sam": 22163,
  "ĠHoldings": 46889,
  "Ġdisabilities": 26545,
  "orence": 24930,
  "ĠSUR": 45022,
  "Ġindexed": 32891,
  "Ġadditives": 36993,
  "SC": 4061,
  "Î¿Ïħ": 8520,
  "ĠAss": 2903,
  "ĠSadly": 47870,
  "Ġevolve": 23554,
  "Ġunrelated": 20804,
  "Ġwird": 23905,
  "Ġtransparency": 22107,
  "Ġ600": 12891,
  "Ġdeficient": 24030,
  "pan": 4029,
  "Ġexamples": 6667,
  "Ġdoubly": 44881,
  "Ġseverely": 18270,
  "Ġbeginnings": 46325,
  "nick": 23237,
  "ĠLOG": 34032,
  "form": 630,
  "Bank": 16822,
  ")=\\": 7182,
  "hydrogen": 22511,
  "osion": 25429,
  "regn": 21357,
  "Ġ247": 28875,
  "uk": 2788,
  "liver": 16735,
  "ĠElectric": 21171,
  "Ġbland": 40672,
  "Ġcarcinogenesis": 47355,
  "Ġbro": 1795,
  "Bon": 27157,
  "CP": 5305,
  "Ġclinicians": 26690,
  "âķ": 17865,
  "Ġfortified": 50251,
  "LAY": 25055,
  "ateness": 48362,
  "Ġfossil": 22852,
  "woods": 48853,
  "Ġappellants": 21142,
  "slash": 20861,
  "Ġ$.": 13355,
  "ĠMats": 31999,
  "rÃ¨s": 31030,
  "Ġconfigure": 20486,
  "Ġdespair": 25813,
  "Ġlayered": 36910,
  "Sum": 11808,
  "ots": 1502,
  "ĠAGA": 43492,
  "Ġcommunic": 3461,
  "=\"$(": 43306,
  "Ġ999": 48778,
  "Dis": 6744,
  "ERROR": 12641,
  "ĠU": 530,
  "Ġagencies": 11009,
  "Ġque": 1753,
  "ĠserÃ¡": 46240,
  "Ġshop": 8979,
  "Ġub": 12980,
  "Ġvibrant": 31764,
  "${\\": 29152,
  "smallmatrix": 48070,
  "threads": 41042,
  "ensible": 35418,
  "accharide": 28151,
  "Ġaunt": 25969,
  "Ġmatrices": 12624,
  "ĠEg": 42783,
  "Ġindulge": 47617,
  "Drag": 43678,
  "ĠprÃ©s": 26979,
  "Ġsinging": 16115,
  "DECL": 27588,
  "Ġsolvents": 32281,
  "Islam": 34330,
  "Ġjudgement": 31536,
  "319": 33899,
  "Ġcalm": 11874,
  "ĠPars": 32018,
  "Ġstepping": 24655,
  "ressive": 8122,
  "ĠLast": 9859,
  "ĠWithin": 15092,
  "Ġexp": 866,
  "Ġcomplain": 17805,
  "inf": 2050,
  "Ġbutcher": 45975,
  "Ġhid": 29334,
  "+-": 22501,
  "Cit": 42670,
  "exception": 22558,
  "Ġfruitful": 46001,
  "Ġendowed": 39433,
  "obenz": 46648,
  "Ġaccrued": 45229,
  "ĠMonroe": 34334,
  "æĽ¸": 47008,
  "created": 22337,
  "Ġkilling": 9811,
  "Ġprotests": 18162,
  "Ġsph": 33125,
  "axel": 33960,
  "Ġdecorated": 25701,
  "Jordan": 44100,
  "jective": 25667,
  "Ġicy": 42947,
  "ex": 911,
  "soc": 33353,
  "suggest": 35640,
  "ĠKD": 46913,
  "Ġsenator": 27445,
  "paste": 23164,
  "rank": 14714,
  "~)": 13611,
  "ĠWAY": 32155,
  "David": 15418,
  "provided": 33850,
  "rd": 5784,
  "ĠVeh": 28493,
  "Ġloops": 17417,
  "Ġstarving": 44487,
  "Ġthi": 32788,
  "ĠNumer": 28161,
  "2008": 8012,
  "ĠCys": 50203,
  "Ich": 39980,
  "Ġcorrected": 15045,
  "Ġcraving": 45671,
  "Ġlake": 14593,
  "Ġ#{": 42298,
  "Ġaccom": 3648,
  "Ġ100000": 47288,
  "Ġthough": 2167,
  "ploy": 1667,
  "382": 31110,
  "Ġangry": 11790,
  "Ġlb": 32830,
  "Ġ214": 25901,
  "Ġceil": 45925,
  "cket": 45337,
  "WHO": 34315,
  "Ġeyel": 32153,
  "Ġinfer": 9441,
  "Ġtrouble": 7596,
  "magic": 40397,
  "Ġuncommon": 24666,
  "Ġpolymer": 7923,
  "zin": 38781,
  ">'": 28120,
  "ĠDrive": 19672,
  "ĠProtestant": 31573,
  "ĠTak": 23161,
  "loc": 9450,
  "vary": 39381,
  "Ġbans": 44464,
  "ĠvÃŃ": 48546,
  "witz": 37381,
  "Ġaccur": 3933,
  "Ġlaunches": 37048,
  "çĦ¶": 38389,
  "asc": 4843,
  "hell": 14440,
  "Ġexception": 6517,
  "Ġ'@": 37994,
  "Ġsoutheast": 32253,
  "maint": 41322,
  "ĠKaz": 24793,
  "ĠPUR": 18385,
  "ĠTrudeau": 45277,
  "081": 41551,
  "Ġfreshwater": 45199,
  "fire": 11342,
  "Ġbifurcation": 43651,
  "Ġredistribute": 25529,
  "ĠHello": 24387,
  "Ġconstructions": 35831,
  "ĠErnest": 40879,
  "Ġcytochrome": 34956,
  "Ġcorrupt": 17715,
  "Ġaudio": 9797,
  "ĠWii": 41884,
  "IPPROTO": 48765,
  "urop": 8177,
  "Ġconcise": 44003,
  "Ġorbit": 12801,
  "Ġ^{\\": 26637,
  "Ġreplace": 8171,
  "options": 10121,
  "Ġstrange": 8921,
  "ãĤĵ": 13639,
  "ables": 2272,
  "Ġcarn": 27771,
  "ĠDiego": 14912,
  "aven": 7603,
  "ĠTou": 44025,
  "Ġagriculture": 21047,
  "Ġapost": 30828,
  "Ġshortened": 36439,
  "pot": 11714,
  "Ġ434": 38963,
  "Ġvirtues": 37398,
  "ĠSupply": 40429,
  "station": 20502,
  "?).": 40778,
  "ëĭ": 14394,
  "ĠSP": 9975,
  "Elem": 39812,
  "CIT": 9190,
  "Ġfocused": 7106,
  "Ġtrio": 33422,
  "Ġmotivational": 49956,
  "ĠHN": 30792,
  "ĠMatch": 29954,
  "Ġshowed": 2692,
  "Ġbehavi": 6094,
  "Ġ269": 28534,
  "Ġowned": 9633,
  "čč": 16981,
  "8000": 33038,
  "erne": 43282,
  "Ġlegend": 13691,
  "starting": 45033,
  "ĠDM": 11085,
  "Ġ168": 21748,
  "ĠKnights": 36051,
  "Ġslightest": 33456,
  "NaN": 44932,
  "Ġforgive": 23697,
  "ru": 579,
  "breaker": 49619,
  "mant": 29303,
  "Plot": 28253,
  "Il": 18656,
  "âĢł": 19960,
  "ĠNEW": 22428,
  "Ġisland": 8930,
  "Ġpursuant": 10376,
  "Ġcrowded": 22299,
  "Ġhind": 17134,
  "_{": 578,
  "Ġimpulse": 27354,
  "Ġidiot": 28006,
  "ĠReg": 3667,
  "ann": 1136,
  "arm": 1513,
  "ente": 13589,
  "Õ¸": 50062,
  "ĠAub": 29560,
  "istered": 25462,
  "ĠWalter": 17650,
  "Ġespecial": 38787,
  "éĿŀ": 48991,
  "Ġlease": 16959,
  "Ġremain": 3464,
  "?.": 29006,
  "Ġlandscape": 13016,
  "ĠSof": 36104,
  "Ġconvenience": 16397,
  "Ġjeopard": 28068,
  "\":[\"": 46576,
  "Ġdissenting": 34308,
  "Ġnursery": 42766,
  "gtk": 41200,
  "otrans": 30379,
  "Show": 14422,
  "terday": 9721,
  "})$.": 17137,
  "à¤¸": 28733,
  "ĠArena": 29410,
  "Ġfibrillation": 42237,
  "ĠRey": 47474,
  "Ø§Ø±": 24477,
  "Ġ+=": 7079,
  "yland": 36843,
  "ĠAsp": 26989,
  "untime": 10849,
  "Ġfor": 323,
  "Ġlearns": 33772,
  "ç¨": 22580,
  "Ġparsing": 29072,
  "TABLE": 24608,
  "Ġrestoration": 20384,
  "dll": 25360,
  "Ġshrine": 45342,
  "erals": 23680,
  "Ġsum": 2020,
  "synthe": 49331,
  "osomes": 11751,
  "amas": 33122,
  "}}}$.": 33471,
  "Ġcastle": 19887,
  "Ġtransmissions": 41138,
  "Ġincred": 9209,
  "Ġ9": 898,
  "Ġpolitical": 3569,
  "Ġjerked": 47362,
  "GFR": 13826,
  "Ø¸": 45693,
  "ĠElliot": 49867,
  "ĠBes": 33007,
  "ĠTT": 26909,
  "iy": 14059,
  "ĠRainbow": 46375,
  "ĠRespons": 26231,
  "Ġdivid": 15399,
  "edic": 39877,
  "CLUDING": 20758,
  "ĠStreet": 5720,
  "pez": 29283,
  "Ġinquiry": 14392,
  "iffe": 30908,
  "Ġcontributes": 17904,
  "instein": 14130,
  "Distance": 33822,
  "Ġ299": 29949,
  "ĠVC": 29640,
  "rous": 18437,
  "Ratio": 44700,
  "ãģ§ãģ¯": 29741,
  "brids": 37145,
  "Ġclones": 21825,
  "effective": 13116,
  "ĠAuf": 40098,
  "Ġflor": 49716,
  "Ġrecycled": 37470,
  "widget": 14778,
  "fluor": 30895,
  "oto": 4881,
  "Î»": 5776,
  "Ġ${{\\": 7201,
  "Ġgames": 3958,
  "ĠLETTER": 22280,
  "ĠFerr": 24770,
  "Ġref": 1275,
  "ĠTechnology": 10784,
  "ĠOrig": 42321,
  "èª": 19119,
  "ĠAlien": 49395,
  "ival": 2401,
  "Ġleaks": 31693,
  "Salt": 46061,
  "Tax": 26859,
  "Destroy": 42881,
  "stanbul": 36563,
  "Ġcounters": 33605,
  "Ġoocytes": 36805,
  "direction": 21285,
  "*~,": 41137,
  "Ġoverdose": 46539,
  "portion": 21716,
  "execution": 35792,
  "Ġradical": 9329,
  "ĠSweden": 16842,
  "placian": 43917,
  "Ġcolorful": 30820,
  "ften": 14678,
  "ĠACL": 37624,
  "Ġtourist": 22777,
  "Bre": 16212,
  "Whitney": 32152,
  "Ġvocal": 17898,
  "Ġgamma": 17356,
  "nah": 39521,
  "Ġsarcoma": 45928,
  "Ġbiomarkers": 20896,
  "Ġpharmac": 11214,
  "Gaussian": 44765,
  "ĠGeneva": 31955,
  "ĠEnvironment": 13809,
  "Ġbehaves": 37824,
  "Ġfamilial": 36490,
  "Ġfinanced": 45311,
  "Ġspreading": 17355,
  "ivalence": 44132,
  "ĠWells": 24569,
  "ÅĻ": 14438,
  "ĠHistor": 13314,
  "åīį": 22329,
  "Ġcoordinating": 45415,
  "á½°": 46673,
  "Ġalpha": 9765,
  "Ġellipt": 20194,
  "ipl": 7070,
  "Ġencouraged": 14659,
  "Ġembro": 32957,
  "Ġofficials": 6338,
  "Ġschizophrenia": 24532,
  "ĠPall": 42745,
  "ĠRogers": 22456,
  "ĠJenn": 18823,
  "Ġbackgrounds": 24550,
  "Ġoffice": 3906,
  "Ġvaries": 16149,
  "Dispatch": 48010,
  "atern": 17752,
  "mile": 25430,
  "Conflict": 30064,
  "ĠConclusion": 37495,
  "Ġperceived": 12351,
  "Ġphon": 20445,
  "Remove": 21605,
  "^\\*^": 33653,
  "ktop": 18487,
  "Ġfasting": 25006,
  "ÏĦÎ¿": 16003,
  "ĠPublication": 20702,
  "keywords": 47558,
  "olated": 35631,
  "phys": 14453,
  "Ġdesc": 1398,
  "sar": 48417,
  "OTE": 30948,
  "itching": 31054,
  "Ġdisputed": 25147,
  "ĠSym": 16048,
  "otype": 5174,
  "Ġreferral": 28149,
  "pinion": 22104,
  "ĠMy": 2752,
  "Ġterrifying": 35247,
  "ĠSupplementary": 18292,
  "Ġflags": 12201,
  "Ġclashes": 45880,
  "Ġvalidation": 12820,
  "------------------------": 26043,
  "{};": 41619,
  "Ġverifying": 49160,
  "ĠDh": 37287,
  "Ġmovements": 11438,
  "296": 23402,
  "Ġago": 3622,
  "ĠNom": 37947,
  "Ġvivo": 8427,
  "26": 1731,
  "Ġinstallment": 41860,
  "Ġelse": 2010,
  "ĠREG": 24068,
  "Ġ!": 2195,
  "inx": 27475,
  "emo": 43208,
  "ĠWrest": 37839,
  "CB": 14922,
  "issen": 38677,
  "Ġfundamentally": 26401,
  "Ġfilters": 15116,
  "icious": 7556,
  "ostat": 30469,
  "Ġvague": 21248,
  "ĠEmmanuel": 49765,
  "Chart": 27994,
  "ĠMCF": 30949,
  "Ġphotos": 7963,
  "Books": 33877,
  "ĠLagrangian": 26150,
  "ìĦľ": 41639,
  "Ġnmol": 45648,
  "Ġelderly": 13988,
  "ophe": 37245,
  "Ġspike": 24147,
  "Named": 37195,
  "Ġdieser": 41253,
  "fected": 5925,
  "Ġbridge": 9729,
  "Ġcm": 7892,
  "Ġhade": 38442,
  "}}(": 4935,
  "Ġprofessions": 48502,
  "Ġillustrates": 18303,
  "step": 10539,
  "Ġcatast": 22476,
  "Ġquin": 42116,
  "esium": 24570,
  "tec": 39766,
  "icians": 6433,
  "CTYPE": 30915,
  "Ġevaluation": 7103,
  "ĠSecurities": 33393,
  "bart": 35292,
  "unes": 14124,
  "cles": 5005,
  "ĠInternal": 21074,
  "tig": 46362,
  "Ġsecretary": 14385,
  "Ġsmoot": 38962,
  "Ġthankful": 31115,
  "ĠSIG": 32530,
  "htra": 49604,
  "Ġthats": 28763,
  "Director": 29150,
  "ĠArg": 14979,
  "anchez": 31432,
  "ĠByron": 43634,
  "TEXTURE": 47062,
  "Ġdeath": 2471,
  "ĠRGB": 33270,
  "1952": 41083,
  "ĠCarrie": 45274,
  "ĠPly": 41659,
  "incess": 15084,
  "Ġdollars": 8918,
  "Ġreplic": 7446,
  "Can": 5804,
  "Ġgall": 9391,
  "ĠMel": 8359,
  "Ġinitial": 3302,
  "Ġchop": 38419,
  "Ġrob": 4848,
  "Ġrugged": 41261,
  "Ġclicking": 19009,
  "orb": 16937,
  "ĠCable": 38174,
  "ĠThu": 38792,
  "ius": 3750,
  "Ġgone": 4783,
  "sq": 18858,
  "Ġpaths": 11865,
  "__>": 36893,
  "ĠGig": 44998,
  "ĠQuart": 41228,
  "Ġmediating": 38744,
  "Ġmisplaced": 48032,
  "Ġsemif": 45406,
  "Ġtomorrow": 10873,
  "angers": 11207,
  "peat": 16388,
  "Ġcheering": 45927,
  "Ġmeeting": 4804,
  "Ġstaying": 14596,
  "ĠHerr": 27779,
  "Ġshooting": 9602,
  "Ġusual": 7312,
  "1962": 32796,
  "ishop": 11676,
  "ĠNobody": 27138,
  "ĠStephanie": 38150,
  "Ġchanges": 2544,
  "Async": 19168,
  "Ġyourself": 4834,
  "fle": 39923,
  "Ġchars": 47647,
  "goog": 48031,
  "Ġequipped": 13496,
  "Ġadmirable": 50063,
  "ĠHOW": 28281,
  "Ġapplying": 9433,
  "ippets": 46588,
  "amming": 28444,
  "Ġintracellular": 14036,
  "ĠNULL": 5812,
  "Ġpg": 23256,
  "engineering": 44602,
  "Ġrecurrence": 15969,
  "Ġwake": 11772,
  "jpeg": 42787,
  "ĠBetty": 33686,
  "Ġconvoy": 47005,
  "Ġpose": 16753,
  "Dog": 47074,
  "ě[": 36320,
  "Ġappear": 3176,
  "Ġconquered": 41549,
  "xsl": 14485,
  "ĠEra": 39233,
  "Ġpossessed": 18801,
  "isible": 16802,
  "ĠInstitution": 39432,
  "Ġreasonableness": 40149,
  "\"><": 5264,
  "Ġvirtual": 7503,
  "Ġreduces": 11355,
  "ä¸ĭ": 20720,
  "acters": 5468,
  "Ġinformative": 27096,
  "Ġ601": 41649,
  "lav": 19306,
  "Ġshutting": 40806,
  "ĠĠĠĠĠĠĠĠĠĠĠĠĠĠĠĠĠĠĠĠĠĠĠĠĠĠĠĠĠĠĠĠĠĠĠĠ": 13095,
  "ĠScheme": 38339,
  "awa": 11415,
  "sect": 7338,
  "Ġdisposable": 34679,
  "unched": 43157,
  "Ġhomosexuality": 39880,
  "ochemistry": 18334,
  "ĠCampbell": 20163,
  "Ġreversal": 21080,
  "699": 49227,
  "Ġperform": 1347,
  "mh": 33928,
  "oste": 35279,
  "Ġangles": 14636,
  "Ġsecre": 15324,
  "fileID": 20548,
  "had": 10178,
  "ĠBird": 25080,
  "vasive": 34850,
  "FIX": 27225,
  "Ġ.=": 33750,
  "Ġdonated": 26837,
  "Qaeda": 46918,
  "Ġsv": 18504,
  "425": 32218,
  "Vel": 37599,
  "sett": 12569,
  "Ġ116": 12472,
  "Ġadorable": 42742,
  "IDA": 45574,
  "repeat": 24712,
  "acea": 46183,
  "KH": 17768,
  "Tri": 24490,
  "Ġleaning": 25661,
  "Ġhypothesized": 24045,
  "å¿ħ": 41250,
  "Tag": 12547,
  "ds": 1397,
  "Ġspeeds": 18819,
  "partum": 37855,
  "INTER": 19118,
  "rored": 45284,
  "Ġcleanup": 34709,
  "ista": 8727,
  "Ġpartly": 13730,
  "Ġreiterated": 43269,
  "Ġmort": 4920,
  "ĠVes": 46602,
  "ĠÃĳ": 22520,
  "separated": 49741,
  "Ġleast": 1878,
  "ó": 175,
  "Ġmundo": 30751,
  "Ġnumpy": 36950,
  "ĠMurphy": 21741,
  "idegger": 46153,
  "app": 1212,
  "Hom": 21569,
  "irk": 11131,
  "messages": 33844,
  "etal": 16190,
  "ĠAR": 6647,
  "ĠCaption": 42699,
  "ĠNik": 17250,
  "Particip": 47177,
  "WIDTH": 40097,
  "factory": 20907,
  "ricular": 13267,
  "ĠCertainly": 30445,
  "ĠUpdate": 17251,
  "Ġactiv": 1396,
  "Ġain": 16326,
  "Ġantibody": 8092,
  "ĠSatan": 28364,
  "Ġcoaches": 19418,
  "Mirror": 43708,
  "Ġdefendant": 3257,
  "Ġextremity": 41691,
  "ĠChicago": 8068,
  "Ġdishon": 31531,
  "ĠFBI": 12578,
  "ĠDrew": 30864,
  "Ġfilled": 6898,
  "ogenetic": 15716,
  "ĠThread": 22553,
  "Ġpile": 19176,
  "Ġrequirements": 6095,
  "Ġsemi": 10020,
  "Ġequ": 1298,
  "Ġ370": 32002,
  "^),": 40643,
  "ĠSerbia": 37959,
  "Ġpublishers": 28329,
  "Ġreassuring": 45462,
  "ĠDun": 12221,
  "Ġtons": 16298,
  "Ġfled": 18436,
  "Ġflowed": 41115,
  "ĠÃ¬": 31016,
  "Frequency": 45369,
  "ĠAndroid": 10469,
  "Ġdeaf": 26057,
  "Ġ--------------------------------------------------------------------------------------------------------------------------------": 26260,
  "Ġ?>": 23983,
  "mask": 12477,
  "Ġchart": 8326,
  "Ġcov": 9383,
  "QL": 6350,
  "Ġwastewater": 41021,
  "Ġcalculation": 10272,
  "Ġoperative": 24685,
  "Ġ...": 3346,
  "Ġpan": 3199,
  "ĠØ´": 37715,
  "ĠASD": 29895,
  "ĠBench": 41576,
  "Ġ1870": 35828,
  "ĠRise": 39952,
  "ĠÐ·Ð°Ð¿": 40769,
  "ĠGiovanni": 48505,
  "aro": 15354,
  "Ġperformers": 34983,
  "Ġ(&": 41851,
  "Ġattempts": 9437,
  "Parser": 20455,
  "ffiti": 47525,
  "Ġcentre": 9145,
  "Ġcoworkers": 47450,
  "Ġseas": 26634,
  "Ġthrew": 13222,
  "Ġdetectable": 21759,
  "~~~~~~~~": 18667,
  "ĠDQ": 45184,
  "Dad": 34234,
  "Ġsuc": 8227,
  "aling": 4052,
  "eten": 25724,
  "ĠFinland": 25270,
  "Ġinqu": 9254,
  "iving": 2179,
  "Ġtemperature": 3276,
  "Ġ\\*": 9350,
  "Ġwra": 9342,
  "ĠJared": 43406,
  "Ġclarity": 19843,
  "Ġaverages": 31218,
  "953": 41892,
  "cin": 5620,
  "alore": 47180,
  "Å¼": 13448,
  "%%%%%%%%%%%%%%%%": 41511,
  "ÑģÐ»Ð¸": 38749,
  "ĠInnov": 47492,
  "Ġdra": 6536,
  "ĠPlus": 14820,
  "484": 29579,
  "Ġcapit": 43395,
  "rendum": 24972,
  "ĠLiter": 18756,
  "itatively": 21404,
  "ĠDifferential": 38160,
  "Ġpopulate": 41614,
  "issions": 11483,
  "rugu": 44300,
  "901": 43547,
  "osa": 6859,
  "ovsky": 42891,
  "Ġthir": 20960,
  "alen": 43322,
  "ĠDHS": 45728,
  "Ġcontinual": 45120,
  "ĠTah": 43000,
  "ĠJes": 6445,
  "CSI": 45068,
  "ĠIo": 26810,
  "ars": 1032,
  "Ġ_.": 42315,
  "ANN": 24582,
  "kp": 50120,
  "underset": 30884,
  "Ġbeaten": 20698,
  "Ġctrl": 44574,
  "itude": 3396,
  "ĠRAD": 38026,
  "Ġcleansing": 46825,
  "Ġnobody": 12445,
  "ë¦¬": 38248,
  "^(": 24123,
  "Ġsnapshot": 29679,
  "ĠFuel": 48898,
  "alar": 45825,
  "ĠâĢĻ": 15956,
  "ĠRace": 23752,
  "quito": 20675,
  "datab": 35549,
  "ided": 1356,
  "exec": 9993,
  "xy": 5246,
  "risk": 16272,
  "âĺ": 31600,
  "Ã¡": 1757,
  "ĠCs": 36701,
  "Ġdecis": 20939,
  "acter": 1434,
  "cretion": 7401,
  "ĠSigma": 24200,
  "Ġaxe": 44910,
  "Ġguarantee": 12215,
  "Ġquas": 21582,
  "Ġsunlight": 23993,
  "Ġwidget": 26706,
  "ï½": 20422,
  "abor": 2735,
  "ICAN": 48697,
  "ETS": 45467,
  "å¦Ĥæŀľ": 42055,
  "ĠSeth": 32393,
  "ĠVia": 29482,
  "Ġbilayer": 47309,
  "Ġincremental": 32809,
  "Ġinflation": 15631,
  "ĠBI": 28885,
  "Ġmicron": 39436,
  "Ġrocks": 16419,
  "ĠIE": 19900,
  "MHz": 32023,
  "Ġsheaf": 45658,
  "Ã¶k": 40380,
  "Ġtore": 33544,
  "ĠTop": 9872,
  "reprene": 14807,
  "ĠLos": 8742,
  "Ġvra": 37312,
  "Rightarrow": 30536,
  "ee": 1796,
  "ĠSor": 24367,
  "Ġkinetic": 17818,
  "Ġmd": 31934,
  "Ġcivilian": 21731,
  "Ġslowly": 7808,
  "ĠHume": 47094,
  "Archive": 46589,
  "Ġlacked": 20296,
  "and": 395,
  "Turk": 44354,
  "asters": 22854,
  "flight": 31045,
  "Ġrebut": 30080,
  "Ġwillingly": 45116,
  "bic": 46372,
  "ĠURI": 38917,
  "Ġpackages": 12149,
  "Ġslapped": 41352,
  "Sar": 27890,
  "ĠBilly": 19669,
  "ĠDrop": 26829,
  "ĠOpp": 16823,
  "License": 17736,
  "simpl": 48573,
  "Ġcaud": 36112,
  "Ġcavern": 46531,
  "INLINE": 33192,
  "Ġdecid": 42884,
  "Ġgrief": 20993,
  "Mid": 30701,
  "Ġinactive": 25515,
  "Ġtaut": 44663,
  ";\\;\\": 20744,
  "Ġdependency": 18925,
  "ws": 8819,
  "Ġviel": 35566,
  "Ġwrit": 2416,
  "shaw": 40590,
  "409": 24264,
  "Ġ539": 45610,
  "Something": 19234,
  "796": 35323,
  "conjugated": 32940,
  "ÏĤ": 4733,
  "Ġcytokine": 19918,
  "den": 3354,
  "ĠDO": 7953,
  "=`": 46946,
  "biamo": 46858,
  "Ġ1937": 27598,
  "Ġdepleted": 33661,
  "Ġentrance": 13032,
  "Ġregulated": 13527,
  "parable": 36730,
  "Ġbolt": 22491,
  "ĠDecl": 17403,
  "ĠIF": 8681,
  "Ġevaluations": 27163,
  "Ġgew": 34381,
  "msg": 4856,
  "ĠStanley": 20923,
  "ĠWet": 43105,
  "DEV": 15528,
  "Record": 16324,
  "                    ": 50258,
  "ĠIndust": 12622,
  "Ġbrother": 4929,
  "scientific": 47458,
  "developed": 35208,
  "ENCE": 17740,
  "Ð¸ÑģÑĤ": 28500,
  "Ġmich": 49068,
  "Ġseparately": 11794,
  "ĠOCT": 36171,
  "patcher": 34726,
  "ĠOakland": 27373,
  "Ġnamed": 4907,
  "ilateral": 17656,
  "Ġ505": 37153,
  "Ġoffices": 14145,
  "rÃ¤": 44093,
  "Ġich": 18119,
  "ovi": 39594,
  "Ġmenos": 32979,
  "ĠTip": 38708,
  "oside": 23427,
  "Ġextraordinarily": 49258,
  "Ġevid": 20456,
  "Ġgenuinely": 27364,
  "upid": 10461,
  "á½²": 43766,
  "Ġrede": 23020,
  "Fortunately": 48851,
  "Ġalumin": 14992,
  "Ġmyst": 13693,
  "seven": 23587,
  "lt": 5792,
  "ĠMAPK": 32406,
  "Generator": 26945,
  "ÑģÑĤÐ²Ð¾": 40017,
  "Loaded": 49473,
  "prompt": 43274,
  "fill": 9337,
  "ĠConnor": 44085,
  "ĠAV": 14148,
  "][": 7082,
  "____________": 27696,
  "ĠAhmad": 39505,
  ")/\\": 32615,
  "generate": 16450,
  "Ã¡s": 7766,
  "ĠComey": 41101,
  "war": 7523,
  "Mag": 29033,
  "Ġ\\{\\": 32080,
  "Ġassessing": 18005,
  "Ġcomputers": 12823,
  "Ġequiv": 32270,
  "CH": 2775,
  "Ġexposed": 7329,
  "cycles": 37360,
  "Ba": 24348,
  "Äĳ": 46233,
  "Ġcompromise": 18230,
  "Ġfavourable": 39262,
  "Timeout": 20780,
  "ate": 366,
  "ĠTF": 22539,
  "Ġprogresses": 42851,
  "Ġrenamed": 27624,
  "Ġapproximations": 34754,
  "Ġshutdown": 26897,
  "Ġsuspected": 13282,
  "cursor": 14849,
  "ĠMarines": 34913,
  "143": 16150,
  "MULT": 38299,
  "Ġconcludes": 20097,
  "Ġprevailed": 40766,
  "Ġtee": 44722,
  "ĠĠĠĠĠĠĠĠĠĠĠĠĠĠĠĠĠĠĠĠĠĠĠĠĠĠĠĠĠĠĠĠĠĠĠĠĠĠĠĠĠĠĠĠĠĠĠĠĠĠĠĠ": 22177,
  "ĠMaj": 18410,
  "Ġstreets": 10198,
  "Ġdare": 20141,
  "Ġmovies": 11321,
  "ĠÂ©": 20919,
  "Å¾": 9124,
  "ĠCCA": 47820,
  "Pic": 37132,
  "Ġencouraging": 18462,
  "Ġspecimen": 20204,
  "Ġpenetr": 23532,
  "rr": 2676,
  "ĠName": 9424,
  "BBC": 47235,
  "Ġved": 27685,
  "Ġhydroly": 20399,
  "Ġsne": 16037,
  "Å«": 15248,
  "Ġ801": 48242,
  "inche": 47724,
  "Ġbases": 14395,
  "ĠSchools": 27498,
  "Stats": 29849,
  "ĠLDL": 24219,
  "OURCES": 50186,
  "ÐµÐ±": 32445,
  "Ġcheck": 2451,
  "tic": 3028,
  "Ġvenous": 23916,
  "Ġplains": 42997,
  "Ġimpover": 48682,
  "ĠMons": 25093,
  "Ġamounts": 8322,
  "Ġtalked": 10062,
  "Ġ540": 36725,
  "ä½¿": 22160,
  "Ġchor": 30811,
  "ferentially": 32432,
  "Ġconspicuous": 43988,
  "Ġpid": 33786,
  "Ġsevent": 11195,
  "oci": 1118,
  "Comments": 25821,
  "rodu": 2466,
  "Ġintron": 40131,
  "Ġremembered": 12659,
  "CHANTABILITY": 20386,
  "ĠMessenger": 48979,
  "edes": 39820,
  "today": 39799,
  "Ġdetermin": 11544,
  "Ġdwelling": 31824,
  "ĠEdinburgh": 25990,
  "Ġlegitim": 29933,
  "abetes": 24298,
  "oplasm": 11690,
  "Dist": 14178,
  "ØŃ": 21931,
  "å¾Ĺ": 30808,
  "Equ": 7008,
  "Press": 17919,
  "fried": 41717,
  "ĠCav": 20120,
  "ĠVir": 6694,
  "ĠLindsey": 50178,
  "ĠVan": 10049,
  "zos": 46031,
  "ĠFC": 16004,
  "ĠOntario": 17367,
  "Ġcolonic": 46024,
  "Ġdecoding": 28490,
  "ãģ¦ãģĦãģŁ": 45950,
  "ENS": 18041,
  "ĠWITH": 9277,
  "ĠqPCR": 31855,
  "dataset": 42429,
  "Lou": 24525,
  "ĠFin": 7198,
  "ĠHospital": 8896,
  "ĠOliv": 47900,
  "ĠRES": 21180,
  "Ġcot": 13450,
  "Ġdurable": 28831,
  "ĠSQL": 11700,
  "*+": 42396,
  "Ġopposite": 7285,
  "Ġskeleton": 29564,
  "Ġwherein": 10646,
  "obj": 9344,
  "Ġbiomedical": 35156,
  "Ġspp": 26105,
  "Ġspace": 2317,
  "Rose": 37070,
  "ÑĤÐµÑĢ": 46360,
  "GT": 9334,
  "ĠBing": 48600,
  "497": 30626,
  "HPP": 40311,
  "rified": 32284,
  "ĠHashMap": 47523,
  "ĠTimes": 7717,
  "Ġcontradict": 17343,
  "Ġflushed": 38644,
  "baseline": 44650,
  "Jack": 16082,
  "Ġcrab": 40501,
  "seys": 48096,
  "Ġpooled": 24462,
  "Ġroyal": 17292,
  "find": 8606,
  "69": 2090,
  "vist": 49906,
  "_{(": 13061,
  "stad": 25134,
  "oped": 11802,
  "versal": 34451,
  "Ġentitlement": 38668,
  "Ġspecialty": 28648,
  "Ġtz": 47764,
  "Ġ$[]$": 27655,
  "è±¡": 44795,
  "ĠMur": 8524,
  "ĠBiosystems": 40073,
  "ĠHunting": 36044,
  "Ġclauses": 34510,
  "Ġmetaphys": 33012,
  "Ġconspir": 11882,
  "vb": 30890,
  "Ġdiscriminatory": 30602,
  "678": 25025,
  "orems": 28657,
  "ĠAML": 34653,
  "ĠFu": 23257,
  "Ġcisplatin": 34402,
  "Ġequip": 30787,
  "ĠChristian": 6416,
  "Ġlacking": 14999,
  "CRP": 41836,
  "pletion": 16637,
  "Ġrecount": 27513,
  "Ġelegant": 20654,
  "Ġimmunity": 11979,
  "Ġcatching": 23862,
  ")}$$": 40227,
  "025": 14521,
  "Ġmisery": 33030,
  "Ġleadership": 9550,
  "rud": 42111,
  "Ġmany": 1142,
  "vidia": 30766,
  "ĠFind": 9985,
  "Ġplaster": 43116,
  "ĠEurope": 3060,
  "Ġtasks": 8892,
  "Ġeine": 15827,
  "Ġdrastically": 31063,
  "azy": 26537,
  "ĠElement": 26392,
  "ĠHigher": 23230,
  "*-*": 40291,
  "Ġsummarizes": 37250,
  "before": 9131,
  "reens": 10436,
  "bay": 32442,
  "Ġacc": 756,
  "Ġroutinely": 21774,
  "Ġexpenditures": 34293,
  "are": 609,
  "ury": 1626,
  "--------------------------------------------": 40904,
  "voice": 22619,
  "ĠAndrew": 11116,
  "ĠLebanese": 46900,
  "ĠLiving": 19383,
  "Example": 16698,
  "}}|": 38943,
  "ĠComisiÃ³n": 46187,
  "onate": 33912,
  "Ġconservatives": 28963,
  "disp": 14323,
  "Ġcrossings": 45553,
  "Ġerr": 1486,
  "Ġgripping": 44413,
  "Ġpe": 759,
  "Ġcellar": 46139,
  "Ġfreezer": 38993,
  "Ġexamines": 33888,
  "ĠCreation": 42087,
  "Ġsupplied": 12164,
  "ambig": 19062,
  "Ġvon": 8449,
  "government": 20129,
  "ouver": 16017,
  "south": 34542,
  "kan": 17369,
  "Ġdismiss": 5597,
  "æł·": 43929,
  "Ġo": 258,
  ").](": 17981,
  "Ti": 23976,
  "Ġmanga": 38788,
  "Ġrebound": 44789,
  "Ġstabilized": 32779,
  "Ġunsatisf": 43288,
  "Riddell": 46428,
  "ESP": 32718,
  "isch": 17291,
  "odi": 26206,
  "Cache": 15554,
  "cul": 1291,
  "ĠRocky": 37669,
  "ìķ": 33104,
  "Ġslow": 3468,
  "ĠYang": 19028,
  "Ġcowork": 38800,
  "Ġradiative": 35873,
  "Ġ585": 47861,
  "IR": 3027,
  "Ġbuffer": 6391,
  "records": 46622,
  "Ġbriefs": 32852,
  "anova": 45388,
  "ĠStru": 48730,
  "Ġsquee": 15232,
  "Ġsmiled": 11373,
  "regulate": 48707,
  "ĠInsurance": 16541,
  "yla": 46877,
  "ĠTas": 35203,
  "ĠWrestling": 47139,
  "Ġantico": 35719,
  "Ġloses": 25068,
  "ĠÃ§": 20078,
  "ĠUri": 45855,
  "Ġcoconut": 26770,
  "554": 46027,
  "Ġservo": 48269,
  "ĠJohnny": 22810,
  "iasis": 38875,
  "ĠNF": 14100,
  "vens": 14941,
  "Ġcatal": 6310,
  "Ġcontended": 36007,
  "ologie": 29588,
  "ĠÎ¼g": 14986,
  "Ġdental": 16138,
  "^Â®^": 31743,
  "ĠNursing": 42985,
  "çı¾": 41492,
  "Ã¤l": 17366,
  "macro": 35074,
  "Ġnets": 37507,
  "Ġpertaining": 27855,
  "Ġsia": 43538,
  "Dec": 9150,
  "``": 5190,
  "Â·Â·Â·": 37269,
  "Ð½Ð°": 14933,
  "ĠABS": 45080,
  "ĠACP": 47108,
  "arate": 33573,
  "az": 1370,
  "cif": 46277,
  "________": 3234,
  "ĠConstruction": 24969,
  "ĠLuther": 24496,
  "con": 585,
  "Ġimplements": 17930,
  "Ġperspective": 8668,
  "Ġsoda": 29737,
  "IBILITY": 38761,
  "Ġdrinking": 10678,
  "PECT": 16370,
  "ĠADA": 37149,
  "ĠINTEGER": 41847,
  "Ġacceptance": 14924,
  "Jac": 26106,
  "ĠAndrÃ©": 49260,
  "Ġcaring": 23374,
  "ĠAlzheimer": 23294,
  "indo": 40870,
  "het": 6168,
  "ocratic": 23606,
  "uckland": 39234,
  "Ġgeneration": 5978,
  "reasonably": 38398,
  "Dot": 41943,
  "Ġaisle": 38133,
  "ĠLPS": 18945,
  "scheme": 29619,
  "Ġseparator": 35823,
  "eyed": 26731,
  "voir": 37393,
  "Ġslit": 31688,
  "nbsp": 6732,
  "Ġ240": 16918,
  "ĠCRISPR": 42223,
  "Ġpact": 47448,
  "Ġtrousers": 39150,
  "umes": 9181,
  "gsÃ¥": 39427,
  "Ġrepeal": 35682,
  "Radius": 39547,
  "bys": 44678,
  "unners": 36558,
  "Click": 7146,
  "isms": 3931,
  "room": 4461,
  "ĠCardi": 46283,
  "ĠVoid": 49494,
  "ERSON": 37118,
  "angling": 36874,
  "Ġadjusting": 19427,
  "88": 2055,
  "Ġprenatal": 38977,
  "Ð½Ð°Ñı": 43167,
  "Ġalignment": 12420,
  "Unmarshal": 50143,
  "206": 18040,
  "Ġseamless": 45871,
  "ergio": 40807,
  "Ġrely": 10725,
  "ĠDictionary": 26372,
  "claimed": 13578,
  "tasks": 40480,
  "Ġ713": 48396,
  "ĠMozilla": 44502,
  "Ġtrue": 2032,
  "Ġvision": 8113,
  "Generic": 25114,
  "Const": 13186,
  "æ´»": 46549,
  "Ġ609": 45370,
  "ĠRG": 30369,
  "ĠDOT": 46082,
  "Ġbattlefield": 34268,
  "Ġimage": 2460,
  "ĠCopy": 27671,
  "Ġ660": 44493,
  "Equation": 45044,
  "Uh": 18931,
  "aring": 1875,
  "ashes": 13539,
  "itat": 33101,
  "ĠLiberation": 46478,
  "ousseau": 41609,
  "459": 28333,
  "ĠASP": 27548,
  "ĠAnalysis": 10330,
  "356": 25008,
  "ĠDevices": 41442,
  "onaut": 27245,
  "ĠNV": 24671,
  "Ġcharacterize": 17710,
  "Ġexact": 3242,
  "Ġ\\'": 29792,
  "Ġmodern": 4980,
  "Ġopted": 33549,
  "lemn": 29332,
  "Stat": 9710,
  "Ø·": 29937,
  "Ġpeninsula": 42816,
  "ĠKnowing": 40828,
  "Ġpoliticians": 13557,
  "ĠClub": 9585,
  "324": 21397,
  "ĠVIII": 29136,
  "ience": 1482,
  "empty": 11004,
  "Product": 13443,
  "ottu": 29842,
  "stars": 37146,
  "utative": 23996,
  "Ġ461": 40137,
  "Ġ482": 43823,
  "Ġpom": 31204,
  "Ġquit": 15856,
  "Ġphotoresist": 48844,
  "Ġtougher": 42306,
  "Ġholistic": 45290,
  "chol": 34786,
  "Ġ145": 19092,
  "Ġapproaching": 17682,
  "Ġreiter": 28411,
  "Actions": 40013,
  "hep": 14341,
  "Russian": 27397,
  "Ġneighbour": 14646,
  "Ġtrained": 10166,
  "Ġwaterm": 37385,
  "fif": 25512,
  "ĠLegislative": 37558,
  "major": 24330,
  "Ġcontempor": 31915,
  "Ġleuk": 12711,
  "Ã¶s": 28544,
  "Ġrisk": 2495,
  "nit": 32202,
  "Ġimmunost": 36325,
  "Ġoverly": 27662,
  "INESS": 37008,
  "ocity": 23716,
  "ency": 1371,
  "âĢ¦..": 49168,
  "__,": 30738,
  "Ġnoun": 28407,
  "Ġservic": 50213,
  "us": 316,
  "consumer": 45908,
  "Ġregister": 8749,
  "\\*,": 46655,
  "Cong": 22960,
  "inety": 25482,
  "æī": 11827,
  "ġ": 210,
  "ells": 7042,
  "Ġbrom": 27726,
  "Ġduplication": 35793,
  "Ġflat": 6507,
  "ĠMall": 21984,
  "INIT": 25844,
  "Between": 28343,
  "pitch": 45935,
  "Ġgambling": 25572,
  "Ġesse": 24961,
  "Ġintimid": 28427,
  "ucky": 12202,
  "Ġuh": 16831,
  "Users": 17104,
  "ogeneity": 14812,
  "æ©": 37794,
  "historic": 43957,
  "urious": 21310,
  "ĠAdams": 16026,
  "ĠPont": 29880,
  "Ġ506": 39172,
  "ibil": 32096,
  "Ġtherapeutic": 9282,
  "Ġportray": 18047,
  "ĠONLY": 35310,
  "acious": 15709,
  "Ġhelps": 7729,
  "Ġprimarily": 8558,
  "happ": 38472,
  "Ġgroups": 2390,
  "Ġbathroom": 15336,
  "wan": 10320,
  "reptococcus": 46782,
  "ruary": 4701,
  "ĠSections": 31965,
  "Ġcord": 12045,
  "Ġde": 372,
  "resp": 2076,
  "tml": 10842,
  "imar": 49414,
  "ylum": 20401,
  "iless": 47629,
  "ĠSql": 39542,
  "Ġcooks": 48972,
  "Ġfilthy": 46280,
  "ering": 2158,
  "rho": 2859,
  "Ġcongrat": 28858,
  ".\",\"": 48028,
  "arias": 46445,
  "Kit": 18938,
  "itory": 6708,
  "}))": 26025,
  "ìĿĦ": 28736,
  "listing": 40545,
  "Ġattribut": 23771,
  "Ġfraudulent": 25447,
  "XI": 44051,
  "!\");": 48708,
  "Americans": 34436,
  "Ðļ": 27822,
  "Ġhearty": 49618,
  "Ġinhibiting": 24468,
  "Ġmarijuana": 13717,
  "åĽ¾": 39249,
  "ĊĠĠĠĠĠ": 1043,
  "OFF": 18036,
  "ERK": 32344,
  "textup": 32603,
  "uggest": 21662,
  "ĠGov": 21806,
  "Ġlup": 37311,
  ".)": 2698,
  "Ġfeas": 13050,
  "apache": 8418,
  "DY": 32201,
  "Hg": 20519,
  "Ġanx": 16515,
  "Qual": 34255,
  "ounded": 8055,
  "ĠFeatures": 29621,
  "Ġderivative": 4309,
  "Ġmacroscopic": 35915,
  "Ġocular": 32791,
  "Ġpush": 7450,
  "Ġmarkets": 10169,
  "Ġrefractory": 34708,
  "ĠreprÃ©s": 50052,
  "Ġresidue": 16558,
  "Ġpuncture": 45140,
  "Ġdynam": 3970,
  "574": 38503,
  "Ġaffidav": 14798,
  "Horizontal": 42239,
  "Ġclosely": 8244,
  "Ġpartic": 1117,
  "Ġcoincide": 28588,
  "Ġsource": 2603,
  "Ġstaple": 37891,
  "ĠNic": 12951,
  "training": 31158,
  "unge": 20787,
  "Ġcolumns": 9930,
  "constructor": 36073,
  "strip": 25763,
  "ĠBritish": 4782,
  "Ġmaintained": 8838,
  "Community": 40645,
  "July": 20443,
  "]{}.": 19181,
  "ĠMice": 33133,
  "ĠRising": 43540,
  "ĠGel": 32737,
  "Ġbetrayal": 46337,
  "reset": 19511,
  "ĠDT": 28018,
  "ĠVenet": 48386,
  "Ġapplications": 4893,
  "Ġ183": 26235,
  "Ada": 38432,
  "Ġ>>": 11396,
  "LB": 34547,
  "odegrad": 42059,
  "ĠYas": 48171,
  "selection": 27423,
  "Timestamp": 41516,
  "Ġblot": 12585,
  "Ġcalculus": 34171,
  "Ġmortg": 37832,
  "###": 4118,
  "Ġquanto": 41518,
  "æľĪ": 26552,
  "Ġskip": 17049,
  "Ġstakes": 36309,
  ")(\\": 26669,
  "ĠSix": 11067,
  "Ġsupernatural": 34612,
  "Yu": 42039,
  "uciÃ³n": 36075,
  "ãĥ¼ãĥī": 44192,
  "Today": 14569,
  "Ġbankruptcy": 13165,
  "Ġunderstandable": 34007,
  "optim": 32581,
  "Ġfright": 15872,
  "282": 28899,
  "Ġcheerful": 39567,
  "Ġsomething": 1633,
  "citing": 18799,
  "Ġtrump": 29154,
  "Ġfoundations": 27629,
  "Ġwary": 38407,
  "Ġwooden": 14872,
  "Ġoverload": 31778,
  "772": 36936,
  "1976": 19813,
  "irs": 19384,
  "orate": 27928,
  "ĠBuff": 19229,
  "ĠEmm": 29544,
  "Clock": 39497,
  "iat": 5946,
  "ther": 508,
  "Comment": 19174,
  "ĠOlymp": 10406,
  "è£": 29626,
  "ÑĭÐ¹": 36434,
  "ĠSm": 3774,
  "jpg": 11368,
  "pos": 993,
  "ĠLogin": 41977,
  "ustom": 2229,
  "ĠMarco": 28712,
  "ĠSuzuki": 47848,
  "ĠTLS": 36249,
  "ĠPedro": 33414,
  "Ġcom": 389,
  "Houston": 38642,
  "ĠdB": 29527,
  "Ġfalciparum": 46777,
  "ĠDiss": 38608,
  "Ġfundraising": 35958,
  "Ġsmoke": 11283,
  "Ġstatistical": 7605,
  "ĠWelch": 47445,
  "Ġimpulses": 48009,
  "Ġsurpassed": 49634,
  "Ġrhythm": 19407,
  "Ġwhirl": 45151,
  "amps": 11441,
  "Ġrt": 37523,
  "ĠâĪ": 13246,
  "Acknowledgments": 44259,
  "Ġquantitatively": 36878,
  "Ãºblic": 26907,
  "Ġcelebrates": 46417,
  "ATCH": 21203,
  "CNN": 34525,
  "Ġpreval": 7488,
  "Ġwires": 20343,
  "Ġnamely": 10775,
  "Ġnucleotides": 31227,
  "Ġrelativ": 44544,
  "ord": 636,
  "amethasone": 42016,
  "ĠFiles": 23895,
  "ĠStevens": 22801,
  "esty": 14197,
  "Ġnewsletter": 25144,
  "Ġsuperb": 29837,
  "})}": 22613,
  "Wind": 46995,
  "anges": 6525,
  "ĠHappy": 27575,
  "Follow": 18905,
  "ercul": 18358,
  "Ġadhesive": 21134,
  "Ġopinions": 11626,
  "Ġlit": 6195,
  "éĩı": 37079,
  "ĠAmin": 45816,
  "ĠRich": 5612,
  "Calendar": 37443,
  "EEK": 41404,
  "diag": 31783,
  "ĠOffer": 47856,
  "Ġoffsets": 41669,
  "owe": 39036,
  "/((-": 41284,
  "Ġconsume": 21409,
  "Ġprobabilities": 20552,
  "Ġthor": 9062,
  "\"}*": 46658,
  "frey": 49804,
  "Ġumb": 39183,
  "Ġoccupations": 45517,
  "Ġsmell": 13624,
  "Ġion": 7235,
  "E": 38,
  "Ġpuzzle": 25351,
  "jl": 40031,
  "alin": 19337,
  "porary": 10368,
  "obacterium": 34755,
  "Parent": 15852,
  "Ġpollen": 31371,
  "Ð»ÐµÐ´": 45177,
  "period": 17911,
  "infinity": 43723,
  "æĮģ": 36820,
  "ĠType": 8078,
  "Pre": 7420,
  "ĠInstitutes": 31935,
  "Ġcognition": 31937,
  "taire": 49761,
  "è¡Į": 16677,
  "ĠNam": 20635,
  "Ġhass": 38193,
  "ounger": 42398,
  "Ġmulti": 4471,
  "Ġprocedures": 7259,
  "attempt": 38839,
  "dL": 21087,
  "Ġdoing": 2509,
  "Ġplasma": 6532,
  "Ġinstitute": 32097,
  "Ġwellbeing": 46128,
  "ĠRanch": 35607,
  "temp": 16306,
  ".\";": 45974,
  "Ġonder": 29508,
  "cel": 6226,
  "å®ĥ": 39465,
  "Ġcont": 523,
  "Ġgum": 30961,
  "996": 28053,
  "Demo": 41074,
  "buy": 36261,
  "ĠShot": 43761,
  "Ġtrick": 10480,
  "Ġmetast": 8866,
  "Ġwrists": 45015,
  "ĠĠĠĠ": 252,
  "apses": 23508,
  "jee": 39101,
  "ÂĨ": 18455,
  "CLUSION": 32200,
  "ĠIntegr": 17712,
  "ĠðŁ": 22692,
  "Ġpainter": 27343,
  "Ġpossibility": 6387,
  "900": 18104,
  "Ġ344": 36279,
  "ordin": 29664,
  "ĠParm": 42336,
  "Ġtandem": 30111,
  "2016": 6961,
  "perature": 18458,
  "Ġemploy": 2126,
  "Ġmandibular": 48860,
  "ĠBuddhist": 27235,
  "05": 1762,
  "entre": 46162,
  "Leg": 18596,
  "dollar": 35523,
  "Ġstill": 1335,
  "^*(": 23628,
  "wd": 14066,
  "should": 11425,
  "look": 6204,
  "Ġcs": 29180,
  "Ġdetta": 41164,
  "Ġminus": 19734,
  "median": 29541,
  "ĠAw": 20352,
  "PING": 49439,
  "Msg": 21611,
  "}({{\\": 35420,
  "EventListener": 33329,
  "Ġpsy": 32884,
  "Ġscalable": 44755,
  "Latin": 46284,
  "Ġ-----": 19312,
  "Ġcorrelates": 27972,
  "Ġcaptain": 13595,
  "Ġdyes": 36348,
  "Ġrepresentations": 14237,
  "Âĵ": 27399,
  "Don": 5498,
  "Ġportrait": 22946,
  "Ġconvince": 18578,
  "hton": 41844,
  "Almost": 33451,
  "illo": 16078,
  "outputs": 44902,
  "437": 40896,
  "emale": 15183,
  "udson": 19636,
  "Ġbanana": 36767,
  "Ġinspired": 11797,
  "Ġpotassium": 23160,
  "ĠTaliban": 32625,
  "ĠSpecifically": 13658,
  "ãģķ": 13129,
  "30": 1229,
  "Ġcare": 1557,
  "embed": 24224,
  "Î¼L": 35763,
  "Ġroses": 38910,
  "\"}),": 9471,
  "asure": 5849,
  "Star": 16043,
  "creation": 30767,
  "ĠForum": 24703,
  "thank": 47033,
  "lass": 14407,
  "à±": 22379,
  "ĠLiberty": 23583,
  "ĠTele": 13940,
  "slice": 27494,
  "Ġcontig": 32898,
  "arcel": 19526,
  "×ľ": 20770,
  "REE": 12241,
  "Ġfinite": 6486,
  "Ġmyths": 38671,
  "ĠPeter": 7993,
  "ĠAid": 38649,
  "Ãĸ": 45403,
  "Ġachieved": 6786,
  "Ġapproximation": 11193,
  "2010": 7199,
  "ĠSTM": 46273,
  "Ġfortunes": 43203,
  "etter": 46467,
  "Ġraising": 12976,
  "Ġbiting": 41185,
  "shifts": 37758,
  "Ġremn": 26384,
  "ĠâĢĭ": 41301,
  "ĠPDT": 46502,
  "Ġassistants": 35785,
  "ĠÑĩ": 10530,
  "388": 25085,
  "ÂļÂĦ": 30707,
  "llll": 33685,
  "Ġfabrics": 38865,
  "Ġingen": 35604,
  "frastructure": 10181,
  "ĠValent": 24640,
  "getElement": 21415,
  "Ġhuge": 5699,
  "Ġbottles": 20321,
  "603": 29251,
  "099": 43771,
  "ĠLead": 12151,
  "Ġpushed": 10184,
  "pas": 36785,
  "Ġegy": 38179,
  "Ġsync": 20319,
  "Ġaliqu": 37711,
  "Ġshielding": 41435,
  "ĠProcedures": 49339,
  "Ġ![](": 34904,
  "apsing": 33616,
  "Ġprob": 1742,
  "ĠJu": 19120,
  "Ġ89": 11289,
  "Ġmehr": 36565,
  "ĠRather": 13771,
  "Compiler": 42711,
  "Ġconfirmation": 16883,
  "Ġcalculated": 5118,
  "Ġeosin": 26820,
  "izontal": 19650,
  "Ġrocking": 43219,
  "Ġethics": 18035,
  "against": 26204,
  "Ġna": 5549,
  "ĠÎµÏĢ": 29495,
  "ASM": 45352,
  "Ġaren": 6403,
  "ĠAndreas": 45940,
  "486": 27538,
  "ĠTownship": 26469,
  "ĠCW": 34444,
  "Ġarterial": 18571,
  "anian": 44316,
  "coll": 14641,
  "notice": 37277,
  "Ġgreet": 16524,
  "Ġrelinqu": 42289,
  "encoding": 27676,
  "Ġmagnitudes": 32800,
  "Ġmessages": 8169,
  "Ġstaged": 35035,
  "Absolutely": 48462,
  "ĠVol": 6845,
  "Ġfused": 29843,
  "Ġwear": 8251,
  "Ġredundant": 28116,
  "NAME": 9536,
  "rowth": 14612,
  "uns": 4539,
  "ĉĉĉĉ": 5879,
  "ĠNH": 18020,
  "Ġaber": 30562,
  "Ġgrounds": 9905,
  "esti": 31923,
  "Martin": 28448,
  "Women": 22737,
  "Loading": 31886,
  "ÑĢÐµÐ¼": 40412,
  "ĠKate": 20428,
  "Ġcircuitry": 29009,
  "0033": 40306,
  "Ġaspirations": 40659,
  "$": 5,
  "Ġinvert": 30332,
  "Default": 9671,
  "Ġ+/-": 11620,
  "Ġetern": 16649,
  "ipe": 5495,
  "çĶŁ": 20025,
  "Ġ1954": 24178,
  "ĠFields": 28679,
  "ĠMadame": 30979,
  "ĠTrain": 29712,
  "Ġantidepress": 33950,
  "Ġ\"_": 19292,
  "Ġma": 6429,
  "ĠTed": 17446,
  "^{{\\": 19022,
  "ĠStatus": 20364,
  "Ã½m": 44177,
  "Ġmobility": 16239,
  "berger": 24423,
  "pac": 44896,
  "Ġenvironment": 3126,
  "Ġmotivated": 17194,
  "Ġprecise": 10799,
  "ĠCommunity": 12244,
  "Ġequivalently": 39406,
  "browser": 28197,
  "ije": 32583,
  "ĠEC": 13507,
  "Ġtops": 27164,
  "Ġunsuitable": 49590,
  "User": 6989,
  ",,": 19396,
  "grow": 47248,
  "Reason": 40722,
  "Ġ[...]": 31789,
  "Ġaxle": 49435,
  "Ġthan": 685,
  "ĠÎµÏĢÎ¹": 49929,
  "ab": 357,
  "Ġspraying": 45747,
  "oprote": 10760,
  "Ġbaseline": 8245,
  ".);": 39514,
  "ivism": 42339,
  "Ġpreventive": 31382,
  "Ġtier": 30625,
  "Ġrandomization": 46852,
  "Ġcy": 2645,
  "Ġpackaged": 32487,
  "acrylamide": 42632,
  "}}+": 26284,
  "Ġeiner": 24910,
  "itons": 50247,
  "rein": 39910,
  "unnable": 45757,
  "ĠArabia": 20498,
  "Ġalgebra": 8697,
  "Ġattributable": 26585,
  "ĠWake": 34625,
  "Ġbipartisan": 45320,
  "Ġmasks": 25965,
  "Ġmonotonic": 45973,
  "Studio": 39701,
  "aur": 4411,
  "AV": 5851,
  "505": 18550,
  "ACT": 11645,
  "ĠÏĦÎ±": 36796,
  "Ġï": 16141,
  "Ġdrainage": 26111,
  "------------": 2912,
  "Prem": 43217,
  "Ġinvested": 22171,
  "374": 24562,
  "Ġadmissions": 26120,
  "ognition": 32854,
  "Ġlength": 2978,
  "Ġstyl": 17521,
  "Ġradiological": 46513,
  "')": 3401,
  "Ġparap": 38594,
  "Ġsquat": 39163,
  "ĠSah": 32706,
  "kal": 26076,
  "Ġlasers": 37412,
  "Average": 33993,
  "Ġdeterministic": 30027,
  "KK": 18717,
  "arat": 47310,
  "isi": 13401,
  "MT": 6229,
  "[^": 5180,
  "ibile": 48316,
  "progress": 24951,
  "lead": 26460,
  "ĠBenn": 20931,
  "ĠMarks": 46954,
  "Ġming": 43261,
  "Ġmish": 49285,
  "ĠLily": 32817,
  "Culture": 38687,
  "097": 39289,
  "Ġspeaker": 14925,
  "Ġspur": 36057,
  "Ġvisas": 48175,
  "Ġocc": 1609,
  "ĠÐ½Ð¾": 41666,
  "ĠGhana": 34905,
  "ĻĤ": 18713,
  "Ġconscious": 9680,
  "Furthermore": 20964,
  "Ġdislocation": 43154,
  "ĠAfterwards": 47090,
  "Ġsparing": 49779,
  "compiler": 35044,
  "amins": 31278,
  "Ġsecur": 3769,
  "stitutes": 44884,
  "opan": 37580,
  "ĠMOD": 39823,
  "agm": 19803,
  "ĠPand": 29347,
  "Ġwithin": 1561,
  "ambiguation": 38638,
  "iNdEx": 47312,
  "iotics": 14514,
  "ĠPOS": 35024,
  "Static": 26904,
  "ĠEpidem": 48838,
  "åįģ": 37657,
  "ĠRegulations": 41871,
  "Ġmutagen": 35239,
  "Ġulcer": 27622,
  "Ġ\">": 38329,
  "Ġmu": 12910,
  "SH": 5648,
  "Er": 21419,
  "Ġshoppers": 48741,
  "label": 1968,
  "process": 7404,
  "Ġ,$$": 26325,
  "Ġviewers": 20985,
  "Ġweighed": 24398,
  "roma": 49086,
  "UNITED": 33249,
  "Ġprep": 3765,
  "izability": 50228,
  "PU": 7575,
  "Ġdisseminated": 48313,
  "ĠKoch": 33135,
  "ĠReduction": 43383,
  "Ġministers": 23885,
  "Ġagree": 5194,
  "Ġexper": 1172,
  "Ġdetails": 4278,
  "Ġsocially": 28071,
  "ÃĹ": 6027,
  "Ġinvestors": 12946,
  "ĊĠĠĠĠĠĠĠĠĠĠĠĠĠĠĠĠĠ": 8940,
  "ĠDefendants": 12254,
  "omitempty": 39267,
  "Ã£": 3312,
  "ĠLength": 32569,
  "external": 22108,
  "Ġbedside": 46922,
  "grav": 12158,
  "Ġfeaturing": 15773,
  "Ġelectorate": 46866,
  "Ġlatex": 44127,
  "assy": 20479,
  "Ġaperture": 23700,
  "illi": 3370,
  "iples": 7540,
  "Ġheterocy": 44632,
  ")_{": 14548,
  "dem": 9468,
  "æľĢ": 25538,
  "Ġ612": 47882,
  "Ġcrystals": 20642,
  "funded": 34492,
  "Ġdou": 2443,
  "icates": 31290,
  "Ġbutterfly": 38985,
  "Symbol": 29046,
  "After": 4553,
  "desc": 12898,
  "mouth": 19845,
  "Ġdisplaced": 26699,
  "Ġorigins": 20801,
  "OMEM": 48579,
  "ad": 324,
  "264": 17984,
  "guy": 26619,
  "Ġambiguity": 28931,
  "Ġchecklist": 44282,
  "Ġmonster": 19827,
  "awning": 37567,
  "Ġblinding": 49167,
  "ĠWa": 23224,
  "Ġpeut": 24241,
  "Ġquotient": 26860,
  "felt": 38215,
  "Ġsouls": 23729,
  "à±į": 42916,
  "Ġvertebral": 39031,
  "ĠHumans": 48982,
  "aeda": 28031,
  "Ġ114": 11601,
  "ĠMcDonald": 26145,
  "Ġembed": 8473,
  "Also": 9917,
  "Ġorganizational": 26921,
  "ãĥł": 39162,
  "Ġresults": 1543,
  "Ġwells": 21443,
  "Ġschedule": 10130,
  "oL": 29848,
  "Ġcrick": 18215,
  "ĠNP": 19380,
  "Ġcand": 3940,
  "ĠRegistry": 38227,
  "Ġhered": 34924,
  "ating": 839,
  "Ġexposition": 47284,
  "Ġchili": 45568,
  "blank": 22473,
  "ĠLayer": 35368,
  "mong": 33277,
  "Ġbail": 19590,
  "Ġgeom": 49040,
  "æĵ": 44508,
  "ĠPlug": 48823,
  "fired": 46178,
  "ĠJohnson": 7902,
  "Ġalteration": 26787,
  "Accordingly": 23135,
  "nesday": 7502,
  "ĠSnow": 18724,
  "rame": 30873,
  "Ġbranding": 42440,
  "Ġcontradictory": 34126,
  "Î¹": 2989,
  "Ġexem": 40924,
  "Ġsettled": 11371,
  "Ġbot": 17994,
  "ĠIan": 23259,
  "eping": 10413,
  "yles": 9250,
  "ĠFighting": 45349,
  "exist": 31477,
  "eg": 909,
  "åħ³": 40500,
  "ear": 613,
  "çŁ": 25762,
  "Ġ390": 33956,
  "acid": 34704,
  "ould": 450,
  "Ġbiomarker": 28976,
  "ez": 16130,
  "otherapeutic": 41489,
  "Ġbracket": 24312,
  "Ġdial": 11901,
  "Ġperox": 19899,
  "Ġsale": 7289,
  "reck": 17456,
  "hoc": 37806,
  "yaml": 33522,
  "ĠDav": 3826,
  "ĠRatio": 43699,
  "hw": 13816,
  "Ã©ri": 31178,
  "ĠWalton": 47126,
  "Ġlegislature": 18818,
  "Ġlect": 11873,
  "Ġquest": 1437,
  "Ġwebsite": 4422,
  "ocyan": 26632,
  "Ġmodify": 10007,
  ".:": 12567,
  "Ġcad": 18072,
  "Ġ18": 1283,
  "Ġpacing": 35500,
  "Ġashes": 39187,
  "ĠDurham": 37870,
  "Ġproport": 5782,
  "Ġzich": 48547,
  "Ġ\"\\\\": 50071,
  "ãģ§ãģį": 32932,
  "ytes": 12742,
  "Ġusually": 3798,
  "Ã©d": 15949,
  "$_": 10001,
  "Ġdude": 29723,
  "Ġassigning": 34018,
  "Ġintensity": 7133,
  "ical": 474,
  "Ġslot": 15239,
  "ĠCounter": 27891,
  "ĠJoint": 23106,
  "Ġ414": 36573,
  "Ġreinst": 30938,
  "Ġdef": 809,
  "ĠMelissa": 38994,
  "Ġlapse": 47893,
  "|}\\": 47715,
  "ĠØ": 4954,
  "ĠVor": 30675,
  "ortunate": 21717,
  "Ġlegal": 4320,
  "åĩ": 13486,
  "Member": 20226,
  "Ġglycogen": 48785,
  "ĠMovement": 25678,
  "Ġbil": 10370,
  "ĠmtDNA": 40525,
  "Mah": 30507,
  "osome": 10217,
  "Ġrecl": 43834,
  "ä¸Ĭ": 16740,
  "Ġtraveled": 19624,
  "Ident": 11540,
  "Ġnotion": 10732,
  "ĠAutomatic": 47367,
  "aceuticals": 33367,
  "Ð»": 3415,
  "aceutics": 48734,
  ";;": 12723,
  "Ġkilometers": 28666,
  "Ġlifestyle": 14898,
  "View": 3145,
  "Ġtoim": 45641,
  "while": 6050,
  "éģ": 14378,
  "].\\": 46694,
  "ĠSS": 13575,
  "ĠEighth": 35661,
  "ĠIt": 733,
  "Ġbiology": 16775,
  "Ġexile": 33927,
  "smith": 37915,
  "Wed": 21091,
  "âĪĴ": 2106,
  "ĠPreston": 44124,
  "Ġcompan": 3795,
  "ĠAlex": 6539,
  "Ġspecifications": 23944,
  "Ġcurly": 49721,
  "Ġvastly": 37078,
  "Ġextras": 42359,
  "typically": 42623,
  "onin": 40341,
  "Ġ1867": 50220,
  "ĠPeg": 30623,
  "Ġinequality": 11370,
  "hyd": 22034,
  "idia": 32825,
  "Ġnests": 46590,
  "estival": 9607,
  "REST": 46489,
  "Ġadministr": 7255,
  "ĠMathemat": 16215,
  "ĠLaunch": 32371,
  "rization": 45031,
  "yson": 28533,
  "ismus": 47004,
  "rfloor": 30266,
  "ĠSher": 10648,
  "aps": 1825,
  "ĠNano": 42026,
  "Ġimagine": 8564,
  "Ġneutrophils": 28906,
  "ĠBeyond": 23626,
  "Ġranc": 50008,
  "xe": 7096,
  "Ġsweeping": 28110,
  "Ġglared": 47278,
  "ARS": 15286,
  "ĠLOS": 46898,
  "raine": 12737,
  "Ġbelie": 1802,
  "Ġtemps": 29324,
  "Rank": 34337,
  "licenses": 17130,
  "begin": 2043,
  "}}}{\\": 27637,
  "increasing": 41193,
  "Characteristics": 47592,
  "agul": 31695,
  "Ġbinary": 8985,
  "otropic": 32801,
  "ĠAway": 37811,
  "ordable": 38666,
  "ĠNa": 6897,
  "ĠTG": 24602,
  "Ġfiref": 31273,
  "ĠGarn": 48855,
  "ores": 2324,
  "Ġarea": 2170,
  "ĠCounty": 3928,
  "875": 39840,
  "Ġhumanity": 16457,
  "Av": 13834,
  "CLC": 23839,
  "quel": 38582,
  "}}^{(": 32673,
  "acked": 16970,
  "Ð½Ð¾Ð¹": 29862,
  "Ġcytoplasmic": 24256,
  "Ġhabit": 8803,
  "Ġroster": 22970,
  "Ġweighs": 40581,
  "zhou": 40305,
  "uran": 22017,
  "itus": 13865,
  "ographs": 25446,
  "ĠSales": 22344,
  "ĠWikipedia": 26654,
  "Ġmour": 23679,
  "Ġregulate": 14368,
  "mod": 2307,
  "Ġvirtue": 16968,
  "Ġreaches": 14190,
  "RSOS": 37075,
  "ĠSL": 14532,
  "Ġconserved": 14900,
  "ainers": 39982,
  "phants": 38128,
  "æĢ§": 21734,
  "Ġaffairs": 13909,
  "=====": 43024,
  "elling": 3485,
  "export": 15035,
  "notin": 31469,
  "Ġud": 18198,
  "ips": 2824,
  "Ġbead": 34279,
  "Ġwanting": 14707,
  "Ġ1899": 42791,
  "ĠBackground": 17720,
  "Âĳ": 19819,
  "ĠAmbassador": 34358,
  "Jew": 27341,
  "aci": 26293,
  "dle": 34630,
  "Ġphenomenal": 44294,
  "Decl": 18608,
  "Ġunfinished": 46809,
  "ĠLO": 23310,
  "ĠBeginning": 43312,
  "Ġpublished": 3863,
  "ĠCincinnati": 29089,
  "Ø§": 3142,
  "bows": 36553,
  ")\\]": 31148,
  "charg": 10847,
  "Meet": 46785,
  "Ġneutrinos": 38277,
  "nine": 27248,
  "Ġanxious": 20138,
  "Ġkit": 6119,
  "ĠELSE": 49380,
  "Ġwhence": 40689,
  "ortal": 26328,
  "Ġâī": 8611,
  "ĠCentre": 12169,
  "680": 40100,
  "resources": 21830,
  "ĠYes": 6279,
  "LA": 5696,
  "ated": 456,
  "705": 45698,
  "Ġinfluenced": 12208,
  "checked": 21542,
  "Ġvaccination": 19640,
  "entially": 4303,
  "Ġstabilization": 28366,
  "ĠAgg": 32516,
  "Ġfar": 2080,
  "Evaluate": 16770,
  "iom": 48673,
  "Ġinstalling": 20864,
  "Ġlandmarks": 39719,
  "Ġoun": 20796,
  "ĠTru": 20115,
  "Ġgradual": 26830,
  "Ġunter": 32925,
  "inner": 5338,
  "Ġarrived": 7244,
  "Stage": 30635,
  "^": 63,
  "Ġwat": 5381,
  "ĠRaman": 29421,
  "Ġ479": 41372,
  "Ġgave": 3534,
  "Ġmotorcycle": 30649,
  "ÏīÎ½": 15234,
  "Ġsell": 5580,
  "Ġinvestment": 8149,
  "Ġ:)": 9418,
  "ĠEuler": 31752,
  "Ġbrass": 27188,
  "econom": 40744,
  "boot": 13449,
  "processed": 36981,
  "anuts": 50166,
  "ĊĊĠĠĠĠĠĠĠ": 2707,
  "include": 3709,
  "icy": 2576,
  "ote": 1584,
  "CNT": 32744,
  "tcp": 34133,
  "ĠBris": 38382,
  "Ġeldest": 39311,
  "Ġoccupy": 26263,
  "Ġaccession": 30307,
  "fast": 7957,
  "ol": 311,
  "Ġgrafts": 39570,
  "Ġlapt": 14498,
  "----------------------------------------------------------------": 2518,
  "Ġscanning": 13733,
  "utt": 13077,
  "Ġreserves": 23003,
  "curr": 48280,
  "TOD": 49926,
  "xsd": 18728,
  "Syn": 19158,
  "ç¬¬": 24893,
  "ĠMAP": 13430,
  "ĠMadd": 33210,
  "Ġdistinctive": 21488,
  "ĠUkraine": 17111,
  "Ġfuture": 2852,
  "ading": 6748,
  "clinical": 20892,
  "default": 6986,
  "Ġshareholders": 28284,
  "âĢķ": 35199,
  "885": 29805,
  "employee": 38885,
  "Ġbeh": 1602,
  "Ġlawn": 23298,
  "Ġpla": 24939,
  "ĠEU": 8215,
  "ĠLeave": 28593,
  "ą": 182,
  "Ġappliances": 32701,
  "emph": 37236,
  "Ġcompat": 9800,
  "Ġcaptured": 10848,
  "Ġcracks": 30611,
  "Ġnur": 27359,
  "Ġshares": 10764,
  "Ġ16": 1668,
  "US": 3016,
  "plectic": 31615,
  "usamm": 48440,
  "Ġ1950": 13918,
  "DOM": 27395,
  "ĠEmma": 25975,
  "Ġcrest": 30402,
  "åĸ": 39429,
  "Ġtheological": 40723,
  "Sent": 29710,
  "Given": 15768,
  "ĠH": 388,
  "ĠÑĤÐ°Ðº": 24310,
  "ĠTommy": 27145,
  "Ġcareers": 25829,
  "EL": 3887,
  "frast": 9627,
  "ĠThir": 39345,
  "ificates": 23994,
  "})^{\\": 47402,
  "Ġcomposer": 25375,
  "Ġmig": 5563,
  "Ġpesticides": 37934,
  "Ġscattered": 17485,
  "Ġmyocardial": 17883,
  "Ġstrokes": 33518,
  "ĠClerk": 28568,
  "Ġlys": 13042,
  "Ġdisclosures": 42880,
  "plasty": 44406,
  "Ġmethod": 1332,
  "TOR": 22726,
  "Ġwest": 8935,
  "Ġtitle": 4060,
  "itud": 7128,
  "urse": 9786,
  "digest": 49534,
  "Ġocks": 45094,
  "NOW": 22731,
  "Servlet": 29293,
  "Ġvener": 49110,
  "Ind": 8207,
  "Ops": 47901,
  "FFER": 27254,
  "ĠFactors": 38182,
  "ĠMob": 28680,
  "tap": 37056,
  "Ġatyp": 31052,
  "Ġnem": 20641,
  "Ġfilament": 26533,
  ")_\\": 48542,
  "Ġ*/,": 33701,
  "aston": 38766,
  "ceived": 6991,
  "RD": 19000,
  "Ġannot": 12182,
  "('": 2073,
  "Ġjudged": 24242,
  "Ġwatched": 9047,
  "ĠOracle": 19792,
  "hering": 42527,
  "Ġcultivated": 30481,
  "832": 46702,
  "Ġdepict": 17154,
  "Ġrefused": 9284,
  "ĠMMP": 22646,
  "chen": 5756,
  "Ġdisappear": 15529,
  "Ġcorpse": 35093,
  "Ġpolitely": 45646,
  "Ġsecure": 7895,
  "Ġspacing": 22735,
  "ans": 507,
  "Ġblogger": 38816,
  "asta": 24968,
  "Ġrivalry": 43497,
  "Ġih": 25730,
  "itution": 28125,
  "ppy": 19500,
  "ffect": 887,
  "photo": 24442,
  "Ġplace": 1659,
  "ĠVaugh": 38923,
  "ĠRptr": 35998,
  "Ġtrimester": 44299,
  "Ġlonge": 35133,
  "Ġamb": 6861,
  "Ġelevated": 10702,
  "Ġclients": 8548,
  "zzi": 29935,
  "uncture": 27206,
  "omination": 45455,
  "ren": 445,
  ";\\": 7405,
  "odynam": 12763,
  "Ġcolleague": 25459,
  "ÂłÂłÂłÂłÂłÂłÂłÂł": 10906,
  "crystalline": 48256,
  "nk": 30664,
  "ĠGUI": 29856,
  "Ġdeeply": 11617,
  "ĠfaÃ§": 40881,
  "red": 433,
  "Min": 10292,
  "remark": 39808,
  "Ġresemb": 22066,
  "ĠAviv": 47945,
  "ĊĠĠĠĠĠĠĠĠĠĠĠĠĠĠĠĠĠĠĠĠĠĠĠĠĠĠĠĠ": 20102,
  "pering": 35025,
  "iers": 4670,
  "OTH": 31407,
  "ĠHegel": 44499,
  "ĠCreates": 46778,
  "iet": 2880,
  "547": 48793,
  "Ġancest": 13251,
  "Ġechoes": 41249,
  "Ġlou": 29245,
  "Ġcounts": 9372,
  "Ġ[-": 28591,
  "Ġsur": 919,
  "Ġtrans": 811,
  "ĠRousseau": 48403,
  "Ġunpaid": 35778,
  "Ġperin": 43150,
  "Ġyeah": 10902,
  "ĠÑĤÑĢ": 43084,
  "ĠBard": 44523,
  "Ġhealthcare": 11723,
  "Ġove": 25732,
  "ris": 4448,
  "ĠConnection": 29028,
  "Claim": 34200,
  "\\].": 4207,
  "ĠNaturally": 44943,
  "docs": 13880,
  "ĠWordPress": 31198,
  "appa": 5596,
  "AS": 1719,
  "alse": 2018,
  "ãģ£ãģ¦ãģĦãĤĭ": 50169,
  "ĠPoly": 18371,
  "Ġanniversary": 19054,
  "Ġcrore": 43813,
  "Ġrespectable": 39034,
  "rison": 30434,
  "Ġsacks": 44992,
  "çĬ": 36720,
  "Ġhandles": 22139,
  "Ġbrown": 8516,
  "ĠVacc": 36969,
  "Ġpoison": 14537,
  "Ġproducers": 18014,
  "197": 18493,
  "Y": 58,
  "Ġdecom": 11101,
  "ĠExec": 12138,
  "Ġdriving": 6276,
  "wered": 8736,
  "Ġgh": 32798,
  "Ġabdominal": 17322,
  "Ġapplicant": 22123,
  "ĠDist": 3656,
  "Ġcheek": 19723,
  "Ġter": 4109,
  "Ġadmitting": 28168,
  "ogeneous": 10553,
  "Ġrevolutionary": 22564,
  "ć": 184,
  "atorium": 47777,
  "Ġdrying": 24396,
  "Ġfigure": 4677,
  "Ø´": 22814,
  "Â»,": 26147,
  "Ġreimburse": 27533,
  "RM": 26889,
  "etable": 48453,
  "db": 5470,
  "ĠHamas": 32885,
  "ĠObserv": 16177,
  "clin": 47217,
  "xffff": 49477,
  "258": 22029,
  "relations": 22842,
  "Ġaccent": 22713,
  "Ġdefaults": 30470,
  "IMO": 44293,
  "hb": 38057,
  "ĠOPEN": 41631,
  "omial": 28261,
  "reader": 28011,
  "Ġblank": 9912,
  "ĠCochrane": 40607,
  "Ġdiox": 19800,
  "Ġlady": 10692,
  "Ġchess": 29992,
  "Ġnodes": 7632,
  "Ġpesticide": 49525,
  "021": 21940,
  "Whoa": 41995,
  "Ġexhibiting": 30259,
  "ĠUr": 15520,
  "lift": 38722,
  "Lam": 42149,
  "Ġpredator": 41143,
  "ĠBack": 8247,
  "ĠPUBLIC": 35283,
  "imme": 46848,
  "can": 5092,
  "ĠLau": 18894,
  "pb": 15656,
  "Ġride": 9549,
  "Ġtracks": 11411,
  "Ġelliptic": 29612,
  "reverse": 32514,
  "Ġcolumn": 5084,
  "Ġexist": 2226,
  "ĠJapan": 4047,
  "oden": 26063,
  "{\"": 9819,
  "Ġpear": 27887,
  "Ġpadd": 41243,
  "ĠRiv": 40558,
  "Ġshowers": 39426,
  "OID": 38243,
  "Ġprinciple": 8063,
  "ÂĢ": 9589,
  "agan": 12043,
  "ĠCommons": 22695,
  "Ġaesthetic": 24624,
  "heng": 24176,
  "vate": 35913,
  "authorized": 24463,
  "ctx": 11154,
  "header": 10146,
  "BLOCK": 28291,
  "grad": 4971,
  "àª¾": 49170,
  "Ġultra": 17452,
  "VT": 28889,
  "Fixed": 26028,
  "gesterone": 34847,
  "-\\-\\": 34353,
  "Ġstim": 4308,
  "schema": 18982,
  "dule": 8009,
  "Ġsulfur": 25524,
  "aml": 16878,
  "pulse": 48241,
  "æİ¥": 33474,
  "ĠDU": 35049,
  "Wave": 34059,
  "Ġ177": 24232,
  "Ġlegs": 9246,
  "Ġrev": 3585,
  "Ġpriests": 24061,
  "inator": 12915,
  "ĠOperating": 39439,
  "overflow": 27745,
  "Ġburst": 12948,
  "Ġupstairs": 24311,
  "ĠAlabama": 15263,
  "Ġnue": 28988,
  "idor": 49410,
  "Ð¹": 10411,
  "cannot": 32824,
  "hang": 12109,
  "mM": 14685,
  "Ġbeach": 11600,
  "Ġlimitations": 7364,
  "Ġ595": 49675,
  "Ġprobed": 39039,
  "Ġregeneration": 22781,
  "].": 1570,
  "Ġfoliage": 46441,
  "Ġmonarch": 33490,
  "levels": 43836,
  "sign": 9188,
  "Ġ1972": 15750,
  "ĠCMD": 48168,
  "Ġasthma": 17002,
  "Ġcovariates": 33520,
  "360": 16587,
  "ipeg": 44228,
  "pire": 16695,
  "ĠEdition": 17897,
  "iba": 33068,
  "ĠCOUNTY": 43446,
  "Ġreceivers": 29390,
  "STM": 27127,
  "Car": 10697,
  "Ġperic": 35675,
  "abbit": 12815,
  "Ġshareholder": 39384,
  "Ġdebts": 26131,
  "yml": 46415,
  "ĠAuthors": 26940,
  "Ġdamn": 15229,
  "ĠParticip": 37519,
  "Cool": 41145,
  "ÏĨÎ¿": 47946,
  "substack": 35547,
  "gebra": 6650,
  "search": 8716,
  "ÐºÐ¸": 23379,
  "Ð½ÑĭÐµ": 29220,
  "Ġ374": 40528,
  "Film": 37160,
  "Ġcoast": 8852,
  "gran": 28859,
  "Ġglorious": 28548,
  "Ġhearing": 4854,
  "Ġrefinement": 29646,
  "Ġsi": 4927,
  "ia": 571,
  "%);": 34649,
  "ĠWalsh": 36360,
  "Ä": 128,
  "ringer": 47761,
  "ĠArch": 7984,
  "Ġbrisk": 40777,
  "Ġmarks": 10880,
  "Ġexcellent": 7126,
  "Ġrhyth": 28715,
  "ĠRIGHT": 33238,
  "ASHINGTON": 38815,
  "Ġthru": 41125,
  "Ġtricky": 28190,
  "..\\": 16199,
  "GridView": 48618,
  "ĠEquipment": 40061,
  "ac": 317,
  "ĊĠ": 586,
  "ĠSettings": 29559,
  "Ġdifferent": 1027,
  "Ġfois": 36783,
  "doing": 25163,
  "raw": 2040,
  "Ġ153": 21579,
  "Ġcontinuous": 5415,
  "Ġfears": 18055,
  "rophys": 22154,
  "Ġunchanged": 19965,
  "ĠÐ³": 13192,
  "evo": 46261,
  "Ġaffidavits": 34278,
  "Ġforeigners": 34550,
  "ĠLion": 26571,
  "MESSAGE": 38762,
  "Ġfeces": 49131,
  "ĠXI": 34264,
  "=\"_": 23604,
  "Ġirrespective": 30472,
  "outs": 8349,
  "ĠAffordable": 47518,
  "Ġbeautiful": 5389,
  "Ġfamine": 48768,
  "Ġonion": 21635,
  "Ġiso": 14928,
  "FFFFFFFF": 47455,
  "Ġreligious": 7231,
  "libc": 34357,
  "ĠĠĊĠ": 32776,
  "Ġdist": 940,
  "Ġroared": 49876,
  "Ġdiscontinued": 35985,
  "irm": 2683,
  "ĠAmended": 42173,
  "par": 1148,
  "ymmetric": 25562,
  "ISO": 28783,
  "ĠMorocco": 40983,
  "Ġperformance": 3045,
  "Ġusb": 29227,
  "Ġabstract": 12002,
  "ĠEuroopan": 45536,
  "tf": 16114,
  "Ġhabits": 16964,
  "playing": 30758,
  "Ġcelery": 44699,
  "Ġmoins": 36463,
  "Ġlender": 39403,
  "xff": 21671,
  "Ġbeautifully": 27839,
  "ĠMemphis": 33199,
  "Ġfined": 44861,
  "×ĳ": 27339,
  "000001": 40817,
  ".,": 904,
  "icrosoft": 6599,
  "COM": 9507,
  "setminus": 12750,
  "Charles": 27515,
  "}).$$": 43214,
  "god": 30023,
  "nm": 10602,
  "ĠCompute": 45947,
  "to": 936,
  "å§": 28650,
  "execute": 21599,
  "Î¼m": 22588,
  "VERSION": 17037,
  "Ġbags": 15284,
  "ĠManning": 33665,
  "Ġcrafting": 49378,
  "Ġslam": 48041,
  "čĊ": 2379,
  "ĠÐļ": 24572,
  "Ġintuition": 30328,
  "ĠSach": 33377,
  "Ġchamber": 9320,
  "Ġ''": 15078,
  "ĠFD": 21932,
  "Ġkidney": 12333,
  "Ġfibroblasts": 23273,
  "Ġrien": 42966,
  "Ġstared": 15014,
  "Highlight": 46006,
  "Ġration": 42904,
  "Unlike": 31137,
  "Ġfabricated": 26493,
  "Springer": 45074,
  "(\"#": 19410,
  "Ġ346": 38290,
  "Ġspite": 15866,
  "opus": 30504,
  "Ġtodd": 35130,
  "Ġsituated": 17860,
  "Ġcone": 19400,
  ")+": 8744,
  "Fill": 30296,
  "Download": 20865,
  "August": 20266,
  "_{|": 42643,
  "atted": 19822,
  "ĠRiver": 7121,
  "Ġdeclines": 34044,
  "ĠPacific": 11553,
  "Ġneces": 30538,
  "Ġtaxes": 10474,
  "hover": 22424,
  "duced": 23747,
  "her": 379,
  "ĠShadow": 28258,
  "Ġchrome": 36605,
  "ĠEther": 32707,
  "066": 39425,
  "rounds": 41233,
  "Ġdelivery": 6742,
  "Ġincorporate": 19071,
  "ĠSpiel": 47634,
  "Ġperfor": 27024,
  "ĠpÃĥ": 45122,
  "Ġbatting": 38992,
  "Ġcortical": 17902,
  "aires": 21296,
  "otransferase": 47640,
  "rent": 624,
  "ĠADVIS": 48646,
  "ĠSchema": 47866,
  "Ġhave": 452,
  "Ġruled": 12969,
  "Ġpac": 19162,
  "Ġspiders": 48037,
  "aking": 1170,
  "ANI": 48298,
  "ochrom": 28759,
  "upo": 33562,
  "ĠAlto": 46317,
  "Ġcomun": 31365,
  "1972": 23482,
  "Ġcrater": 47642,
  "Ġdaring": 38098,
  "Ġcart": 7281,
  "Ġglioma": 41792,
  "088": 42952,
  "CTS": 33949,
  "anga": 28874,
  "uese": 20761,
  "club": 34583,
  "Ġtransfers": 21916,
  "ĠOUR": 38392,
  "806": 29288,
  "amation": 20717,
  "ĠBoltzmann": 48274,
  "oli": 10424,
  "Ġexported": 34652,
  "Ġimmensely": 45224,
  "Ġlinear": 4872,
  "Ġmitigation": 36455,
  "Client": 8975,
  "Ġneo": 28522,
  "ById": 14738,
  "broken": 30229,
  "Ġpseud": 10585,
  "Ġexpressly": 20251,
  "Ġ485": 40873,
  "relevant": 15477,
  "Ġyes": 4754,
  "tyle": 9714,
  "Ġyour": 634,
  "Ġincrements": 42344,
  "Ġfellows": 36339,
  "kom": 21971,
  "Ġ768": 45730,
  "eterm": 13109,
  "RB": 26646,
  "710": 41680,
  "stat": 8766,
  "ĠCamp": 8647,
  "Ġinsulated": 47759,
  "Ġlover": 21514,
  "avez": 45836,
  "Shader": 38031,
  "Ġorg": 4955,
  "385": 24677,
  "Ġ287": 29669,
  "Ġsplit": 8085,
  "Ġunderest": 22698,
  "ĠAccordingly": 10022,
  "ĠSDS": 21777,
  "Ġdow": 48418,
  "Ġreligion": 9596,
  "Ġresins": 37776,
  "ĠLuna": 47392,
  "Ġbackbone": 27882,
  "Ġworkpiece": 43983,
  "otherap": 44469,
  "Ġhydrogen": 9946,
  "\"));": 17378,
  "ĠTro": 17798,
  "Ġ1914": 26478,
  "alking": 21489,
  "jac": 47941,
  "ĠMargaret": 20145,
  "}=-": 39779,
  "Ġearlier": 4321,
  "Ġgrave": 16102,
  "ĠmAb": 39096,
  "patients": 34732,
  "ached": 2729,
  "practice": 29105,
  "vic": 19742,
  "Ġtongue": 14018,
  "Ġchips": 16666,
  "Ġshake": 17941,
  "apped": 6965,
  "ophyll": 30604,
  "Ġmaxima": 49313,
  "Ġik": 12628,
  "Ġequilibrium": 12902,
  "Career": 29431,
  "Ġfaithful": 21738,
  "nod": 41933,
  "Price": 21333,
  "concept": 31503,
  "origin": 27422,
  "Ġfleeing": 37637,
  "Within": 26190,
  "Ġsupporting": 8109,
  "Ġslave": 15945,
  "aceous": 32691,
  "McC": 41378,
  "Ġamendments": 26340,
  "Ġerect": 29893,
  "ife": 1074,
  "Ġ}\\": 11153,
  "ĠPharm": 18033,
  "ĠDevil": 32974,
  "JD": 30612,
  "inguish": 29641,
  "isl": 12937,
  "aternal": 22994,
  "mr": 28094,
  "urity": 5051,
  "}{~": 39586,
  "ĠIPA": 46423,
  "ĠThere": 1707,
  "Ġmountains": 14700,
  "å¾Ī": 45091,
  "Ġopenly": 22134,
  "idespread": 13933,
  "published": 15855,
  "=": 30,
  ">[": 39822,
  "ĠProtein": 20112,
  "Ġblunt": 29156,
  "ãĤ£": 29733,
  "dropdown": 29633,
  "ĠQuant": 12597,
  "ĠEastern": 11867,
  "Ġbanner": 29751,
  "Ġzeal": 42939,
  "rained": 11273,
  "Ð¾ÑģÑĤ": 19745,
  "olev": 40610,
  "ĠTRA": 28981,
  "Ġedema": 30297,
  "ĠDescription": 11451,
  "ĠMajor": 11432,
  "Ġiz": 24901,
  "eval": 15419,
  "Green": 18942,
  "lee": 14906,
  "ĠSIM": 28320,
  "VOL": 36755,
  "tick": 47487,
  "476": 31699,
  "chu": 46260,
  "ĠART": 23681,
  "ĠCommerce": 20249,
  "avanaugh": 41700,
  "608": 25805,
  "(|": 32959,
  "Ġreplication": 14970,
  "å½": 14318,
  "Ġskin": 4808,
  "scope": 14329,
  "ĊĠĠĠĠĠĠĠĠĠĠĠĠĠĠĠĠ": 1188,
  "igious": 17689,
  "themes": 49297,
  "Ġabsurd": 20873,
  "ĠAfrica": 7531,
  "405": 20680,
  "446": 27590,
  "ĠShanghai": 23494,
  "Ġintervening": 37686,
  "1111": 13721,
  "ĠFinal": 16299,
  "olester": 11201,
  "ĠSpect": 17143,
  "524": 43171,
  "ĠGear": 39676,
  "ĠTalk": 25664,
  "Ġphosphatase": 30577,
  "plemented": 38758,
  "Ġ))": 39705,
  "Ġmand": 7649,
  "Ġrocket": 21912,
  "Ġuncover": 32355,
  "Ġvoc": 11571,
  "Camp": 25046,
  "onso": 46958,
  "Ġcert": 5306,
  "ÏĦÎ¹": 21227,
  "ROM": 34940,
  "ĠAchie": 41541,
  "ĠPas": 17231,
  "Ġamounted": 37752,
  "Ġimproves": 19132,
  "Ġess": 3265,
  "umann": 25331,
  "ĠPros": 33523,
  "Ġleaving": 6108,
  "BUF": 36675,
  "Ġearnest": 34375,
  "oplast": 43040,
  "ĠMov": 19345,
  "Ġoutlines": 36264,
  "ĠÃ©t": 15451,
  "Ġrelied": 15494,
  "896": 33608,
  "ropri": 12341,
  "Invest": 30381,
  "eight": 19521,
  "iable": 6051,
  "Ġdeterminant": 27152,
  "Ġmuddy": 47156,
  "Ġdonations": 23866,
  "ĠOH": 20492,
  "ED": 1703,
  "ĠEcho": 40443,
  "video": 16455,
  "Ġregimens": 32991,
  "etimes": 46988,
  "Ġreferen": 17807,
  "ĠShah": 24919,
  "duly": 49701,
  "ĠCONDITIONS": 22998,
  "         ": 50269,
  "EG": 42092,
  "iousness": 35715,
  "tras": 33035,
  "STA": 37789,
  "TAG": 22227,
  "Ġchances": 14512,
  "Ġdynasty": 34526,
  "Ġtalents": 28621,
  "ifference": 17693,
  "iscussion": 10055,
  "Ć": 183,
  "ĠRita": 46980,
  "^*,": 43558,
  "highest": 49842,
  "Ġ266": 30610,
  "ĠHapp": 34386,
  "Ġkos": 29348,
  "Ġmathemat": 11076,
  "Ġpathogenesis": 19556,
  "~^": 39303,
  "689": 29941,
  "sup": 8403,
  "Ġexpectations": 12656,
  "Ġirony": 33740,
  "Ġ[{": 33440,
  "525": 37219,
  "Family": 21276,
  "Ġisomorphism": 20169,
  "Ã¢nd": 37890,
  "Ġsquir": 37233,
  "ĠTelescope": 43417,
  "Cr": 14201,
  "Ġproven": 11464,
  "adm": 44434,
  "Ġextending": 13633,
  "Ġdest": 3154,
  "Ġrobots": 25497,
  "Ġartificial": 13345,
  "Shall": 47600,
  "division": 41952,
  "ĠBacon": 43769,
  "Ġnanot": 38587,
  "Ġpand": 18060,
  "Ġsnap": 14496,
  "âĸ": 10897,
  "010": 9104,
  "sure": 43574,
  "Ġcarrying": 8785,
  "Ġevaluated": 6760,
  "Ġga": 23646,
  "Ġmuse": 12883,
  "Ġook": 28562,
  "Ġdarkened": 47465,
  "Ġsharing": 9628,
  "Ġswiftly": 34304,
  "HI": 18469,
  "ĠWis": 12051,
  "ucks": 9984,
  "Ġ464": 41652,
  "ĠAbb": 26153,
  "ĠLin": 18077,
  "IGEN": 41310,
  "West": 15491,
  "hours": 22724,
  "izophren": 20224,
  "ulose": 20693,
  "expressing": 31464,
  "}}}_{\\": 37276,
  "---------------------------------": 30282,
  "phrase": 40712,
  "ODUCT": 47965,
  "ÅĽci": 26968,
  "ĠLeft": 15584,
  "Ġattachment": 14170,
  "Ġcling": 49196,
  "Ġdif": 722,
  "Ġemergencies": 46996,
  "ĠAthens": 27411,
  "Ġhorizontally": 36128,
  "Ġhub": 14713,
  "Ġhydr": 33171,
  "Ġid": 2654,
  "ĠPearson": 25065,
  "Ġoccupation": 17238,
  "Ġbure": 23304,
  "freq": 41122,
  "Ġgeometrical": 38307,
  "Ġgracious": 46582,
  "Ġmellitus": 27000,
  "ĠPolit": 12766,
  "Ġattempting": 13756,
  "Ġproportions": 22260,
  "Ġuns": 5061,
  "ĠìĿ´": 49264,
  "Ġshoulder": 9215,
  "Ġpersonalities": 34514,
  "537": 42215,
  "Ġsank": 29540,
  "Impl": 14560,
  "bibr": 14457,
  "ideal": 45222,
  "Ġsidewalk": 33619,
  "89": 2511,
  "×Ļ×": 13963,
  "Chain": 26268,
  "castle": 26689,
  "ãĤ¨": 38750,
  "Ġevident": 8943,
  "Ġanimals": 5074,
  "ĠFe": 5721,
  "ĠHolly": 12885,
  "Ġreminiscent": 35036,
  "Ġintram": 34626,
  "Ġmarital": 27774,
  "ĠSaudi": 16158,
  "Ġmodulo": 40090,
  "Ġstalk": 33587,
  "Ġgreater": 3687,
  "Ġillumin": 34080,
  "744": 50222,
  "ĠSec": 5466,
  "Ġdh": 42158,
  "Ġunderstanding": 4685,
  "abs": 5375,
  "Ġ1861": 42129,
  "ĠOrganic": 44278,
  "Ġunofficial": 49562,
  "Ġthreatens": 37654,
  "Ġpioneering": 45200,
  "Ġpalm": 19992,
  "`,`": 46618,
  "Ġbotan": 44820,
  "PtrFromString": 41557,
  "provide": 42260,
  "ĠOpera": 30383,
  "weighted": 24676,
  "Ġcloses": 27599,
  "Ġsons": 15196,
  "Ġges": 32624,
  "ĠĠĠĠĠĠĠĠĠĠĠĠĠĠĠĠĠĠĠĠĠĠĠĠĠĠĠĠĠĠĠĠĠĠĠĠĠĠĠĠĠĠĠĠĠĠĠĠĠĠĠĠĠĠĠĠĠĠĠĠĠĠĠĠĠĠĠĠĠĠĠĠĠĠĠĠĠĠĠĠĠĠĠĠĠĠĠĠĠĠĠĠĠĠĠĠĠĠĠĠĠĠĠĠĠĠĠĠĠĠĠĠĠĠĠĠĠĠĠĠĠĠĠĠĠĠĠĠĠĠĠĠĠĠĠĠĠĠĠĠĠĠĠĠĠĠĠĠĠĠĠĠĠĠĠĠĠĠĠĠĠĠĠĠĠĠĠĠĠĠĠĠĠĠĠĠĠĠĠĠĠĠĠĠĠĠĠĠĠĠĠĠĠĠĠĠĠĠĠĠĠĠĠĠĠĠĠĠĠĠĠĠĠĠĠĠĠĠĠĠĠĠĠĠĠĠĠĠĠĠĠĠĠĠĠĠĠĠĠĠĠĠĠĠĠĠĠĠĠĠĠĠĠĠĠĠĠĠĠĠĠĠĠĠĠĠĠĠĠĠĠĠĠĠĠĠĠĠĠĠĠĠĠĠĠĠĠĠĠĠĠĠĠĠĠĠĠĠĠĠĠĠĠĠĠĠĠĠĠĠĠĠĠĠĠĠĠĠĠĠĠĠĠĠĠĠĠĠĠĠĠĠĠĠĠĠĠĠĠĠĠĠĠĠĠĠĠĠĠĠĠĠĠĠĠĠĠĠĠĠĠĠĠĠĠĠĠĠĠĠĠĠĠĠĠĠĠĠĠĠĠĠĠĠĠĠĠĠĠĠĠĠĠĠĠĠĠĠĠĠĠĠĠĠĠĠĠĠĠĠĠĠĠĠĠĠĠĠĠĠĠĠĠĠĠĠĠĠĠĠĠĠĠĠĠĠĠĠĠĠĠĠĠĠĠĠĠĠĠĠĠĠĠĠĠĠĠĠĠĠĠĠĠĠĠĠĠĠĠĠĠĠĠĠĠĠĠĠĠĠĠĠĠĠĠĠĠĠĠĠĠĠĠĠĠĠĠĠĠĠĠĠĠĠĠĠĠĠĠĠĠĠ": 19979,
  "Ġbehold": 38189,
  "zek": 27640,
  "Mark": 11063,
  "Ġforensic": 35073,
  ".(\\[": 27114,
  "çĤ¹": 29734,
  "Ø¨": 13621,
  "Ġisolation": 12940,
  "hir": 49440,
  "Ġallowing": 6941,
  "312": 20207,
  "Ġexam": 1174,
  "Ġknocking": 30906,
  "ĠpÅĻ": 27830,
  "Ġscanned": 25266,
  "Ġflight": 8630,
  "Ġrains": 42229,
  "Ġtertiary": 31000,
  "Pub": 35139,
  "?>": 28391,
  "atus": 3144,
  "Øµ": 30265,
  "Ġprogressive": 13439,
  "amin": 4988,
  "Ġmisdemeanor": 39889,
  "Ġorganize": 23968,
  "British": 22832,
  "BMI": 31685,
  "Solution": 37533,
  "ĠSem": 13740,
  "PEC": 41641,
  "ĠErn": 22948,
  "<%": 46762,
  "menopausal": 38901,
  "ulsion": 15305,
  "Ġrender": 8600,
  "ĠkÃ¶nnen": 37241,
  "ĠFAQ": 35863,
  "ĠDemocrat": 20736,
  "ĠPAT": 36224,
  ")>": 21966,
  "160": 9913,
  "Depend": 29090,
  "Ãµ": 10100,
  "è©": 28812,
  "ĠBangladesh": 29310,
  "ĠPotential": 38473,
  "è¿Ļ": 20622,
  "Ġresilient": 35730,
  "Ġconcur": 15038,
  "ĠMID": 38637,
  "Pass": 12161,
  "Ġpremises": 18702,
  "Ġdispat": 27758,
  "modules": 14825,
  "Ġinspections": 48350,
  "Ġcurb": 33204,
  "ĠJulius": 44402,
  "Scient": 40268,
  "ĠBooks": 16103,
  "ĠBryan": 30397,
  "Ġ538": 43139,
  "Brit": 19189,
  "Ġmismatch": 29713,
  "Ġonclick": 35254,
  "ē": 196,
  "ĠMed": 3050,
  "PS": 3299,
  "Ġbusinessman": 32427,
  "Ġdistribution": 3268,
  "ĠAdded": 32157,
  "Ġluggage": 36905,
  "ĠBOOST": 10807,
  "Ġexcel": 34219,
  "ropolitan": 19646,
  "Ġpent": 15482,
  "LEVEL": 36868,
  "abul": 21297,
  "ek": 1441,
  "Ġpill": 12575,
  "Ġwart": 34950,
  "Ġhierarch": 20258,
  "Ġmarine": 17787,
  "attice": 9772,
  "ĊĊĊĠĠĠĠĠ": 45936,
  "pired": 24875,
  "0065": 41545,
  "ĠGrant": 13629,
  "Ġclosing": 11196,
  "Ġoval": 32679,
  "ĠSanchez": 36126,
  "ĠConsequently": 13162,
  "Ġslender": 36019,
  "ĠYears": 20175,
  "ĠWireless": 36464,
  "bias": 39043,
  "chrom": 26539,
  "ĠAFTER": 46199,
  "Ġskate": 37931,
  "amide": 15320,
  "Ġbold": 13433,
  "åķ": 30676,
  "Ġaf": 6706,
  "hemer": 47842,
  "ÑĭÐµ": 38084,
  "ĠAlready": 41332,
  "Ġincent": 15210,
  "Ġprogrammes": 24040,
  "OCT": 45619,
  "ĠMarian": 38005,
  "enza": 13166,
  "ĠVill": 13758,
  "Ġplatforms": 13498,
  "288": 21340,
  "cake": 43926,
  "kill": 24212,
  "å¢": 34693,
  "OLOG": 41232,
  "ĠTABLE": 22454,
  "ndef": 16718,
  "arf": 45289,
  "ĠChronicle": 35971,
  "Ġpending": 13910,
  "Ġresonance": 12549,
  "Ġthreatening": 18844,
  "ĠTol": 23860,
  "Addr": 23054,
  "AUTH": 37482,
  "ĠWall": 8799,
  "Ġantibiotics": 18042,
  "Ġ234": 27812,
  "Ġlocation": 4328,
  "Ġsuperposition": 45616,
  "ĠAction": 12121,
  "433": 38693,
  "Ġcalled": 1925,
  "remia": 46739,
  "ĠSDK": 30500,
  "Ġwaveguide": 34986,
  "aching": 5250,
  "Ġgreen": 4759,
  "Ġinstantly": 18319,
  "NOR": 38035,
  "Ġnoise": 6046,
  "isf": 3042,
  "1967": 26369,
  "Ġph": 815,
  "ĠGene": 15763,
  "etype": 40427,
  "Ġdrank": 27215,
  "Ġsenior": 8474,
  "wn": 939,
  "ĠJong": 38065,
  ":*": 27506,
  "check": 5903,
  "ĠNations": 14726,
  "Ġappro": 1192,
  "Ġendless": 19461,
  "ĠJuliet": 46326,
  "ÑĢÐ°Ð½": 25089,
  "ĠORF": 43765,
  "GNU": 47509,
  "sched": 31062,
  "ĠStream": 22364,
  "Ġintimately": 48867,
  "Ġ()": 6734,
  "Ġmembrane": 6384,
  "ancellor": 23563,
  "inta": 39078,
  "Ġvacated": 35617,
  "Calculate": 5850,
  "ici": 12706,
  "Ġdocumented": 14290,
  "Ġinnov": 8434,
  "ured": 1520,
  "motor": 43838,
  "Ġartist": 9558,
  "patrick": 38456,
  "Ġlearners": 40390,
  "ãģĿ": 15936,
  "Ġnous": 13953,
  "olan": 24361,
  "atization": 47159,
  "ingle": 33202,
  "icularly": 21883,
  "small": 6795,
  "Ġdonate": 31656,
  "Ġteaching": 9551,
  "oration": 7843,
  "FLO": 38979,
  "camp": 23485,
  "industrial": 49338,
  "png": 8567,
  "zyme": 23682,
  "à¸Ķ": 35071,
  "Ġ175": 20105,
  "Ġ28": 3349,
  "Ġconferred": 35716,
  "icken": 20471,
  "Ġdeny": 13292,
  "icia": 29583,
  "Everybody": 35485,
  "Prim": 18204,
  "isle": 26707,
  "tons": 24787,
  "ĠExplorer": 29904,
  "ĠMyc": 43202,
  "ĠSul": 36375,
  "Ġfabulous": 31848,
  "Ġincon": 16656,
  "Ġloosely": 35056,
  "Ġonly": 760,
  "Ġsensation": 22135,
  "Ġtolerated": 29808,
  "ĠâĢĺ": 2802,
  "920": 43557,
  "HIV": 34331,
  "lake": 48212,
  "ollo": 25908,
  "ĠMU": 32639,
  "Ġinfinites": 47041,
  "Ġpowders": 46697,
  "Ġtob": 15485,
  "ĠCobb": 43342,
  "Ġinsect": 13188,
  "ĠMAS": 48677,
  "Ġcoordination": 19915,
  "Ġ**_": 30640,
  "uxe": 45669,
  "Ġlua": 33617,
  "Ġvoltage": 6718,
  "aciones": 20381,
  "ĠLambert": 40233,
  "Ġobserv": 1759,
  "Ġpercentage": 7155,
  ">\",": 43856,
  "Ġgeneric": 12314,
  "åĽŀ": 26270,
  "ĠMar": 2398,
  "Ġestr": 49712,
  "1937": 45750,
  "369": 26673,
  "áĢ¸": 48969,
  "St": 998,
  "Ġcurv": 15340,
  "Ġleurs": 37762,
  "Ġminerals": 29383,
  "ĠmmHg": 35123,
  "BRE": 37168,
  "Ġ319": 33311,
  "erver": 17188,
  "Proto": 36627,
  "ĠtÃ¤": 31234,
  "ĥ": 214,
  "ĠâĢķ": 39611,
  "inated": 3901,
  "Ã¼": 3090,
  "ÃĽ": 30041,
  "ĠLuc": 10467,
  "Ġ496": 43415,
  "ĠNorfolk": 37252,
  "Ġ67": 9963,
  "ĠSurvey": 17136,
  "ĠmV": 36436,
  "Ġ^[@": 34607,
  "Ġscaling": 13642,
  "Ġâī¤": 18315,
  "lder": 39828,
  "Enjoy": 45772,
  "Ġ440": 32210,
  "nement": 34711,
  "ĠQuery": 30123,
  "->": 1168,
  "Tree": 14444,
  "emp": 21568,
  "Indeed": 24804,
  "ext": 2068,
  "imgur": 48370,
  "ĠTK": 45449,
  "car": 5546,
  "Ġargs": 13059,
  "à¸²": 17141,
  "ĠMaz": 30173,
  "Ġdeeper": 12861,
  "Ġdistributed": 5939,
  "Ġne": 425,
  "adows": 16044,
  "mine": 18886,
  "ĊĠĊ": 19668,
  "ĠPittsburgh": 22119,
  "Ġobs": 18373,
  "MQ": 41488,
  "ä¸Ģ": 9850,
  "Ġphysically": 13318,
  "ĠGam": 34442,
  "ç«ĭ": 41478,
  "Ġmandated": 37310,
  "Ġredund": 19886,
  "iances": 18843,
  "ĠCharacter": 18633,
  "Ġsubsid": 14761,
  "Ġ1975": 14752,
  "Ġopenness": 47418,
  "ĠVery": 15997,
  "lb": 24780,
  "Ġnotes": 7211,
  "ĠHeroes": 44925,
  "Ch": 1779,
  "FTA": 30262,
  "agon": 5154,
  "Ġ706": 48436,
  "Ġmillilit": 36670,
  "ĠMED": 32036,
  "åħ¨": 30423,
  "casts": 44358,
  "verb": 25340,
  "Az": 22351,
  "Ñĳ": 36065,
  "oral": 7909,
  "ĠBangkok": 48771,
  "Ġcorpus": 20689,
  "Ġcries": 31791,
  "Ġloyal": 14211,
  "Ġstronger": 10046,
  "Ġcostly": 19983,
  "ĠMother": 12273,
  "ĠGir": 35480,
  "Ġdark": 3644,
  "ĠonClick": 39144,
  "Ġwhether": 1880,
  "conductor": 48679,
  "ĠLV": 19713,
  "Ġmoduli": 34838,
  "Ġdoubtless": 49654,
  "ĠSeah": 46424,
  "Ġdes": 711,
  "Ġcof": 7691,
  "Ġpercent": 2558,
  "Ġthanks": 6701,
  "Ġjumped": 16780,
  "Diagn": 33958,
  "play": 1993,
  "ĠMonsieur": 38321,
  "Ġber": 17099,
  "rators": 38844,
  "apes": 9652,
  "%\"}": 20868,
  "Ġtheoretical": 10527,
  "ĠIsaac": 29222,
  "711": 47608,
  "Ġtorch": 30162,
  ")))": 10689,
  "stride": 42583,
  "Ġintraoperative": 43872,
  "Ġshocks": 36085,
  "nell": 16847,
  "íķ": 15074,
  "Idx": 34345,
  "Ġsalts": 26793,
  "804": 28927,
  "Ġterrace": 36118,
  "Ġclip": 17230,
  "Ġtrembling": 36316,
  "ĠWon": 38191,
  "337": 23829,
  "Ġflex": 6520,
  "ĠTerror": 31199,
  "Ġrecordings": 19654,
  "Ġzone": 8232,
  ")</": 17266,
  "Ġdestruction": 12536,
  "InstanceState": 36802,
  "178": 20070,
  "ocrats": 41965,
  "\\*](#": 18022,
  "Ġbegan": 3407,
  "Nobody": 30213,
  "Ġdo": 513,
  "Ġreproduction": 21068,
  "ĠCon": 1716,
  "card": 9290,
  "Ġappellees": 34443,
  "Ġoppression": 35635,
  "Ġestablishments": 22696,
  "Ġcostumes": 37635,
  "Ġincre": 1141,
  "PET": 34751,
  "638": 48416,
  "dst": 19335,
  "ĠHorn": 23972,
  "Ġslavery": 21245,
  "ĠDebt": 16494,
  "Ġligament": 37864,
  "Ġsenators": 31650,
  "boost": 15467,
  "ĠDG": 39268,
  "ĠDefendant": 8167,
  "eh": 11430,
  "Õ": 145,
  "ĠCrime": 23325,
  "Ġpract": 2283,
  "Ġremovable": 38109,
  "Ġsuccesses": 34574,
  "ÙĦ": 4467,
  "ĠRetail": 45943,
  "Ġapart": 7419,
  "Ġopposition": 10266,
  "Ġsuitcase": 46872,
  "Ġcommunities": 7888,
  "Ġsystemic": 13407,
  "Ġcosmological": 26166,
  "Ġwink": 42790,
  "Ġ606": 48501,
  ";\\;": 28511,
  "idad": 10045,
  "enna": 13685,
  "Ġradially": 44423,
  "ĠRel": 5712,
  "Ġpreserving": 24279,
  "Ġpolype": 27743,
  "Lear": 24055,
  "armac": 42244,
  "Ġ{$": 37189,
  "catalina": 48391,
  "éĩį": 34698,
  "Profile": 23912,
  "Ġquelques": 47804,
  "Ġoutrage": 22145,
  "Ġki": 25130,
  "pseud": 39176,
  "Mary": 25000,
  "illet": 27525,
  "ç»ĵ": 43799,
  "ĠWorking": 21919,
  "Ġpero": 20056,
  "Ġbuses": 23444,
  "indicated": 47084,
  "vv": 24260,
  "Ġ307": 30761,
  "Psych": 36831,
  "General": 13425,
  "ĠSafe": 28481,
  "Ġlanding": 15165,
  "Ġthromb": 18364,
  "targeted": 44490,
  "Ġfood": 2739,
  "Ġdeficiencies": 30218,
  "overlay": 46732,
  "Ġ24": 2164,
  "Sm": 8944,
  "ĊĊĊĊĊĊĊĊ": 25330,
  "Î¿": 2863,
  "ĠCuban": 33074,
  "Ġencontr": 39348,
  "Ġqualitative": 18276,
  "Ġresc": 9708,
  "Ġsubcutaneous": 31967,
  "Ham": 22176,
  "ĠLit": 26775,
  "Ġannotations": 31825,
  "Ġdisabling": 44276,
  "EV": 8199,
  "ĠAndre": 23085,
  "Ġbeyond": 4457,
  "Ġdestination": 12095,
  "Ġdart": 35197,
  "Ġphyl": 15583,
  "Ġposing": 42501,
  "Ġstrangers": 26636,
  ")$,": 4244,
  "^âĪĴ": 6006,
  "204": 15781,
  "authentic": 42996,
  "2019": 9638,
  "ozyg": 16776,
  "poses": 6013,
  "Ġ680": 45376,
  "ĠInsp": 39551,
  "12345": 42594,
  "ĠLetters": 29027,
  "ĠResources": 19242,
  "Ġoperators": 9158,
  "Ġemployed": 7091,
  "Ġterminated": 19344,
  "ĠÃ¤r": 14710,
  "ĠJersey": 8911,
  "Ġexplos": 11143,
  "irled": 47097,
  "Ġengineered": 28136,
  "Ð¡": 22690,
  "294": 22858,
  "Ð¾Ð»ÑĮÐ·": 41060,
  "Ġannex": 29557,
  "wartz": 33194,
  "(@": 22256,
  "generic": 27256,
  "Ġmammary": 34875,
  "lc": 27827,
  "Ġbent": 16535,
  "Additional": 14087,
  "ib": 487,
  "Ġbank": 4310,
  "Ġexpelled": 39372,
  "ĠChanging": 45464,
  "Ġdescrib": 1800,
  "ĠRisk": 22887,
  "or": 263,
  "Ġcalibrated": 35890,
  "Ġmix": 5878,
  "ĠDowntown": 46827,
  "eville": 47581,
  "Ġay": 26275,
  "ĠCarib": 23920,
  "Ã©sident": 49405,
  "pmod": 44813,
  "596": 36679,
  "ĠGuid": 36661,
  "Ġisoforms": 30246,
  "ĠÅ¡": 23933,
  "concurrent": 42271,
  "volume": 21970,
  "reth": 47365,
  "âĢĶ'": 46823,
  "Mess": 48658,
  "ĠCPU": 12874,
  "ĠFLAG": 46923,
  "ĠaquÃŃ": 49753,
  "Ġboosting": 43124,
  "Ġcylindrical": 23990,
  "Ġarsenic": 45350,
  "Ġplung": 31314,
  "elly": 9609,
  "Ġlifeless": 49825,
  "Ġmode": 4438,
  "Ġvict": 3949,
  "ĠÑ": 7786,
  "modified": 25016,
  "Ġliar": 43459,
  "Ġsew": 29696,
  "assa": 25445,
  "rades": 36343,
  "Ġurban": 10106,
  "ennel": 48769,
  "Eric": 37376,
  "Ġdescended": 31206,
  "ÐµÐ½Ð¸Ñı": 22625,
  "ĠGut": 39205,
  "SIM": 32847,
  "compress": 42693,
  "shots": 28853,
  "ĠChev": 32762,
  "Ġ520": 34775,
  "tik": 28785,
  "arus": 33858,
  "Ġliking": 35908,
  "(()": 36810,
  "rÃ¥": 36535,
  "Ġribbon": 28865,
  "electric": 34502,
  "Beck": 46248,
  "unit": 8522,
  "Ġfabric": 8067,
  "re": 250,
  "Hay": 33972,
  "Ġblame": 13387,
  "Ġtransaction": 9996,
  "herical": 16635,
  "IFT": 14976,
  "rov": 18540,
  "ĠProgress": 28225,
  "ĠPour": 27808,
  "Ġrevelation": 28423,
  "Builder": 12038,
  "asts": 9346,
  "Ġ383": 38162,
  "inct": 4291,
  "ĠConf": 11204,
  "ÃŃm": 30856,
  "Ġdiseases": 6578,
  "thood": 22834,
  "Ġaveraging": 25001,
  "iret": 38959,
  "Lag": 47529,
  "ĠISIS": 25484,
  "Ġbehalf": 11136,
  "Ġalleviate": 33623,
  "Ġfragments": 14251,
  "MX": 32310,
  "blocks": 27027,
  "Ġidentifying": 12488,
  "dong": 45689,
  "olla": 30997,
  "Ġpunish": 21854,
  "SB": 15803,
  "eqno": 43913,
  "ismo": 15119,
  "{{": 6394,
  "Ġpads": 25297,
  "ner": 1216,
  "ĠSimmons": 36845,
  "acre": 20537,
  "Ġlag": 16653,
  "Ġminimizing": 28699,
  "Ġacid": 3527,
  "Ġ54": 8255,
  "Ġdit": 16465,
  "Ġfunctions": 3470,
  "Plus": 25263,
  "Ġacknow": 6997,
  "PROT": 39129,
  "Ġì": 7775,
  "inguishable": 37148,
  "Ġupon": 2220,
  "Ġisso": 31812,
  "derer": 21052,
  "lied": 16283,
  "Ġvain": 23732,
  "stmt": 39894,
  "Ġcontinually": 23265,
  "ceptors": 37555,
  "Ġoverlaps": 47685,
  "Ġ262": 32455,
  "Alright": 47292,
  "open": 5758,
  "plus": 11095,
  "Ġdeed": 22793,
  "utorial": 37929,
  "}}\\": 3080,
  "ovan": 22053,
  "ĠDAY": 39045,
  "ĠDemocrats": 10823,
  "Ġinfar": 19285,
  "Ġdyst": 32692,
  "Ġcontextual": 33876,
  "Ġparan": 34823,
  "isen": 11889,
  "Ġ2021": 43425,
  "ĠÑĦ": 21534,
  "Ġpilot": 11572,
  "Ð³": 9925,
  "ĠLaura": 21960,
  "extend": 31930,
  "appoint": 9626,
  "ĠRange": 21277,
  "ĠTony": 14861,
  "metric": 10994,
  "Ġging": 35424,
  "Ġrewards": 23267,
  "Ġtb": 34244,
  "response": 10927,
  "ustainable": 36148,
  "ware": 1935,
  "===========================": 49915,
  "ĠBACK": 29221,
  "à«": 25657,
  "Ġ36": 5540,
  "Ġactivating": 27149,
  "Ġcontender": 49865,
  "Ġtestament": 43864,
  "Sock": 38030,
  "Ġdestined": 33781,
  "Ġvolunteered": 43659,
  "Ġspells": 30712,
  "See": 5035,
  "anything": 38185,
  "Ġaffirmative": 25712,
  "Ġmotion": 3200,
  "ĠRs": 22504,
  "ĠHindu": 26334,
  "ĠColin": 31086,
  "Ġinsist": 23103,
  "decl": 16366,
  "Ġcover": 3835,
  "ĠcÃ³": 26566,
  "Ġirrational": 33384,
  "Ġmanufacture": 6833,
  "Ġperenn": 42202,
  "Ġtearing": 35765,
  "Ġyelling": 34553,
  "ĠBC": 12895,
  "gravity": 28702,
  "ĠTim": 8969,
  "ota": 5503,
  "Ġcass": 20725,
  "Ġconnectors": 37098,
  "Result": 9179,
  "Ġcoronal": 40054,
  "lÃ¤": 42824,
  "Ġcuriam": 43215,
  "Me": 5072,
  "Ġmold": 13100,
  "Ġparticipating": 15299,
  "Ġpivotal": 30847,
  "ĠÅ¼e": 33604,
  "ãģı": 14016,
  "Ġrehabilitation": 20123,
  "Ġbrethren": 49829,
  "ĠFP": 25127,
  "ĠTherefore": 3813,
  "ĠChinese": 5628,
  "Ġoccupant": 45628,
  "Ġtemperatures": 9208,
  "Ġ546": 43229,
  "Ġìŀ": 32115,
  "Brother": 50003,
  "ĠTucker": 34070,
  "Ġcultures": 11048,
  "656": 29543,
  "Ġmapping": 10603,
  "Excel": 43062,
  "Ġcovariant": 43359,
  "Ġcomplaint": 5833,
  "Ġdemonstration": 20028,
  "Ġduke": 46709,
  "Ġrecollection": 45167,
  "ition": 539,
  "blur": 49857,
  "'},": 35450,
  "chte": 39997,
  "ropol": 18427,
  "Ġst": 331,
  "Kh": 35994,
  "OVID": 13780,
  "Pt": 35462,
  "LIM": 37009,
  "ĠMohammed": 36250,
  "ĠYoung": 10231,
  "ĠNYC": 32880,
  "Ġja": 8729,
  "Ġkann": 27772,
  "Ġá¼Ĳ": 29135,
  "548": 47070,
  "ĠHamm": 25478,
  "ĠScient": 11615,
  "agreement": 45694,
  "corr": 45100,
  "ĠSCH": 44026,
  "ĠTickets": 48702,
  "jiang": 36492,
  "ĠUniversal": 21312,
  "Ġalgorithm": 5933,
  "max": 4090,
  "Written": 39557,
  "................": 10925,
  "Ġ:-)": 32074,
  "Ġcir": 5947,
  "oused": 24695,
  "ocyst": 42774,
  "Ġcloned": 26877,
  "ĠGL": 9653,
  "Ġcommun": 1681,
  "Tur": 23992,
  "Ġdiagnosing": 48858,
  "Ġexerc": 4506,
  "Ġhepar": 32073,
  "Ġknown": 1929,
  "Inside": 32277,
  "Ġexaminations": 25988,
  "Ġremoved": 5176,
  "Ġkeywords": 28731,
  "Ġthrottle": 41688,
  "ĠColleg": 43613,
  "Ġdebris": 21593,
  "Ð°ÑĤÑĮ": 15309,
  "Ġquery": 7316,
  "Ġtyping": 23629,
  "Ġoverall": 4583,
  "Ġwholesale": 35222,
  "uments": 3222,
  "1101": 40416,
  "ĠFebruary": 5080,
  "orts": 8707,
  "ĠVatican": 33411,
  "Ġcomfortably": 35766,
  "Ġ633": 48891,
  "Elizabeth": 45150,
  "Ġhacked": 41765,
  "Ġnullptr": 28471,
  "Theorem": 28892,
  "Ġplur": 10191,
  "ĠKw": 48601,
  "Ġdecoder": 29810,
  "ĠLemon": 44513,
  "Ġglimps": 50216,
  "Ġout": 562,
  "Sr": 46268,
  "Ġang": 2897,
  "ĠCP": 13874,
  ")**(-": 29291,
  "ĠChannel": 16824,
  "ĠICD": 40398,
  "Ġ156": 21807,
  "ilant": 39821,
  "itoring": 27305,
  "ĠBless": 38658,
  "ĠEarlier": 36072,
  "ĠTaiwan": 17975,
  "Ġfucked": 35598,
  "Ġhogy": 31530,
  "riction": 14365,
  "Ġqui": 7460,
  "combin": 39902,
  "Notable": 48415,
  "esteem": 40597,
  "Box": 7536,
  "inker": 37211,
  "Literal": 42962,
  "uly": 2988,
  "ENV": 33735,
  "ç»": 12755,
  "Ġ..": 10712,
  "Ġaux": 10992,
  "Ġcivic": 35857,
  "Ġcysteine": 35750,
  "production": 25307,
  "Ġexpanded": 11848,
  "Ġloads": 16665,
  "Ġparallel": 7529,
  "Ġsprint": 29644,
  "ienen": 40594,
  "ĠJohnston": 38437,
  "Ġeliminating": 23703,
  "Ġradius": 9941,
  "CLUS": 25280,
  "ships": 19794,
  "ĠFather": 10956,
  "Ġpavement": 37984,
  "inet": 7795,
  "Give": 19735,
  "Ġfemales": 10753,
  "Ġflesh": 15447,
  "-->": 22158,
  "Ġhippocamp": 17592,
  "invariant": 25168,
  "Ġbetween": 875,
  "Ġerroneous": 21210,
  "Ġopening": 5909,
  "automatic": 50154,
  "student": 39095,
  "ĠCarbon": 32676,
  "ĠMey": 49283,
  "ĠRock": 9384,
  "Ġflame": 21253,
  "ĠLecture": 49090,
  "Ġphotographer": 24996,
  "Cam": 14651,
  "Ġeru": 36850,
  "Ġfilings": 48174,
  "Evidence": 49153,
  "Ġfemoral": 28773,
  "Ġbalcony": 36009,
  "glich": 45075,
  "Ġharbor": 22754,
  "Ġtunneling": 33344,
  "ĠNOT": 5803,
  "dismiss": 37106,
  "Ġbloss": 33620,
  "Ġdexamethasone": 49478,
  "Ġsingularities": 34001,
  "âĢī": 1186,
  "ìĭ": 35169,
  "Ġexceed": 8268,
  "atomy": 24438,
  "Ã¶n": 17685,
  "bly": 44444,
  "DEFAULT": 25409,
  "hidden": 19057,
  "ĠFul": 35776,
  "1371": 26088,
  "Ġbeaut": 4191,
  "endas": 47184,
  "Ġcinnamon": 33871,
  "ĠHuss": 44035,
  "Ġhazards": 29952,
  "Customer": 30298,
  "ĠAdult": 32967,
  "ĠCarls": 46562,
  "-$\\": 42929,
  "Ġcasing": 30490,
  "Ġvigorously": 42210,
  "emas": 48380,
  "ĠCran": 45374,
  "Ġsued": 23460,
  "Ġbit": 2372,
  "ĠLaws": 28856,
  "¢": 97,
  "Ġgle": 20786,
  "Ġpept": 7653,
  "Ġcounterparts": 21421,
  "Ġtransfusion": 34190,
  "OUNT": 19984,
  "atri": 26628,
  "Ġhitherto": 42276,
  "Ġpleas": 26757,
  "proved": 27369,
  "Ġtime": 673,
  "nil": 18789,
  "Ġzoning": 35900,
  "Squ": 44824,
  "Ġpowder": 11687,
  "ford": 4379,
  "Det": 8486,
  "sufficient": 31031,
  "Ġsubclass": 35851,
  "ĠBit": 10210,
  "ance": 593,
  "Ġwishes": 16995,
  "Ġsubject": 2256,
  "Blo": 48265,
  "ĠCic": 45812,
  "extern": 19560,
  "Ġadoles": 13275,
  "ĠAnglo": 33252,
  "Ġmotivation": 16038,
  "Ġ---------------": 18592,
  "oupe": 37841,
  "ĠPRO": 25382,
  "Ġallegation": 26840,
  "ĠJake": 23239,
  "Ġath": 9621,
  "Ġinternal": 4812,
  "Ġold": 1711,
  "Ġneighbours": 31359,
  "Ġcontainers": 17671,
  "Ġdesper": 12298,
  "Ġkinetics": 24273,
  "Ġmodelling": 26278,
  "Ġ[`": 44308,
  "Ġchick": 8734,
  "Ġdisclaim": 23464,
  "icip": 4671,
  "ackage": 1627,
  "ĠRiemannian": 42601,
  "ĠStafford": 42936,
  "Ġcascade": 25282,
  "Ġphoton": 15523,
  "Ġsis": 49144,
  "letion": 37713,
  "Bud": 40255,
  "ĠHearing": 38308,
  "Encoding": 25396,
  "oxford": 49184,
  "ĠJo": 8174,
  "ĠLynch": 28589,
  "Ġlaptop": 16556,
  "ĠassertEquals": 32194,
  "ĠSorry": 26070,
  "Ġgrabbed": 16470,
  "Ġencryption": 24589,
  "Ġexcitation": 16820,
  "nutrition": 35172,
  "OR": 1372,
  "Ã¡d": 50031,
  "Ġ------------": 6557,
  "stable": 11351,
  "names": 7886,
  "}\\}$": 37299,
  "ĠCab": 15569,
  "Ġfrustrated": 23573,
  "Ġphone": 4481,
  "elin": 28957,
  "global": 14456,
  "ĠBast": 35747,
  "Middle": 32486,
  "Ice": 47141,
  "Silver": 40796,
  "ÂłĊ": 21304,
  "ĠModule": 30073,
  "Ġalleges": 20765,
  "Ġneopl": 34177,
  "ĠMarin": 41942,
  "Ġparticular": 1798,
  "Ġpepper": 13835,
  "unov": 43772,
  "ives": 1644,
  "rotic": 29800,
  "ĠInvoice": 49427,
  "Ġphysiological": 13424,
  "Ġbab": 5366,
  "ancers": 13342,
  "Ġbak": 35246,
  "Ġsucks": 35058,
  "spect": 18181,
  "lov": 21412,
  "Â½": 8313,
  "ĠPrincess": 23091,
  "IQR": 34914,
  "ĠConclusions": 35329,
  "ĠQaeda": 41136,
  "Ġtraffic": 7137,
  "ĠGulf": 18351,
  "Ġfingerprints": 44901,
  "one": 531,
  "Ġstarter": 26023,
  "Âĥ": 10778,
  "ĠConway": 47313,
  "ĠMemorial": 20718,
  "UPDATE": 23687,
  "Ġinconsistent": 16706,
  "aster": 2237,
  "AML": 29467,
  "ĠBlockchain": 49164,
  "Ġyacht": 39675,
  "ĠSK": 18460,
  "Shut": 32832,
  "aphragm": 32556,
  "Ġinteresting": 4722,
  "wrap": 13585,
  "Ġlid": 16486,
  "Ce": 27681,
  "Ġblockers": 48846,
  "Ġplating": 40774,
  "enix": 17473,
  "Ġrele": 1693,
  "SIG": 22963,
  "curs": 16461,
  "ĠTac": 37458,
  "un": 328,
  "ĠHew": 44990,
  "Ġencourages": 29426,
  "Ġjunctions": 33138,
  "ĠRat": 18194,
  "Along": 37356,
  "Ġflee": 32645,
  "reactive": 31708,
  "ĠChaos": 48790,
  "Sig": 41787,
  "Ġ\"âĻª": 14434,
  "oprotein": 14891,
  "cep": 41839,
  "Ġ[(\\[": 49824,
  "ĠGF": 33952,
  "Ġhairs": 39746,
  "rely": 5314,
  "Ġannoy": 14810,
  "Ġmothers": 14431,
  "Ġsemiconductor": 10236,
  "ĠCeltic": 40327,
  "Divide": 29374,
  "Left": 11875,
  "manifold": 38556,
  "à¸ĩ": 25051,
  "ĠMun": 17311,
  "Ġbal": 4273,
  "epithelial": 47910,
  "ĠApply": 39530,
  "ĠGuest": 34933,
  "essa": 15959,
  "Ġcoercion": 46638,
  "Ġdans": 7723,
  "Ġinclusive": 25495,
  "Ġforward": 3579,
  "uries": 6465,
  "Ġla": 826,
  "Ġvessel": 11179,
  "Ġblocked": 13230,
  "Ġdisgust": 24808,
  "Ġinco": 44592,
  "Ġreservation": 28930,
  "baz": 31953,
  "aim": 1468,
  "olu": 50025,
  "Ġ134": 13900,
  "ĠGraves": 40726,
  "Ġcheckpoint": 32552,
  "omin": 5240,
  "ĠChain": 37239,
  "Fer": 48563,
  "Ġdevastated": 43287,
  "oyer": 37674,
  "Ġpresumption": 22797,
  "ĠMens": 33582,
  "yman": 22493,
  "Ġcareg": 23063,
  "Ġinnovations": 32771,
  "ĠCraig": 20577,
  "Ġgrids": 42590,
  "Ġmassive": 7863,
  "DON": 39153,
  "Ġnonsense": 25333,
  "Ġpremiums": 36102,
  "Ġwebsites": 14248,
  "SN": 18243,
  "izes": 4219,
  "imate": 2542,
  "Ġstacked": 24982,
  "652": 36681,
  "Ġopportunity": 5107,
  "Å£i": 33541,
  "Ġsett": 3414,
  "Ġmarked": 7101,
  "dec": 8632,
  "ĠRedist": 25936,
  "qq": 19084,
  "ĠHybrid": 42813,
  "Ġpatron": 24081,
  "Ġslope": 14679,
  "ĠWhether": 12369,
  "Ġwrong": 3430,
  "Ġavoidance": 28772,
  "ĠĠĠĠĠĠĊĠ": 48018,
  "Ġ277": 28043,
  "Ġstretches": 33902,
  "ubunt": 42731,
  "Ġtourists": 24359,
  "R": 51,
  "ĠRelief": 38799,
  "ĠUM": 44171,
  "Ġescal": 20092,
  "Ġovat": 45079,
  "Ġkissed": 23651,
  "è¨Ģ": 31982,
  "Ġelectro": 4640,
  "Ġ326": 34897,
  "term": 3945,
  "Ġinterventions": 12214,
  "arrhea": 28487,
  "uously": 26374,
  "Ġcomplained": 19375,
  "Ġphysi": 25258,
  "Ġhanno": 47060,
  "lemen": 45457,
  "populations": 43221,
  "rost": 18419,
  "Î½": 3147,
  "ĠTomorrow": 43475,
  "Ġexchanged": 25920,
  "And": 1898,
  "Ġhij": 22082,
  "Cla": 47165,
  "ĠVAL": 15527,
  "ĠMathematics": 22718,
  "Ġpin": 9176,
  "Ġunivers": 6978,
  "Equal": 12827,
  "illard": 41936,
  "noise": 24946,
  "ĠSprings": 26250,
  "ãĥĭ": 40352,
  "Ġexpert": 6485,
  "ĠMir": 11777,
  "ĠSimilarly": 10244,
  "Ġfilesystem": 42357,
  "Ġphotographed": 36704,
  "Ġ594": 46475,
  "ĠClean": 24373,
  "Ġabruptly": 30046,
  "Ġdin": 13223,
  "Ġintuitive": 27350,
  "ĠChart": 28525,
  "Ġcloning": 34591,
  "959": 35461,
  "Ġdestiny": 31776,
  "Ġfishes": 49720,
  "Ġordinary": 9826,
  "ĠPolish": 19701,
  "Ġuncertain": 8767,
  "ĠÎµ": 9737,
  "Writer": 16978,
  "ĠÐ»Ñİ": 48098,
  "Ġsubordinate": 42301,
  "Wil": 21892,
  "Eye": 48144,
  "YE": 27413,
  "Ġ236": 28131,
  "andra": 17244,
  "Ġmediates": 41922,
  "Ġoccupied": 13598,
  "Ġdice": 25807,
  "hora": 24643,
  "itol": 16180,
  "Ġsigned": 6704,
  "Ð¸Ð±": 43218,
  "rish": 41657,
  "oma": 3691,
  "äºĮ": 34744,
  "Ġflav": 8043,
  "ĠGust": 33746,
  "Ġballs": 15254,
  "ĠÂ±": 3279,
  "ath": 506,
  "cia": 14265,
  "Ġregimes": 27005,
  "hibit": 26849,
  "inence": 40156,
  "Ġdiffers": 19986,
  "Constraint": 35118,
  "Ġdic": 37266,
  "arek": 46396,
  "}\\": 889,
  "æķ": 10962,
  "Ġsocialism": 38384,
  ")}{\\": 15734,
  "Ġsociety": 5948,
  "ĠHert": 45763,
  "Ġstimulated": 18606,
  "ools": 23699,
  "ĠSidney": 46637,
  "Ġdrafts": 42000,
  "Ġexempt": 13959,
  "åĲİ": 29427,
  "ĠReuters": 24197,
  "ument": 1303,
  "ARM": 24407,
  "rystall": 26674,
  "mpty": 14740,
  "ĠFunding": 44303,
  "ets": 1507,
  "ĠTel": 21123,
  "Ġnd": 40515,
  "Ġrequesting": 24433,
  "Ġstains": 42131,
  "Ġlove": 2389,
  "Ġpractices": 8333,
  "ĠGlenn": 31026,
  "Ġprompting": 40021,
  "Comm": 25600,
  "ĠTests": 32503,
  "faith": 39575,
  "ĠViv": 31802,
  "ove": 710,
  "ĠAircraft": 50214,
  "ÏģÏĩ": 49798,
  "npmjs": 47449,
  "ĠWarren": 17966,
  "Obviously": 32102,
  "Ġeruption": 46140,
  "until": 27390,
  "Ġtips": 12192,
  "conditions": 32978,
  "ĠNum": 21046,
  "Ġquestions": 3533,
  "599": 46407,
  "Ġsuffice": 36433,
  "Ġexploration": 17947,
  "ä¸": 3218,
  "blems": 23042,
  "fo": 4786,
  "ĠSEO": 30278,
  "Sn": 16350,
  "Ġ1993": 9725,
  "Ġlogistic": 21535,
  "Ġaiming": 26400,
  "Ġsurve": 8957,
  "Ġuniformly": 17568,
  "DB": 8904,
  "ÑĢÐ¾": 41014,
  "iento": 17925,
  "doctor": 38272,
  "Ġdonde": 38106,
  "Ġmuss": 45215,
  "Ġagitation": 39786,
  "Ess": 33300,
  "opathy": 15819,
  "Ġshowcase": 34647,
  "Ġheater": 34037,
  "tocol": 16658,
  "ep": 554,
  "ENTRY": 31626,
  "PCs": 30632,
  "Want": 32841,
  "ĠAnalytics": 41220,
  "ā": 178,
  "usepackage": 2099,
  "Ġsuction": 34907,
  "Ġexploitation": 30211,
  "ĠÎ·": 24355,
  "ogen": 2646,
  "709": 26371,
  "----------------------------": 29295,
  "?)": 14677,
  "ĠÏĦÎ¹ÏĤ": 48002,
  "orandum": 31882,
  "angi": 24091,
  "aban": 23818,
  "erior": 8538,
  "linking": 30816,
  "~:": 44577,
  "Ġâģ": 27344,
  "Ġdisadvantage": 18928,
  "Ġ1895": 42549,
  "Ġspot": 6308,
  "Ġresident": 14544,
  "apsed": 13395,
  "609": 27059,
  "mith": 27268,
  "Ġ487": 41949,
  "ĠCharge": 42770,
  "Ġprogrammers": 39335,
  "Online": 30430,
  "Ġenem": 6502,
  "Ġincarcerated": 44099,
  "rugged": 20493,
  "Ġmeaningless": 34209,
  "Ġsampled": 19958,
  "ĠCalifornia": 5002,
  "ĠVolks": 39102,
  "ĠChris": 11007,
  "Ġathlete": 27799,
  "Ġconject": 19704,
  "Ġ213": 25098,
  "Ġcoordinates": 11627,
  "Ġplanned": 9355,
  "misc": 43671,
  "itan": 10157,
  "oni": 12355,
  "acci": 42401,
  "professional": 36094,
  "ĠLeg": 7153,
  "ä»¥": 16877,
  "ĠHampton": 41426,
  "Ġcurrents": 18476,
  "Ġelectrostatic": 28039,
  "Ġanch": 11886,
  "Ġobjectives": 16566,
  "Alex": 18552,
  "Ð¸Ðº": 18778,
  "Ġroof": 10699,
  "Ġsafer": 23107,
  "exports": 23756,
  "left": 1274,
  "Ġ308": 31499,
  "ĠMartinez": 28982,
  "Ġdebugging": 33146,
  "irector": 8152,
  "itories": 31099,
  "GP": 12295,
  "imension": 50127,
  "raged": 34785,
  "ĠBone": 34257,
  "Ä±r": 43159,
  "ĠREAD": 28204,
  "Ġideals": 26784,
  "Ġmos": 15039,
  "Ġpaternal": 38629,
  "ĠOh": 5531,
  "ĠWatts": 46629,
  "addr": 9834,
  "åł±": 48029,
  "Ġtran": 21191,
  "Ġvirgin": 34570,
  "ĠÐł": 32082,
  "ĠAND": 4889,
  "ĠDrum": 39582,
  "Ġpint": 36991,
  "ĠWhit": 17353,
  "views": 17920,
  "Ġawkward": 19328,
  "73": 3655,
  "uates": 21094,
  "ice": 547,
  "ukin": 24421,
  "Ġcriticized": 23159,
  "Ġrider": 30340,
  "wealth": 13902,
  "à½": 49233,
  "iceps": 41150,
  "ĠWeak": 49092,
  "Ġbarbecue": 49347,
  "Errorf": 26071,
  "è¿ĩ": 32004,
  "Î»Î»": 29704,
  "Ġali": 19541,
  "cycle": 16441,
  "ikov": 34089,
  "Ġconcentrate": 21364,
  "Ġnull": 3635,
  "Ġsuffers": 27171,
  "Ġcontour": 25883,
  "Ġfreight": 34743,
  "tox": 15595,
  "jd": 28034,
  "Ġresistant": 14264,
  "constrained": 48454,
  "ound": 517,
  "ĠGrow": 47739,
  "Ġcontainment": 46054,
  "ĠKC": 36635,
  "ZZ": 25314,
  "Ġtrapping": 35600,
  "Ġvault": 28395,
  "Version": 8893,
  "ĠContainer": 40684,
  "Ġcircle": 9096,
  "Ġamyl": 24672,
  "ĠmL": 14141,
  "Ġmoet": 42397,
  "\"_": 47439,
  "hips": 16458,
  ".&": 40551,
  "go": 2184,
  "Ġresponsive": 20876,
  "Ġtoe": 25283,
  "Ġwhat": 752,
  "Ġselective": 13687,
  "ocation": 4341,
  "Sher": 40337,
  "Ġdonation": 23672,
  "Ġbloc": 41129,
  "Ġtravail": 46158,
  "CUR": 26336,
  "Start": 8252,
  "IDE": 15400,
  "Marker": 42646,
  "Std": 38821,
  "uld": 29752,
  "Ġtolerant": 41842,
  "Ġsuspended": 14116,
  "Ġ}{": 21159,
  "ĠHence": 7757,
  "ĠSED": 41343,
  "Ġchoosing": 13887,
  "Package": 22113,
[...]
